{
  "version": "1.0",
  "truncation": null,
  "padding": null,
  "added_tokens": [
    {
      "id": 0,
      "content": "[PAD]",
      "single_word": false,
      "lstrip": false,
      "rstrip": false,
      "normalized": false,
      "special": true
    },
    {
      "id": 1,
      "content": "[UNK]",
      "single_word": false,
      "lstrip": false,
      "rstrip": false,
      "normalized": false,
      "special": true
    },
    {
      "id": 2,
      "content": "[START]",
      "single_word": false,
      "lstrip": false,
      "rstrip": false,
      "normalized": false,
      "special": true
    },
    {
      "id": 3,
      "content": "[END]",
      "single_word": false,
      "lstrip": false,
      "rstrip": false,
      "normalized": false,
      "special": true
    }
  ],
  "normalizer": null,
  "pre_tokenizer": {
    "type": "Whitespace"
  },
  "post_processor": null,
  "decoder": null,
  "model": {
    "type": "WordPiece",
    "unk_token": "[UNK]",
    "continuing_subword_prefix": "##",
    "max_input_chars_per_word": 100,
    "vocab": {
      "[PAD]": 0,
      "[UNK]": 1,
      "[START]": 2,
      "[END]": 3,
      "!": 4,
      "\"": 5,
      "#": 6,
      "$": 7,
      "%": 8,
      "&": 9,
      "'": 10,
      "(": 11,
      ")": 12,
      "*": 13,
      "+": 14,
      ",": 15,
      "-": 16,
      ".": 17,
      "/": 18,
      "0": 19,
      "1": 20,
      "2": 21,
      "3": 22,
      "4": 23,
      "5": 24,
      "6": 25,
      "7": 26,
      "8": 27,
      "9": 28,
      ":": 29,
      ";": 30,
      "<": 31,
      "=": 32,
      ">": 33,
      "?": 34,
      "@": 35,
      "[": 36,
      "\\": 37,
      "]": 38,
      "^": 39,
      "_": 40,
      "`": 41,
      "a": 42,
      "b": 43,
      "c": 44,
      "d": 45,
      "e": 46,
      "f": 47,
      "g": 48,
      "h": 49,
      "i": 50,
      "j": 51,
      "k": 52,
      "l": 53,
      "m": 54,
      "n": 55,
      "o": 56,
      "p": 57,
      "q": 58,
      "r": 59,
      "s": 60,
      "t": 61,
      "u": 62,
      "v": 63,
      "w": 64,
      "x": 65,
      "y": 66,
      "z": 67,
      "{": 68,
      "|": 69,
      "}": 70,
      "~": 71,
      "¤": 72,
      "¿": 73,
      "the": 74,
      "of": 75,
      "and": 76,
      "in": 77,
      "to": 78,
      "we": 79,
      "for": 80,
      "is": 81,
      "that": 82,
      "with": 83,
      "on": 84,
      "##s": 85,
      "this": 86,
      "by": 87,
      "are": 88,
      "as": 89,
      "an": 90,
      "from": 91,
      "be": 92,
      "which": 93,
      "at": 94,
      "model": 95,
      "can": 96,
      "our": 97,
      "data": 98,
      "two": 99,
      "it": 100,
      "based": 101,
      "these": 102,
      "using": 103,
      "results": 104,
      "show": 105,
      "time": 106,
      "also": 107,
      "models": 108,
      "have": 109,
      "or": 110,
      "quantum": 111,
      "between": 112,
      "such": 113,
      "field": 114,
      "##ing": 115,
      "has": 116,
      "one": 117,
      "paper": 118,
      "study": 119,
      "method": 120,
      "system": 121,
      "non": 122,
      "energy": 123,
      "not": 124,
      "high": 125,
      "##d": 126,
      "new": 127,
      "state": 128,
      "their": 129,
      "learning": 130,
      "its": 131,
      "systems": 132,
      "large": 133,
      "theory": 134,
      "##ed": 135,
      "##ly": 136,
      "approach": 137,
      "problem": 138,
      "different": 139,
      "both": 140,
      "order": 141,
      "space": 142,
      "present": 143,
      "first": 144,
      "all": 145,
      "analysis": 146,
      "well": 147,
      "where": 148,
      "more": 149,
      "mass": 150,
      "than": 151,
      "when": 152,
      "been": 153,
      "number": 154,
      "methods": 155,
      "used": 156,
      "function": 157,
      "##t": 158,
      "phase": 159,
      "into": 160,
      "proposed": 161,
      "##r": 162,
      "properties": 163,
      "performance": 164,
      "over": 165,
      "structure": 166,
      "low": 167,
      "some": 168,
      "find": 169,
      "only": 170,
      "##e": 171,
      "dimensional": 172,
      "network": 173,
      "work": 174,
      "magnetic": 175,
      "spin": 176,
      "but": 177,
      "information": 178,
      "use": 179,
      "case": 180,
      "##a": 181,
      "other": 182,
      "however": 183,
      "states": 184,
      "propose": 185,
      "algorithm": 186,
      "while": 187,
      "density": 188,
      "set": 189,
      "distribution": 190,
      "##er": 191,
      "##o": 192,
      "three": 193,
      "type": 194,
      "then": 195,
      "through": 196,
      "linear": 197,
      "if": 198,
      "under": 199,
      "framework": 200,
      "each": 201,
      "networks": 202,
      "single": 203,
      "functions": 204,
      "##n": 205,
      "scale": 206,
      "dynamics": 207,
      "general": 208,
      "due": 209,
      "provide": 210,
      "finite": 211,
      "parameters": 212,
      "potential": 213,
      "temperature": 214,
      "local": 215,
      "point": 216,
      "most": 217,
      "10": 218,
      "##al": 219,
      "may": 220,
      "process": 221,
      "real": 222,
      "how": 223,
      "multi": 224,
      "observed": 225,
      "demonstrate": 226,
      "given": 227,
      "any": 228,
      "obtained": 229,
      "##i": 230,
      "range": 231,
      "result": 232,
      "##m": 233,
      "equation": 234,
      "##y": 235,
      "level": 236,
      "many": 237,
      "within": 238,
      "they": 239,
      "there": 240,
      "##l": 241,
      "solutions": 242,
      "##c": 243,
      "small": 244,
      "effect": 245,
      "##p": 246,
      "was": 247,
      "experiments": 248,
      "group": 249,
      "equations": 250,
      "power": 251,
      "up": 252,
      "particular": 253,
      "terms": 254,
      "applications": 255,
      "here": 256,
      "found": 257,
      "effects": 258,
      "graph": 259,
      "rate": 260,
      "ray": 261,
      "image": 262,
      "form": 263,
      "known": 264,
      "detection": 265,
      "solution": 266,
      "conditions": 267,
      "class": 268,
      "training": 269,
      "novel": 270,
      "neural": 271,
      "surface": 272,
      "numerical": 273,
      "recent": 274,
      "complex": 275,
      "effective": 276,
      "several": 277,
      "parameter": 278,
      "light": 279,
      "transition": 280,
      "star": 281,
      "prove": 282,
      "fields": 283,
      "experimental": 284,
      "deep": 285,
      "current": 286,
      "features": 287,
      "optical": 288,
      "via": 289,
      "##es": 290,
      "consider": 291,
      "problems": 292,
      "gamma": 293,
      "wave": 294,
      "matter": 295,
      "control": 296,
      "like": 297,
      "strong": 298,
      "will": 299,
      "various": 300,
      "free": 301,
      "out": 302,
      "simulations": 303,
      "standard": 304,
      "galaxies": 305,
      "simple": 306,
      "evolution": 307,
      "random": 308,
      "observations": 309,
      "stars": 310,
      "possible": 311,
      "including": 312,
      "shown": 313,
      "algorithms": 314,
      "interaction": 315,
      "same": 316,
      "very": 317,
      "compared": 318,
      "classical": 319,
      "limit": 320,
      "multiple": 321,
      "higher": 322,
      "matrix": 323,
      "self": 324,
      "size": 325,
      "optimal": 326,
      "further": 327,
      "##2": 328,
      "emission": 329,
      "long": 330,
      "design": 331,
      "black": 332,
      "no": 333,
      "about": 334,
      "times": 335,
      "source": 336,
      "critical": 337,
      "existing": 338,
      "even": 339,
      "without": 340,
      "##f": 341,
      "domain": 342,
      "alpha": 343,
      "##ity": 344,
      "measurements": 345,
      "##ic": 346,
      "second": 347,
      "particle": 348,
      "investigate": 349,
      "electron": 350,
      "formation": 351,
      "##0": 352,
      "associated": 353,
      "coupling": 354,
      "so": 355,
      "spectrum": 356,
      "symmetry": 357,
      "##g": 358,
      "value": 359,
      "were": 360,
      "spectral": 361,
      "accuracy": 362,
      "obtain": 363,
      "mathbb": 364,
      "discuss": 365,
      "frequency": 366,
      "efficient": 367,
      "values": 368,
      "important": 369,
      "images": 370,
      "gas": 371,
      "##b": 372,
      "behavior": 373,
      "interactions": 374,
      "language": 375,
      "flow": 376,
      "lattice": 377,
      "introduce": 378,
      "significant": 379,
      "line": 380,
      "task": 381,
      "way": 382,
      "noise": 383,
      "previous": 384,
      "boundary": 385,
      "give": 386,
      "zero": 387,
      "techniques": 388,
      "optimization": 389,
      "tasks": 390,
      "dark": 391,
      "sample": 392,
      "during": 393,
      "corresponding": 394,
      "theoretical": 395,
      "related": 396,
      "##on": 397,
      "bound": 398,
      "finally": 399,
      "physical": 400,
      "similar": 401,
      "structures": 402,
      "region": 403,
      "research": 404,
      "those": 405,
      "##h": 406,
      "thus": 407,
      "scattering": 408,
      "processes": 409,
      "near": 410,
      "galaxy": 411,
      "constant": 412,
      "lower": 413,
      "approximation": 414,
      "allows": 415,
      "them": 416,
      "approaches": 417,
      "main": 418,
      "##v": 419,
      "##able": 420,
      "classification": 421,
      "studies": 422,
      "studied": 423,
      "specific": 424,
      "datasets": 425,
      "representation": 426,
      "generation": 427,
      "application": 428,
      "available": 429,
      "provides": 430,
      "consistent": 431,
      "dataset": 432,
      "mean": 433,
      "groups": 434,
      "recently": 435,
      "##k": 436,
      "topological": 437,
      "art": 438,
      "constraints": 439,
      "open": 440,
      "physics": 441,
      "spatial": 442,
      "cross": 443,
      "applied": 444,
      "error": 445,
      "nonlinear": 446,
      "global": 447,
      "scheme": 448,
      "particles": 449,
      "test": 450,
      "simulation": 451,
      "knowledge": 452,
      "presented": 453,
      "end": 454,
      "stellar": 455,
      "lambda": 456,
      "##1": 457,
      "mathcal": 458,
      "correlation": 459,
      "graphs": 460,
      "cases": 461,
      "velocity": 462,
      "motion": 463,
      "hole": 464,
      "dependent": 465,
      "points": 466,
      "code": 467,
      "machine": 468,
      "rm": 469,
      "gauge": 470,
      "induced": 471,
      "resolution": 472,
      "initial": 473,
      "measure": 474,
      "3d": 475,
      "presence": 476,
      "text": 477,
      "cluster": 478,
      "vector": 479,
      "significantly": 480,
      "##x": 481,
      "mu": 482,
      "spaces": 483,
      "derived": 484,
      "feature": 485,
      "distance": 486,
      "certain": 487,
      "context": 488,
      "human": 489,
      "estimation": 490,
      "probability": 491,
      "sources": 492,
      "pi": 493,
      "called": 494,
      "dynamical": 495,
      "existence": 496,
      "quality": 497,
      "delta": 498,
      "thermal": 499,
      "search": 500,
      "mechanism": 501,
      "could": 502,
      "spectra": 503,
      "future": 504,
      "generalized": 505,
      "independent": 506,
      "four": 507,
      "weak": 508,
      "sigma": 509,
      "signal": 510,
      "generated": 511,
      "across": 512,
      "stochastic": 513,
      "key": 514,
      "derive": 515,
      "ratio": 516,
      "considered": 517,
      "theorem": 518,
      "##3": 519,
      "efficiency": 520,
      "band": 521,
      "us": 522,
      "scalar": 523,
      "decay": 524,
      "operators": 525,
      "objects": 526,
      "distributions": 527,
      "series": 528,
      "better": 529,
      "technique": 530,
      "prediction": 531,
      "##ation": 532,
      "charge": 533,
      "dynamic": 534,
      "channel": 535,
      "momentum": 536,
      "moreover": 537,
      "dependence": 538,
      "term": 539,
      "natural": 540,
      "differential": 541,
      "role": 542,
      "computational": 543,
      "defined": 544,
      "input": 545,
      "addition": 546,
      "driven": 547,
      "along": 548,
      "complexity": 549,
      "developed": 550,
      "do": 551,
      "gravitational": 552,
      "furthermore": 553,
      "operator": 554,
      "understanding": 555,
      "examples": 556,
      "world": 557,
      "diffusion": 558,
      "factor": 559,
      "continuous": 560,
      "positive": 561,
      "radio": 562,
      "does": 563,
      "shows": 564,
      "gravity": 565,
      "loss": 566,
      "part": 567,
      "describe": 568,
      "ii": 569,
      "sets": 570,
      "dimension": 571,
      "relation": 572,
      "##ion": 573,
      "object": 574,
      "stability": 575,
      "invariant": 576,
      "algebra": 577,
      "binary": 578,
      "transport": 579,
      "production": 580,
      "after": 581,
      "regions": 582,
      "##ness": 583,
      "coupled": 584,
      "measurement": 585,
      "robust": 586,
      "omega": 587,
      "modes": 588,
      "often": 589,
      "total": 590,
      "##u": 591,
      "among": 592,
      "fixed": 593,
      "few": 594,
      "full": 595,
      "##in": 596,
      "component": 597,
      "compact": 598,
      "action": 599,
      "sequence": 600,
      "mode": 601,
      "solar": 602,
      "improve": 603,
      "around": 604,
      "ground": 605,
      "symmetric": 606,
      "background": 607,
      "molecular": 608,
      "estimate": 609,
      "transfer": 610,
      "clusters": 611,
      "condition": 612,
      "edge": 613,
      "modeling": 614,
      "flux": 615,
      "statistical": 616,
      "average": 617,
      "body": 618,
      "complete": 619,
      "length": 620,
      "being": 621,
      "massive": 622,
      "calculations": 623,
      "representations": 624,
      "target": 625,
      "geometry": 626,
      "metric": 627,
      "develop": 628,
      "convergence": 629,
      "bounds": 630,
      "photon": 631,
      "example": 632,
      "plane": 633,
      "direct": 634,
      "layer": 635,
      "gap": 636,
      "user": 637,
      "stable": 638,
      "short": 639,
      "resulting": 640,
      "##ization": 641,
      "attention": 642,
      "discussed": 643,
      "measured": 644,
      "fundamental": 645,
      "extended": 646,
      "components": 647,
      "exact": 648,
      "discrete": 649,
      "entropy": 650,
      "theories": 651,
      "impact": 652,
      "##ts": 653,
      "determine": 654,
      "gaussian": 655,
      "##an": 656,
      "quark": 657,
      "disk": 658,
      "survey": 659,
      "degree": 660,
      "construct": 661,
      "types": 662,
      "best": 663,
      "expected": 664,
      "maximum": 665,
      "address": 666,
      "regime": 667,
      "leading": 668,
      "dimensions": 669,
      "cost": 670,
      "leads": 671,
      "##w": 672,
      "much": 673,
      "##z": 674,
      "neutrino": 675,
      "identify": 676,
      "equilibrium": 677,
      "##ers": 678,
      "strongly": 679,
      "achieve": 680,
      "predictions": 681,
      "respectively": 682,
      "larger": 683,
      "respect": 684,
      "##ally": 685,
      "functional": 686,
      "arbitrary": 687,
      "whose": 688,
      "highly": 689,
      "evidence": 690,
      "limited": 691,
      "beta": 692,
      "central": 693,
      "additional": 694,
      "scaling": 695,
      "since": 696,
      "relative": 697,
      "sim": 698,
      "law": 699,
      "##5": 700,
      "al": 701,
      "introduced": 702,
      "masses": 703,
      "trained": 704,
      "wide": 705,
      "evaluation": 706,
      "less": 707,
      "accurate": 708,
      "temporal": 709,
      "rates": 710,
      "core": 711,
      "nature": 712,
      "fast": 713,
      "samples": 714,
      "processing": 715,
      "either": 716,
      "communication": 717,
      "##le": 718,
      "##nt": 719,
      "computing": 720,
      "report": 721,
      "log": 722,
      "variables": 723,
      "gradient": 724,
      "good": 725,
      "step": 726,
      "analyze": 727,
      "environment": 728,
      "map": 729,
      "therefore": 730,
      "##or": 731,
      "upper": 732,
      "population": 733,
      "estimates": 734,
      "asymptotic": 735,
      "loop": 736,
      "response": 737,
      "above": 738,
      "partial": 739,
      "##4": 740,
      "towards": 741,
      "##ive": 742,
      "compare": 743,
      "fully": 744,
      "radiation": 745,
      "active": 746,
      "neutron": 747,
      "algebras": 748,
      "perform": 749,
      "focus": 750,
      "cosmological": 751,
      "tensor": 752,
      "classes": 753,
      "##rs": 754,
      "compute": 755,
      "waves": 756,
      "account": 757,
      "proof": 758,
      "elements": 759,
      "change": 760,
      "co": 761,
      "apply": 762,
      "growth": 763,
      "nuclear": 764,
      "pair": 765,
      "heavy": 766,
      "##ting": 767,
      "common": 768,
      "explicit": 769,
      "fluctuations": 770,
      "memory": 771,
      "development": 772,
      "description": 773,
      "##ized": 774,
      "expansion": 775,
      "increase": 776,
      "quasi": 777,
      "correlations": 778,
      "pre": 779,
      "shape": 780,
      "challenges": 781,
      "polarization": 782,
      "property": 783,
      "comparison": 784,
      "minimal": 785,
      "make": 786,
      "scenarios": 787,
      "still": 788,
      "materials": 789,
      "specifically": 790,
      "inference": 791,
      "maps": 792,
      "##us": 793,
      "product": 794,
      "scales": 795,
      "construction": 796,
      "closed": 797,
      "imaging": 798,
      "close": 799,
      "distributed": 800,
      "described": 801,
      "sum": 802,
      "devices": 803,
      "bar": 804,
      "because": 805,
      "geometric": 806,
      "investigated": 807,
      "explore": 808,
      "et": 809,
      "agreement": 810,
      "literature": 811,
      "mathrm": 812,
      "##6": 813,
      "relevant": 814,
      "polynomial": 815,
      "determined": 816,
      "able": 817,
      "electronic": 818,
      "need": 819,
      "galactic": 820,
      "changes": 821,
      "support": 822,
      "special": 823,
      "##ability": 824,
      "experiment": 825,
      "increasing": 826,
      "events": 827,
      "normal": 828,
      "infinite": 829,
      "should": 830,
      "relativistic": 831,
      "strategy": 832,
      "least": 833,
      "cosmic": 834,
      "users": 835,
      "2d": 836,
      "double": 837,
      "variable": 838,
      "selection": 839,
      "computation": 840,
      "pressure": 841,
      "sub": 842,
      "lines": 843,
      "performed": 844,
      "lead": 845,
      "entanglement": 846,
      "previously": 847,
      "negative": 848,
      "higgs": 849,
      "reduction": 850,
      "generate": 851,
      "##en": 852,
      "every": 853,
      "question": 854,
      "extensive": 855,
      "visual": 856,
      "evaluate": 857,
      "dual": 858,
      "made": 859,
      "setting": 860,
      "factors": 861,
      "suggest": 862,
      "means": 863,
      "magnitude": 864,
      "numbers": 865,
      "qcd": 866,
      "reduced": 867,
      "improved": 868,
      "universe": 869,
      "hamiltonian": 870,
      "family": 871,
      "##8": 872,
      "directly": 873,
      "generalization": 874,
      "uncertainty": 875,
      "angular": 876,
      "pm": 877,
      "basis": 878,
      "path": 879,
      "relations": 880,
      "architecture": 881,
      "##ar": 882,
      "conjecture": 883,
      "years": 884,
      "beyond": 885,
      "interest": 886,
      "segmentation": 887,
      "provided": 888,
      "individual": 889,
      "periodic": 890,
      "contribution": 891,
      "underlying": 892,
      "would": 893,
      "coefficients": 894,
      "contrast": 895,
      "integral": 896,
      "semi": 897,
      "required": 898,
      "making": 899,
      "luminosity": 900,
      "energies": 901,
      "formula": 902,
      "curves": 903,
      "off": 904,
      "convex": 905,
      "challenging": 906,
      "collisions": 907,
      "view": 908,
      "against": 909,
      "although": 910,
      "patterns": 911,
      "pairs": 912,
      "chiral": 913,
      "matrices": 914,
      "index": 915,
      "speed": 916,
      "infrared": 917,
      "bounded": 918,
      "nu": 919,
      "surfaces": 920,
      "phases": 921,
      "beam": 922,
      "transitions": 923,
      "material": 924,
      "fine": 925,
      "connected": 926,
      "cloud": 927,
      "difference": 928,
      "area": 929,
      "string": 930,
      "redshift": 931,
      "requires": 932,
      "achieved": 933,
      "universal": 934,
      "holes": 935,
      "dust": 936,
      "sampling": 937,
      "variety": 938,
      "event": 939,
      "establish": 940,
      "volume": 941,
      "early": 942,
      "##ate": 943,
      "##ian": 944,
      "designed": 945,
      "hard": 946,
      "electric": 947,
      "limits": 948,
      "far": 949,
      "version": 950,
      "review": 951,
      "external": 952,
      "solve": 953,
      "scenario": 954,
      "medium": 955,
      "effectiveness": 956,
      "social": 957,
      "##te": 958,
      "chemical": 959,
      "metal": 960,
      "analytical": 961,
      "force": 962,
      "video": 963,
      "unique": 964,
      "curvature": 965,
      "tool": 966,
      "parallel": 967,
      "gev": 968,
      "domains": 969,
      "bulk": 970,
      "tau": 971,
      "##9": 972,
      "fermi": 973,
      "precision": 974,
      "lie": 975,
      "measures": 976,
      "challenge": 977,
      "let": 978,
      "period": 979,
      "smooth": 980,
      "amplitude": 981,
      "whether": 982,
      "rank": 983,
      "adaptive": 984,
      "signals": 985,
      "direction": 986,
      "recognition": 987,
      "atomic": 988,
      "detected": 989,
      "semantic": 990,
      "rotation": 991,
      "resonance": 992,
      "include": 993,
      "following": 994,
      "allow": 995,
      "fluid": 996,
      "phi": 997,
      "extend": 998,
      "structural": 999,
      "article": 1000,
      "detector": 1001,
      "next": 1002,
      "20": 1003,
      "orbital": 1004,
      "##7": 1005,
      "fraction": 1006,
      "extension": 1007,
      "chain": 1008,
      "characteristic": 1009,
      "implementation": 1010,
      "radius": 1011,
      "##is": 1012,
      "laser": 1013,
      "calculate": 1014,
      "prior": 1015,
      "characteristics": 1016,
      "accretion": 1017,
      "calculated": 1018,
      "practical": 1019,
      "almost": 1020,
      "cannot": 1021,
      "software": 1022,
      "observation": 1023,
      "right": 1024,
      "infty": 1025,
      "strength": 1026,
      "equivalent": 1027,
      "bias": 1028,
      "predict": 1029,
      "inverse": 1030,
      "##se": 1031,
      "enhanced": 1032,
      "algebraic": 1033,
      "absorption": 1034,
      "detailed": 1035,
      "angle": 1036,
      "influence": 1037,
      "reconstruction": 1038,
      "original": 1039,
      "findings": 1040,
      "de": 1041,
      "conventional": 1042,
      "supervised": 1043,
      "100": 1044,
      "depth": 1045,
      "reduce": 1046,
      "plasma": 1047,
      "principle": 1048,
      "interacting": 1049,
      "##ant": 1050,
      "online": 1051,
      "carlo": 1052,
      "monte": 1053,
      "codes": 1054,
      "necessary": 1055,
      "##ne": 1056,
      "minimum": 1057,
      "below": 1058,
      "exhibit": 1059,
      "what": 1060,
      "liquid": 1061,
      "mixing": 1062,
      "demonstrated": 1063,
      "heat": 1064,
      "procedure": 1065,
      "output": 1066,
      "decision": 1067,
      "concept": 1068,
      "benchmark": 1069,
      "feedback": 1070,
      "einstein": 1071,
      "coherent": 1072,
      "jet": 1073,
      "hybrid": 1074,
      "superconducting": 1075,
      "require": 1076,
      "especially": 1077,
      "orbit": 1078,
      "ion": 1079,
      "uniform": 1080,
      "traditional": 1081,
      "levels": 1082,
      "empirical": 1083,
      "yet": 1084,
      "smaller": 1085,
      "tree": 1086,
      "combined": 1087,
      "hand": 1088,
      "manifold": 1089,
      "statistics": 1090,
      "solving": 1091,
      "sensitivity": 1092,
      "uses": 1093,
      "ai": 1094,
      "content": 1095,
      "become": 1096,
      "combination": 1097,
      "mechanisms": 1098,
      "##ment": 1099,
      "corrections": 1100,
      "graphene": 1101,
      "top": 1102,
      "frac": 1103,
      "atoms": 1104,
      "temperatures": 1105,
      "learn": 1106,
      "ability": 1107,
      "suitable": 1108,
      "##et": 1109,
      "crucial": 1110,
      "predicted": 1111,
      "gives": 1112,
      "manifolds": 1113,
      "useful": 1114,
      "nodes": 1115,
      "schemes": 1116,
      "clustering": 1117,
      "cell": 1118,
      "strategies": 1119,
      "presents": 1120,
      "bayesian": 1121,
      "metrics": 1122,
      "regular": 1123,
      "forms": 1124,
      "computer": 1125,
      "electrons": 1126,
      "transmission": 1127,
      "12": 1128,
      "ring": 1129,
      "per": 1130,
      "approximate": 1131,
      "flat": 1132,
      "sparse": 1133,
      "adversarial": 1134,
      "##ous": 1135,
      "breaking": 1136,
      "identified": 1137,
      "origin": 1138,
      "sufficient": 1139,
      "exchange": 1140,
      "enables": 1141,
      "spectroscopy": 1142,
      "increases": 1143,
      "must": 1144,
      "propagation": 1145,
      "produce": 1146,
      "analytic": 1147,
      "tools": 1148,
      "achieves": 1149,
      "depends": 1150,
      "channels": 1151,
      "rather": 1152,
      "promising": 1153,
      "##ating": 1154,
      "layers": 1155,
      "threshold": 1156,
      "remains": 1157,
      "perturbation": 1158,
      "environments": 1159,
      "produced": 1160,
      "curve": 1161,
      "##re": 1162,
      "considering": 1163,
      "errors": 1164,
      "su": 1165,
      "mixed": 1166,
      "left": 1167,
      "robustness": 1168,
      "agent": 1169,
      "explain": 1170,
      "fact": 1171,
      "position": 1172,
      "soft": 1173,
      "##ated": 1174,
      "dense": 1175,
      "constructed": 1176,
      "works": 1177,
      "define": 1178,
      "together": 1179,
      "final": 1180,
      "vacuum": 1181,
      "center": 1182,
      "static": 1183,
      "generating": 1184,
      "formulation": 1185,
      "distinct": 1186,
      "matching": 1187,
      "tuning": 1188,
      "theta": 1189,
      "down": 1190,
      "providing": 1191,
      "modified": 1192,
      "sensitive": 1193,
      "contributions": 1194,
      "finding": 1195,
      "proton": 1196,
      "latter": 1197,
      "##um": 1198,
      "activity": 1199,
      "dirac": 1200,
      "##as": 1201,
      "decomposition": 1202,
      "objective": 1203,
      "radial": 1204,
      "##ities": 1205,
      "agents": 1206,
      "element": 1207,
      "systematic": 1208,
      "exponential": 1209,
      "charged": 1210,
      "importance": 1211,
      "fe": 1212,
      "particularly": 1213,
      "regression": 1214,
      "interface": 1215,
      "integrated": 1216,
      "observe": 1217,
      "outperforms": 1218,
      "alternative": 1219,
      "##it": 1220,
      "flows": 1221,
      "continuum": 1222,
      "##ial": 1223,
      "square": 1224,
      "peak": 1225,
      "access": 1226,
      "telescope": 1227,
      "detect": 1228,
      "decays": 1229,
      "##less": 1230,
      "policy": 1231,
      "stage": 1232,
      "capture": 1233,
      "varying": 1234,
      "indicate": 1235,
      "rich": 1236,
      "testing": 1237,
      "thin": 1238,
      "effectively": 1239,
      "localization": 1240,
      "intermediate": 1241,
      "another": 1242,
      "##el": 1243,
      "connection": 1244,
      "constrained": 1245,
      "polynomials": 1246,
      "namely": 1247,
      "formalism": 1248,
      "sequences": 1249,
      "correlated": 1250,
      "calculation": 1251,
      "synthetic": 1252,
      "weighted": 1253,
      "mapping": 1254,
      "despite": 1255,
      "ones": 1256,
      "additionally": 1257,
      "llms": 1258,
      "speech": 1259,
      "behaviour": 1260,
      "privacy": 1261,
      "established": 1262,
      "goal": 1263,
      "##ms": 1264,
      "vertex": 1265,
      "module": 1266,
      "risk": 1267,
      "15": 1268,
      "fractional": 1269,
      "instead": 1270,
      "transverse": 1271,
      "half": 1272,
      "overall": 1273,
      "essential": 1274,
      "constraint": 1275,
      "shift": 1276,
      "rho": 1277,
      "realistic": 1278,
      "epsilon": 1279,
      "pattern": 1280,
      "leq": 1281,
      "##tion": 1282,
      "reveal": 1283,
      "##os": 1284,
      "variation": 1285,
      "configuration": 1286,
      "aim": 1287,
      "help": 1288,
      "degrees": 1289,
      "security": 1290,
      "makes": 1291,
      "explicitly": 1292,
      "showing": 1293,
      "##ize": 1294,
      "variations": 1295,
      "major": 1296,
      "vision": 1297,
      "sqrt": 1298,
      "joint": 1299,
      "intrinsic": 1300,
      "widely": 1301,
      "differences": 1302,
      "##ns": 1303,
      "becomes": 1304,
      "ell": 1305,
      "subset": 1306,
      "typical": 1307,
      "perturbations": 1308,
      "contains": 1309,
      "assumptions": 1310,
      "electromagnetic": 1311,
      "weight": 1312,
      "dispersion": 1313,
      "generic": 1314,
      "relaxation": 1315,
      "homogeneous": 1316,
      "boson": 1317,
      "exist": 1318,
      "water": 1319,
      "transformation": 1320,
      "cm": 1321,
      "upon": 1322,
      "quadratic": 1323,
      "typically": 1324,
      "embedding": 1325,
      "identification": 1326,
      "frame": 1327,
      "probe": 1328,
      "phenomena": 1329,
      "topology": 1330,
      "color": 1331,
      "##izing": 1332,
      "section": 1333,
      "conformal": 1334,
      "basic": 1335,
      "involving": 1336,
      "interesting": 1337,
      "super": 1338,
      "oscillations": 1339,
      "efficiently": 1340,
      "improvement": 1341,
      "possibility": 1342,
      "likely": 1343,
      "##ps": 1344,
      "reported": 1345,
      "device": 1346,
      "instability": 1347,
      "##ted": 1348,
      "crystal": 1349,
      "resource": 1350,
      "characterized": 1351,
      "experimentally": 1352,
      "exists": 1353,
      "fit": 1354,
      "harmonic": 1355,
      "characterization": 1356,
      "issues": 1357,
      "notion": 1358,
      "simultaneously": 1359,
      "having": 1360,
      "estimated": 1361,
      "##ies": 1362,
      "array": 1363,
      "comprehensive": 1364,
      "implications": 1365,
      "unit": 1366,
      "characterize": 1367,
      "variational": 1368,
      "convolutional": 1369,
      "kernel": 1370,
      "contact": 1371,
      "internal": 1372,
      "nuclei": 1373,
      "illustrate": 1374,
      "issue": 1375,
      "treatment": 1376,
      "generative": 1377,
      "stationary": 1378,
      "re": 1379,
      "analyzed": 1380,
      "capacity": 1381,
      "understand": 1382,
      "halo": 1383,
      "suggests": 1384,
      "five": 1385,
      "hence": 1386,
      "mechanical": 1387,
      "taking": 1388,
      "singular": 1389,
      "amount": 1390,
      "broad": 1391,
      "interpretation": 1392,
      "configurations": 1393,
      "modules": 1394,
      "excitation": 1395,
      "assumption": 1396,
      "mathematical": 1397,
      "seen": 1398,
      "inner": 1399,
      "yields": 1400,
      "includes": 1401,
      "examine": 1402,
      "##ance": 1403,
      "relationship": 1404,
      "https": 1405,
      "depending": 1406,
      "intensity": 1407,
      "profile": 1408,
      "##ry": 1409,
      "interference": 1410,
      "##ling": 1411,
      "abelian": 1412,
      "trivial": 1413,
      "take": 1414,
      "applying": 1415,
      "attacks": 1416,
      "reaction": 1417,
      "wind": 1418,
      "separation": 1419,
      "##ter": 1420,
      "integer": 1421,
      "category": 1422,
      "forward": 1423,
      "computed": 1424,
      "github": 1425,
      "orders": 1426,
      "science": 1427,
      "pure": 1428,
      "potentials": 1429,
      "##q": 1430,
      "diverse": 1431,
      "30": 1432,
      "driving": 1433,
      "densities": 1434,
      "reinforcement": 1435,
      "taken": 1436,
      "11": 1437,
      "unknown": 1438,
      "eta": 1439,
      "lhc": 1440,
      "hall": 1441,
      "##ia": 1442,
      "aspects": 1443,
      "tests": 1444,
      "kinetic": 1445,
      "diagram": 1446,
      "relatively": 1447,
      "appropriate": 1448,
      "mechanics": 1449,
      "technology": 1450,
      "photons": 1451,
      "quantitative": 1452,
      "operations": 1453,
      "generally": 1454,
      "sense": 1455,
      "markov": 1456,
      "canonical": 1457,
      "locally": 1458,
      "##ce": 1459,
      "difficult": 1460,
      "hot": 1461,
      "consists": 1462,
      "robot": 1463,
      "equal": 1464,
      "coefficient": 1465,
      "##nce": 1466,
      "according": 1467,
      "precise": 1468,
      "proved": 1469,
      "spacetime": 1470,
      "game": 1471,
      "13": 1472,
      "expression": 1473,
      "tev": 1474,
      "allowing": 1475,
      "50": 1476,
      "evaluated": 1477,
      "moment": 1478,
      "discovery": 1479,
      "selected": 1480,
      "integration": 1481,
      "before": 1482,
      "post": 1483,
      "choice": 1484,
      "qubit": 1485,
      "ensemble": 1486,
      "might": 1487,
      "rules": 1488,
      "anomalous": 1489,
      "width": 1490,
      "ideal": 1491,
      "numerically": 1492,
      "molecules": 1493,
      "aims": 1494,
      "sensing": 1495,
      "reference": 1496,
      "program": 1497,
      "fusion": 1498,
      "maximal": 1499,
      "node": 1500,
      "combining": 1501,
      "building": 1502,
      "insights": 1503,
      "##ge": 1504,
      "improves": 1505,
      "lack": 1506,
      "programming": 1507,
      "enhance": 1508,
      "##ds": 1509,
      "third": 1510,
      "shot": 1511,
      "simulated": 1512,
      "transform": 1513,
      "frequencies": 1514,
      "agn": 1515,
      "dwarf": 1516,
      "assuming": 1517,
      "controlled": 1518,
      "geq": 1519,
      "implemented": 1520,
      "shell": 1521,
      "##am": 1522,
      "latent": 1523,
      "tracking": 1524,
      "##ions": 1525,
      "profiles": 1526,
      "motivated": 1527,
      "ratios": 1528,
      "vertices": 1529,
      "settings": 1530,
      "correction": 1531,
      "forming": 1532,
      "base": 1533,
      "rise": 1534,
      "embedded": 1535,
      "cp": 1536,
      "elastic": 1537,
      "phenomenon": 1538,
      "psi": 1539,
      "enhancement": 1540,
      "improving": 1541,
      "age": 1542,
      "face": 1543,
      "comparable": 1544,
      "usually": 1545,
      "symmetries": 1546,
      "cavity": 1547,
      "exhibits": 1548,
      "weakly": 1549,
      "anti": 1550,
      "##id": 1551,
      "anisotropic": 1552,
      "protocol": 1553,
      "appear": 1554,
      "com": 1555,
      "earth": 1556,
      "questions": 1557,
      "primary": 1558,
      "proper": 1559,
      "artificial": 1560,
      "similarity": 1561,
      "digital": 1562,
      "iii": 1563,
      "pseudo": 1564,
      "perturbative": 1565,
      "traffic": 1566,
      "mev": 1567,
      "rule": 1568,
      "spherical": 1569,
      "supersymmetric": 1570,
      "##th": 1571,
      "observational": 1572,
      "neutral": 1573,
      "argue": 1574,
      "note": 1575,
      "principles": 1576,
      "subject": 1577,
      "hyperbolic": 1578,
      "consistency": 1579,
      "actions": 1580,
      "vortex": 1581,
      "planet": 1582,
      "host": 1583,
      "edges": 1584,
      "acceleration": 1585,
      "variability": 1586,
      "elliptic": 1587,
      "##man": 1588,
      "resources": 1589,
      "enable": 1590,
      "play": 1591,
      "link": 1592,
      "19": 1593,
      "hilbert": 1594,
      "detectors": 1595,
      "horizon": 1596,
      "operation": 1597,
      "prime": 1598,
      "probabilistic": 1599,
      "atom": 1600,
      "fermions": 1601,
      "freedom": 1602,
      "capabilities": 1603,
      "##ivity": 1604,
      "hierarchical": 1605,
      "side": 1606,
      "needed": 1607,
      "perspective": 1608,
      "popular": 1609,
      "formed": 1610,
      "aware": 1611,
      "always": 1612,
      "resolved": 1613,
      "implies": 1614,
      "train": 1615,
      "block": 1616,
      "candidate": 1617,
      "couplings": 1618,
      "##at": 1619,
      "detail": 1620,
      "axis": 1621,
      "yield": 1622,
      "km": 1623,
      "powerful": 1624,
      "inequality": 1625,
      "inside": 1626,
      "media": 1627,
      "causal": 1628,
      "cycle": 1629,
      "true": 1630,
      "uv": 1631,
      "##ot": 1632,
      "baseline": 1633,
      "##ical": 1634,
      "bands": 1635,
      "##cs": 1636,
      "synthesis": 1637,
      "community": 1638,
      "radiative": 1639,
      "requirements": 1640,
      "phonon": 1641,
      "purpose": 1642,
      "transformer": 1643,
      "solid": 1644,
      "##ary": 1645,
      "expressions": 1646,
      "containing": 1647,
      "alignment": 1648,
      "location": 1649,
      "dominated": 1650,
      "fourier": 1651,
      "wavelength": 1652,
      "depend": 1653,
      "rational": 1654,
      "rotating": 1655,
      "naturally": 1656,
      "anisotropy": 1657,
      "comparing": 1658,
      "logic": 1659,
      "moving": 1660,
      "sensor": 1661,
      "planets": 1662,
      "localized": 1663,
      "##de": 1664,
      "renormalization": 1665,
      "last": 1666,
      "categories": 1667,
      "completely": 1668,
      "limitations": 1669,
      "polarized": 1670,
      "methodology": 1671,
      "medical": 1672,
      "moments": 1673,
      "instance": 1674,
      "##ised": 1675,
      "hydrogen": 1676,
      "amplitudes": 1677,
      "##isation": 1678,
      "learned": 1679,
      "observables": 1680,
      "shock": 1681,
      "represent": 1682,
      "faster": 1683,
      "giant": 1684,
      "weights": 1685,
      "deformation": 1686,
      "unified": 1687,
      "translation": 1688,
      "turbulence": 1689,
      "species": 1690,
      "##ov": 1691,
      "engineering": 1692,
      "lagrangian": 1693,
      "pulse": 1694,
      "mobile": 1695,
      "extract": 1696,
      "reasoning": 1697,
      "nucleon": 1698,
      "disorder": 1699,
      "##il": 1700,
      "nearly": 1701,
      "directions": 1702,
      "products": 1703,
      "extraction": 1704,
      "dipole": 1705,
      "employed": 1706,
      "duality": 1707,
      "##ve": 1708,
      "clouds": 1709,
      "anomaly": 1710,
      "16": 1711,
      "ultra": 1712,
      "##ls": 1713,
      "architectures": 1714,
      "planar": 1715,
      "preserving": 1716,
      "cold": 1717,
      "distances": 1718,
      "##sing": 1719,
      "orthogonal": 1720,
      "automatic": 1721,
      "planning": 1722,
      "public": 1723,
      "variance": 1724,
      "enough": 1725,
      "extreme": 1726,
      "poisson": 1727,
      "confirm": 1728,
      "norm": 1729,
      "increased": 1730,
      "composition": 1731,
      "whole": 1732,
      "wireless": 1733,
      "hypothesis": 1734,
      "gain": 1735,
      "au": 1736,
      "autonomous": 1737,
      "modelling": 1738,
      "white": 1739,
      "resonant": 1740,
      "##tic": 1741,
      "delay": 1742,
      "accurately": 1743,
      "conclude": 1744,
      "quantities": 1745,
      "abundance": 1746,
      "shear": 1747,
      "##ft": 1748,
      "grid": 1749,
      "slow": 1750,
      "investigation": 1751,
      "cooling": 1752,
      "ir": 1753,
      "14": 1754,
      "equivalence": 1755,
      "orbits": 1756,
      "easily": 1757,
      "exactly": 1758,
      "##net": 1759,
      "generalize": 1760,
      "past": 1761,
      "transformations": 1762,
      "parametric": 1763,
      "analyses": 1764,
      "sphere": 1765,
      "inspired": 1766,
      "parts": 1767,
      "appears": 1768,
      "hardware": 1769,
      "sizes": 1770,
      "cells": 1771,
      "collapse": 1772,
      "thermodynamic": 1773,
      "follow": 1774,
      "occurs": 1775,
      "labels": 1776,
      "fermion": 1777,
      "quantization": 1778,
      "rays": 1779,
      "occur": 1780,
      "likelihood": 1781,
      "virtual": 1782,
      "reveals": 1783,
      "conditional": 1784,
      "sections": 1785,
      "caused": 1786,
      "reduces": 1787,
      "hidden": 1788,
      "correct": 1789,
      "odot": 1790,
      "carbon": 1791,
      "idea": 1792,
      "retrieval": 1793,
      "young": 1794,
      "candidates": 1795,
      "uncertainties": 1796,
      "##est": 1797,
      "metallicity": 1798,
      "##ping": 1799,
      "earlier": 1800,
      "excitations": 1801,
      "describing": 1802,
      "splitting": 1803,
      "stress": 1804,
      "##om": 1805,
      "spectroscopic": 1806,
      "consequence": 1807,
      "deterministic": 1808,
      "25": 1809,
      "##st": 1810,
      "platform": 1811,
      "films": 1812,
      "##gs": 1813,
      "takes": 1814,
      "whereas": 1815,
      "tested": 1816,
      "studying": 1817,
      "trajectories": 1818,
      "modern": 1819,
      "manner": 1820,
      "approximately": 1821,
      "place": 1822,
      "##ss": 1823,
      "##pe": 1824,
      "excited": 1825,
      "collective": 1826,
      "##ent": 1827,
      "sky": 1828,
      "conducted": 1829,
      "query": 1830,
      "sector": 1831,
      "definition": 1832,
      "ngc": 1833,
      "families": 1834,
      "spatially": 1835,
      "violation": 1836,
      "conductivity": 1837,
      "attack": 1838,
      "advantage": 1839,
      "six": 1840,
      "neutrinos": 1841,
      "##ring": 1842,
      "entire": 1843,
      "sharp": 1844,
      "sufficiently": 1845,
      "ads": 1846,
      "build": 1847,
      "inflation": 1848,
      "vectors": 1849,
      "describes": 1850,
      "coherence": 1851,
      "arise": 1852,
      "projective": 1853,
      "concentration": 1854,
      "collected": 1855,
      "big": 1856,
      "reliable": 1857,
      "estimator": 1858,
      "label": 1859,
      "great": 1860,
      "currently": 1861,
      "disc": 1862,
      "red": 1863,
      "##ning": 1864,
      "mainly": 1865,
      "affine": 1866,
      "areas": 1867,
      "meson": 1868,
      "superconductivity": 1869,
      "achieving": 1870,
      "##ons": 1871,
      "chi": 1872,
      "extra": 1873,
      "commonly": 1874,
      "compression": 1875,
      "introduces": 1876,
      "acoustic": 1877,
      "odd": 1878,
      "now": 1879,
      "automated": 1880,
      "carried": 1881,
      "steps": 1882,
      "wall": 1883,
      "trees": 1884,
      "collision": 1885,
      "heterogeneous": 1886,
      "steady": 1887,
      "clear": 1888,
      "thereby": 1889,
      "invariants": 1890,
      "trajectory": 1891,
      "chains": 1892,
      "##tive": 1893,
      "project": 1894,
      "bose": 1895,
      "arising": 1896,
      "word": 1897,
      "reducing": 1898,
      "flavor": 1899,
      "##ch": 1900,
      "disks": 1901,
      "degenerate": 1902,
      "noisy": 1903,
      "asymmetry": 1904,
      "box": 1905,
      "unitary": 1906,
      "rely": 1907,
      "concepts": 1908,
      "valued": 1909,
      "kev": 1910,
      "monitoring": 1911,
      "modulation": 1912,
      "theoretically": 1913,
      "potentially": 1914,
      "jets": 1915,
      "regularization": 1916,
      "extremely": 1917,
      "progress": 1918,
      "magnetization": 1919,
      "scientific": 1920,
      "##ra": 1921,
      "predictive": 1922,
      "extensions": 1923,
      "lattices": 1924,
      "solved": 1925,
      "brain": 1926,
      "##ors": 1927,
      "capable": 1928,
      "interval": 1929,
      "confidence": 1930,
      "sun": 1931,
      "starting": 1932,
      "##me": 1933,
      "##ide": 1934,
      "forces": 1935,
      "perfect": 1936,
      "management": 1937,
      "success": 1938,
      "turn": 1939,
      "games": 1940,
      "improvements": 1941,
      "absence": 1942,
      "embeddings": 1943,
      "40": 1944,
      "coulomb": 1945,
      "site": 1946,
      "consisting": 1947,
      "pose": 1948,
      "##ct": 1949,
      "inequalities": 1950,
      "nm": 1951,
      "employ": 1952,
      "tunneling": 1953,
      "populations": 1954,
      "combinatorial": 1955,
      "extracted": 1956,
      "gluon": 1957,
      "euclidean": 1958,
      "storage": 1959,
      "score": 1960,
      "fitting": 1961,
      "asymptotically": 1962,
      "##ma": 1963,
      "criterion": 1964,
      "identifying": 1965,
      "already": 1966,
      "calibration": 1967,
      "unsupervised": 1968,
      "he": 1969,
      "##ad": 1970,
      "demonstrates": 1971,
      "introducing": 1972,
      "contain": 1973,
      "just": 1974,
      "moduli": 1975,
      "rapid": 1976,
      "showed": 1977,
      "cite": 1978,
      "reach": 1979,
      "microwave": 1980,
      "regimes": 1981,
      "invariance": 1982,
      "safety": 1983,
      "measuring": 1984,
      "surveys": 1985,
      "languages": 1986,
      "enabling": 1987,
      "dominant": 1988,
      "projection": 1989,
      "analyzing": 1990,
      "paradigm": 1991,
      "##ty": 1992,
      "inter": 1993,
      "offers": 1994,
      "approximations": 1995,
      "narrow": 1996,
      "paths": 1997,
      "brane": 1998,
      "filter": 1999,
      "net": 2000,
      "advanced": 2001,
      "evolutionary": 2002,
      "##ll": 2003,
      "cohomology": 2004,
      "involves": 2005,
      "structured": 2006,
      "ordered": 2007,
      "practice": 2008,
      "relativity": 2009,
      "constants": 2010,
      "ferromagnetic": 2011,
      "determination": 2012,
      "correspondence": 2013,
      "greater": 2014,
      "adaptation": 2015,
      "excess": 2016,
      "supernova": 2017,
      "successfully": 2018,
      "proposes": 2019,
      "microscopic": 2020,
      "camera": 2021,
      "collection": 2022,
      "benchmarks": 2023,
      "parity": 2024,
      "holds": 2025,
      "partition": 2026,
      "outer": 2027,
      "call": 2028,
      "detecting": 2029,
      "diagrams": 2030,
      "assumed": 2031,
      "validate": 2032,
      "discovered": 2033,
      "strain": 2034,
      "implement": 2035,
      "ml": 2036,
      "binaries": 2037,
      "xi": 2038,
      "answer": 2039,
      "##ging": 2040,
      "##ism": 2041,
      "crystals": 2042,
      "modular": 2043,
      "indicates": 2044,
      "offer": 2045,
      "create": 2046,
      "exploration": 2047,
      "cnn": 2048,
      "asymmetric": 2049,
      "hadron": 2050,
      "sign": 2051,
      "circuit": 2052,
      "resonances": 2053,
      "service": 2054,
      "sequential": 2055,
      "though": 2056,
      "technologies": 2057,
      "toward": 2058,
      "partially": 2059,
      "emph": 2060,
      "baryon": 2061,
      "performing": 2062,
      "suggested": 2063,
      "satisfy": 2064,
      "cosmology": 2065,
      "singularities": 2066,
      "##ine": 2067,
      "rightarrow": 2068,
      "itself": 2069,
      "photometric": 2070,
      "dissipation": 2071,
      "absolute": 2072,
      "scene": 2073,
      "explained": 2074,
      "sn": 2075,
      "velocities": 2076,
      "dot": 2077,
      "web": 2078,
      "history": 2079,
      "iterative": 2080,
      "allowed": 2081,
      "unlike": 2082,
      "run": 2083,
      "flexible": 2084,
      "ghz": 2085,
      "formulas": 2086,
      "built": 2087,
      "landau": 2088,
      "insulator": 2089,
      "voltage": 2090,
      "##ium": 2091,
      "weyl": 2092,
      "focusing": 2093,
      "##ue": 2094,
      "regularity": 2095,
      "##les": 2096,
      "exponent": 2097,
      "derivative": 2098,
      "usual": 2099,
      "ions": 2100,
      "mathbf": 2101,
      "textit": 2102,
      "bi": 2103,
      "connections": 2104,
      "criteria": 2105,
      "satellite": 2106,
      "advantages": 2107,
      "restricted": 2108,
      "qubits": 2109,
      "##ke": 2110,
      "determining": 2111,
      "estimating": 2112,
      "automatically": 2113,
      "si": 2114,
      "##ner": 2115,
      "back": 2116,
      "turbulent": 2117,
      "ge": 2118,
      "coding": 2119,
      "leveraging": 2120,
      "assess": 2121,
      "employing": 2122,
      "rings": 2123,
      "##da": 2124,
      "kappa": 2125,
      "utilizing": 2126,
      "decrease": 2127,
      "sensors": 2128,
      "##tor": 2129,
      "words": 2130,
      "##ified": 2131,
      "affect": 2132,
      "developing": 2133,
      "missing": 2134,
      "##ual": 2135,
      "eigenvalues": 2136,
      "bright": 2137,
      "details": 2138,
      "modal": 2139,
      "laws": 2140,
      "life": 2141,
      "circular": 2142,
      "market": 2143,
      "signatures": 2144,
      "##line": 2145,
      "compatible": 2146,
      "superior": 2147,
      "##nd": 2148,
      "##ble": 2149,
      "le": 2150,
      "done": 2151,
      "transient": 2152,
      "schr": 2153,
      "explored": 2154,
      "mixture": 2155,
      "##bility": 2156,
      "remain": 2157,
      "revealed": 2158,
      "relies": 2159,
      "unstable": 2160,
      "diversity": 2161,
      "assume": 2162,
      "##fs": 2163,
      "green": 2164,
      "planetary": 2165,
      "##up": 2166,
      "inputs": 2167,
      "trace": 2168,
      "##ck": 2169,
      "optimized": 2170,
      "planck": 2171,
      "defects": 2172,
      "yang": 2173,
      "onto": 2174,
      "analytically": 2175,
      "##ite": 2176,
      "behaviors": 2177,
      "constrain": 2178,
      "18": 2179,
      "fidelity": 2180,
      "character": 2181,
      "oriented": 2182,
      "reflection": 2183,
      "boundaries": 2184,
      "possibly": 2185,
      "substantial": 2186,
      "get": 2187,
      "nucleus": 2188,
      "##ise": 2189,
      "capability": 2190,
      "picture": 2191,
      "oscillation": 2192,
      "gate": 2193,
      "quarks": 2194,
      "lepton": 2195,
      "lensing": 2196,
      "ab": 2197,
      "computationally": 2198,
      "atmospheric": 2199,
      "observable": 2200,
      "nearby": 2201,
      "competitive": 2202,
      "tight": 2203,
      "entangled": 2204,
      "largest": 2205,
      "little": 2206,
      "approx": 2207,
      "branching": 2208,
      "growing": 2209,
      "rotational": 2210,
      "##ard": 2211,
      "plays": 2212,
      "changing": 2213,
      "theorems": 2214,
      "valid": 2215,
      "predicting": 2216,
      "researchers": 2217,
      "em": 2218,
      "limiting": 2219,
      "late": 2220,
      "vanishing": 2221,
      "precisely": 2222,
      "integrable": 2223,
      "formal": 2224,
      "##ur": 2225,
      "isotropic": 2226,
      "utility": 2227,
      "understood": 2228,
      "verify": 2229,
      "superconductors": 2230,
      "binding": 2231,
      "##istic": 2232,
      "infinity": 2233,
      "##berg": 2234,
      "theoretic": 2235,
      "lorentz": 2236,
      "residual": 2237,
      "integrals": 2238,
      "intelligence": 2239,
      "bf": 2240,
      "photonic": 2241,
      "needs": 2242,
      "ising": 2243,
      "protocols": 2244,
      "extends": 2245,
      "applicable": 2246,
      "varieties": 2247,
      "ev": 2248,
      "branch": 2249,
      "##ure": 2250,
      "cubic": 2251,
      "heating": 2252,
      "represented": 2253,
      "probabilities": 2254,
      "switching": 2255,
      "principal": 2256,
      "bosons": 2257,
      "simultaneous": 2258,
      "demand": 2259,
      "ordering": 2260,
      "located": 2261,
      "clinical": 2262,
      "isolated": 2263,
      "pulsar": 2264,
      "audio": 2265,
      "decreases": 2266,
      "##ile": 2267,
      "##ification": 2268,
      "database": 2269,
      "rapidly": 2270,
      "mathfrak": 2271,
      "directed": 2272,
      "##ro": 2273,
      "singularity": 2274,
      "##ler": 2275,
      "hierarchy": 2276,
      "phys": 2277,
      "##j": 2278,
      "emerging": 2279,
      "kind": 2280,
      "ordinary": 2281,
      "orientation": 2282,
      "##ration": 2283,
      "cycles": 2284,
      "riemannian": 2285,
      "llm": 2286,
      "##age": 2287,
      "##ative": 2288,
      "##ably": 2289,
      "coverage": 2290,
      "kpc": 2291,
      "dm": 2292,
      "shared": 2293,
      "relationships": 2294,
      "composite": 2295,
      "running": 2296,
      "ways": 2297,
      "links": 2298,
      "overcome": 2299,
      "vehicle": 2300,
      "condensate": 2301,
      "costs": 2302,
      "quantify": 2303,
      "circuits": 2304,
      "doped": 2305,
      "follows": 2306,
      "instances": 2307,
      "stokes": 2308,
      "identity": 2309,
      "regarding": 2310,
      "mid": 2311,
      "twisted": 2312,
      "quite": 2313,
      "film": 2314,
      "cmb": 2315,
      "electrical": 2316,
      "##00": 2317,
      "logarithmic": 2318,
      "highlight": 2319,
      "explanation": 2320,
      "corresponds": 2321,
      "extending": 2322,
      "cal": 2323,
      "abundances": 2324,
      "assessment": 2325,
      "excellent": 2326,
      "collider": 2327,
      "created": 2328,
      "suggesting": 2329,
      "signature": 2330,
      "cover": 2331,
      "policies": 2332,
      "##sion": 2333,
      "coordinate": 2334,
      "##one": 2335,
      "silicon": 2336,
      "##ible": 2337,
      "chosen": 2338,
      "reproduce": 2339,
      "shifts": 2340,
      "longitudinal": 2341,
      "multimodal": 2342,
      "scalable": 2343,
      "too": 2344,
      "longer": 2345,
      "sites": 2346,
      "encoder": 2347,
      "euler": 2348,
      "conduct": 2349,
      "secondary": 2350,
      "guarantees": 2351,
      "desired": 2352,
      "17": 2353,
      "21": 2354,
      "biological": 2355,
      "easy": 2356,
      "verification": 2357,
      "cause": 2358,
      "astrophysical": 2359,
      "rl": 2360,
      "realized": 2361,
      "##pt": 2362,
      "barrier": 2363,
      "allocation": 2364,
      "symplectic": 2365,
      "##ening": 2366,
      "currents": 2367,
      "supported": 2368,
      "included": 2369,
      "mobility": 2370,
      "produces": 2371,
      "coordinates": 2372,
      "represents": 2373,
      "proportional": 2374,
      "consequences": 2375,
      "programs": 2376,
      "##atic": 2377,
      "confirmed": 2378,
      "meta": 2379,
      "counting": 2380,
      "expressed": 2381,
      "varepsilon": 2382,
      "##ld": 2383,
      "cone": 2384,
      "pion": 2385,
      "conversion": 2386,
      "focused": 2387,
      "pc": 2388,
      "hi": 2389,
      "searches": 2390,
      "constructing": 2391,
      "involved": 2392,
      "balance": 2393,
      "health": 2394,
      "covering": 2395,
      "##rt": 2396,
      "##bs": 2397,
      "highest": 2398,
      "metallic": 2399,
      "hermitian": 2400,
      "elementary": 2401,
      "others": 2402,
      "responsible": 2403,
      "indeed": 2404,
      "qualitative": 2405,
      "newton": 2406,
      "24": 2407,
      "dielectric": 2408,
      "pairing": 2409,
      "exploit": 2410,
      "benefits": 2411,
      "etc": 2412,
      "##ological": 2413,
      "hadronic": 2414,
      "technical": 2415,
      "robots": 2416,
      "spins": 2417,
      "rare": 2418,
      "pulses": 2419,
      "ensure": 2420,
      "poor": 2421,
      "##ates": 2422,
      "dynamically": 2423,
      "##ral": 2424,
      "##ncy": 2425,
      "trade": 2426,
      "interplay": 2427,
      "##nts": 2428,
      "200": 2429,
      "indicating": 2430,
      "antiferromagnetic": 2431,
      "wise": 2432,
      "loops": 2433,
      "ionization": 2434,
      "setup": 2435,
      "superconductor": 2436,
      "encoding": 2437,
      "estimators": 2438,
      "polar": 2439,
      "hydrodynamic": 2440,
      "sound": 2441,
      "arises": 2442,
      "who": 2443,
      "oscillator": 2444,
      "queries": 2445,
      "conservation": 2446,
      "covariance": 2447,
      "chaotic": 2448,
      "disease": 2449,
      "spiral": 2450,
      "pixel": 2451,
      "hubble": 2452,
      "frames": 2453,
      "emergence": 2454,
      "torus": 2455,
      "##ular": 2456,
      "consumption": 2457,
      "published": 2458,
      "named": 2459,
      "null": 2460,
      "##ta": 2461,
      "60": 2462,
      "doping": 2463,
      "labeled": 2464,
      "adiabatic": 2465,
      "bursts": 2466,
      "advances": 2467,
      "root": 2468,
      "irreducible": 2469,
      "composed": 2470,
      "broken": 2471,
      "sharing": 2472,
      "1d": 2473,
      "heisenberg": 2474,
      "90": 2475,
      "##ding": 2476,
      "spontaneous": 2477,
      "bit": 2478,
      "##ron": 2479,
      "vehicles": 2480,
      "evaluating": 2481,
      "reactions": 2482,
      "classify": 2483,
      "ranging": 2484,
      "dwarfs": 2485,
      "reliability": 2486,
      "##ri": 2487,
      "classifier": 2488,
      "air": 2489,
      "exploiting": 2490,
      "shapes": 2491,
      "targets": 2492,
      "appearance": 2493,
      "contribute": 2494,
      "decoding": 2495,
      "leverage": 2496,
      "viscosity": 2497,
      "max": 2498,
      "prompt": 2499,
      "dots": 2500,
      "generates": 2501,
      "diffraction": 2502,
      "zeta": 2503,
      "pipeline": 2504,
      "recovery": 2505,
      "realization": 2506,
      "interpreted": 2507,
      "tidal": 2508,
      "glass": 2509,
      "##ain": 2510,
      "remarkable": 2511,
      "computations": 2512,
      "incorporating": 2513,
      "units": 2514,
      "enhancing": 2515,
      "expectation": 2516,
      "fiber": 2517,
      "inversion": 2518,
      "videos": 2519,
      "nearest": 2520,
      "combine": 2521,
      "systematically": 2522,
      "consistently": 2523,
      "operating": 2524,
      "factorization": 2525,
      "##ics": 2526,
      "additive": 2527,
      "separate": 2528,
      "implicit": 2529,
      "increasingly": 2530,
      "radii": 2531,
      "##ulation": 2532,
      "designs": 2533,
      "homology": 2534,
      "day": 2535,
      "linearly": 2536,
      "closely": 2537,
      "successful": 2538,
      "cut": 2539,
      "positions": 2540,
      "insight": 2541,
      "services": 2542,
      "introduction": 2543,
      "sl": 2544,
      "grained": 2545,
      "##co": 2546,
      "supersymmetry": 2547,
      "motions": 2548,
      "interstellar": 2549,
      "##ence": 2550,
      "besides": 2551,
      "satisfies": 2552,
      "modeled": 2553,
      "people": 2554,
      "days": 2555,
      "brownian": 2556,
      "connectivity": 2557,
      "stronger": 2558,
      "authors": 2559,
      "##king": 2560,
      "publicly": 2561,
      "uniqueness": 2562,
      "##izable": 2563,
      "merger": 2564,
      "experience": 2565,
      "separated": 2566,
      "##ki": 2567,
      "drift": 2568,
      "macroscopic": 2569,
      "manipulation": 2570,
      "##he": 2571,
      "deviation": 2572,
      "formulate": 2573,
      "identical": 2574,
      "##ger": 2575,
      "exploring": 2576,
      "chern": 2577,
      "##ev": 2578,
      "gradients": 2579,
      "see": 2580,
      "thickness": 2581,
      "blocks": 2582,
      "hold": 2583,
      "##cing": 2584,
      "guided": 2585,
      "match": 2586,
      "split": 2587,
      "spread": 2588,
      "concerning": 2589,
      "eigenvalue": 2590,
      "utilize": 2591,
      "defect": 2592,
      "uniformly": 2593,
      "lowest": 2594,
      "cyclic": 2595,
      "validation": 2596,
      "affected": 2597,
      "pb": 2598,
      "periods": 2599,
      "angles": 2600,
      "mesons": 2601,
      "handle": 2602,
      "fluctuation": 2603,
      "##ulate": 2604,
      "turns": 2605,
      "satisfying": 2606,
      "ideas": 2607,
      "thermodynamics": 2608,
      "mpc": 2609,
      "muon": 2610,
      "##oid": 2611,
      "protein": 2612,
      "derivatives": 2613,
      "##ze": 2614,
      "optimize": 2615,
      "bandwidth": 2616,
      "primordial": 2617,
      "redshifts": 2618,
      "predicts": 2619,
      "##dm": 2620,
      "year": 2621,
      "confined": 2622,
      "atmosphere": 2623,
      "generator": 2624,
      "intersection": 2625,
      "##ned": 2626,
      "brightness": 2627,
      "validity": 2628,
      "recover": 2629,
      "followed": 2630,
      "outcomes": 2631,
      "consequently": 2632,
      "##ifies": 2633,
      "electroweak": 2634,
      "bundle": 2635,
      "combines": 2636,
      "inhomogeneous": 2637,
      "modification": 2638,
      "formulated": 2639,
      "derivation": 2640,
      "holographic": 2641,
      "discussion": 2642,
      "massless": 2643,
      "room": 2644,
      "##ibility": 2645,
      "responses": 2646,
      "purely": 2647,
      "visible": 2648,
      "demonstrating": 2649,
      "riemann": 2650,
      "##ings": 2651,
      "commutative": 2652,
      "##ful": 2653,
      "extent": 2654,
      "facilitate": 2655,
      "topic": 2656,
      "front": 2657,
      "oxygen": 2658,
      "##ist": 2659,
      "slightly": 2660,
      "divergence": 2661,
      "arguments": 2662,
      "variant": 2663,
      "##bed": 2664,
      "molecule": 2665,
      "recurrent": 2666,
      "semantics": 2667,
      "serve": 2668,
      "performs": 2669,
      "odinger": 2670,
      "accelerated": 2671,
      "inherent": 2672,
      "away": 2673,
      "environmental": 2674,
      "analogous": 2675,
      "mm": 2676,
      "##ology": 2677,
      "photometry": 2678,
      "disordered": 2679,
      "subspace": 2680,
      "smart": 2681,
      "zone": 2682,
      "requiring": 2683,
      "significance": 2684,
      "internet": 2685,
      "numerous": 2686,
      "22": 2687,
      "np": 2688,
      "branes": 2689,
      "filtering": 2690,
      "update": 2691,
      "individuals": 2692,
      "downstream": 2693,
      "000": 2694,
      "nonlocal": 2695,
      "briefly": 2696,
      "covid": 2697,
      "release": 2698,
      "descent": 2699,
      "fermionic": 2700,
      "collaboration": 2701,
      "ia": 2702,
      "latency": 2703,
      "parabolic": 2704,
      "largely": 2705,
      "situation": 2706,
      "beams": 2707,
      "tuned": 2708,
      "cores": 2709,
      "##ric": 2710,
      "supernovae": 2711,
      "cdot": 2712,
      "examined": 2713,
      "interfaces": 2714,
      "complementary": 2715,
      "exponentially": 2716,
      "trapped": 2717,
      "avoid": 2718,
      "##od": 2719,
      "dirichlet": 2720,
      "designing": 2721,
      "mills": 2722,
      "microscopy": 2723,
      "augmentation": 2724,
      "independently": 2725,
      "simulate": 2726,
      "multivariate": 2727,
      "suppression": 2728,
      "outside": 2729,
      "geometries": 2730,
      "obtaining": 2731,
      "th": 2732,
      "tail": 2733,
      "locations": 2734,
      "morphology": 2735,
      "secure": 2736,
      "strings": 2737,
      "representing": 2738,
      "conductance": 2739,
      "##to": 2740,
      "confinement": 2741,
      "essentially": 2742,
      "once": 2743,
      "vertical": 2744,
      "stages": 2745,
      "coarse": 2746,
      "diagonal": 2747,
      "correspond": 2748,
      "pt": 2749,
      "situations": 2750,
      "deviations": 2751,
      "##10": 2752,
      "simply": 2753,
      "##ute": 2754,
      "substantially": 2755,
      "arrays": 2756,
      "creation": 2757,
      "students": 2758,
      "mirror": 2759,
      "overview": 2760,
      "augmented": 2761,
      "federated": 2762,
      "##ng": 2763,
      "load": 2764,
      "relevance": 2765,
      "sr": 2766,
      "why": 2767,
      "applicability": 2768,
      "platforms": 2769,
      "proofs": 2770,
      "abstract": 2771,
      "##na": 2772,
      "slope": 2773,
      "damping": 2774,
      "preliminary": 2775,
      "cellular": 2776,
      "attractive": 2777,
      "decisions": 2778,
      "##use": 2779,
      "forecasting": 2780,
      "walk": 2781,
      "lens": 2782,
      "bundles": 2783,
      "mutual": 2784,
      "execution": 2785,
      "timing": 2786,
      "nontrivial": 2787,
      "blue": 2788,
      "hubbard": 2789,
      "height": 2790,
      "controller": 2791,
      "sitter": 2792,
      "micro": 2793,
      "feasible": 2794,
      "calculus": 2795,
      "##ff": 2796,
      "distortion": 2797,
      "genus": 2798,
      "column": 2799,
      "iron": 2800,
      "##son": 2801,
      "charges": 2802,
      "assisted": 2803,
      "##der": 2804,
      "diffuse": 2805,
      "majority": 2806,
      "dissipative": 2807,
      "gaps": 2808,
      "giving": 2809,
      "mostly": 2810,
      "minimization": 2811,
      "recommendation": 2812,
      "association": 2813,
      "companion": 2814,
      "iot": 2815,
      "own": 2816,
      "soliton": 2817,
      "23": 2818,
      "baselines": 2819,
      "convolution": 2820,
      "##ol": 2821,
      "semiconductor": 2822,
      "bosonic": 2823,
      "adding": 2824,
      "exponents": 2825,
      "maxwell": 2826,
      "circ": 2827,
      "violating": 2828,
      "price": 2829,
      "##im": 2830,
      "inelastic": 2831,
      "throughput": 2832,
      "optics": 2833,
      "argument": 2834,
      "stream": 2835,
      "efforts": 2836,
      "peaks": 2837,
      "observatory": 2838,
      "tackle": 2839,
      "list": 2840,
      "95": 2841,
      "li": 2842,
      "variants": 2843,
      "subsequent": 2844,
      "decoder": 2845,
      "##ino": 2846,
      "had": 2847,
      "clearly": 2848,
      "generators": 2849,
      "style": 2850,
      "adopted": 2851,
      "reward": 2852,
      "rest": 2853,
      "sm": 2854,
      "carrier": 2855,
      "papers": 2856,
      "suppressed": 2857,
      "scheduling": 2858,
      "communications": 2859,
      "kinematic": 2860,
      "tension": 2861,
      "milky": 2862,
      "deal": 2863,
      "boltzmann": 2864,
      "jointly": 2865,
      "evaluations": 2866,
      "impurity": 2867,
      "evolving": 2868,
      "rigid": 2869,
      "kerr": 2870,
      "posterior": 2871,
      "laplacian": 2872,
      "deployment": 2873,
      "failure": 2874,
      "supports": 2875,
      "fairness": 2876,
      "pp": 2877,
      "##ick": 2878,
      "substrate": 2879,
      "incorporate": 2880,
      "accessible": 2881,
      "document": 2882,
      "contrastive": 2883,
      "analyse": 2884,
      "subgroup": 2885,
      "duration": 2886,
      "feasibility": 2887,
      "counterparts": 2888,
      "lifetime": 2889,
      "maintaining": 2890,
      "quasars": 2891,
      "majorana": 2892,
      "exotic": 2893,
      "date": 2894,
      "cr": 2895,
      "kinematics": 2896,
      "##ward": 2897,
      "parton": 2898,
      "working": 2899,
      "break": 2900,
      "distinguish": 2901,
      "##op": 2902,
      "aspect": 2903,
      "former": 2904,
      "phenomenological": 2905,
      "singlet": 2906,
      "diameter": 2907,
      "integrating": 2908,
      "##ore": 2909,
      "mesh": 2910,
      "decreasing": 2911,
      "expensive": 2912,
      "inferred": 2913,
      "##ming": 2914,
      "##ations": 2915,
      "geometrical": 2916,
      "fluxes": 2917,
      "initially": 2918,
      "focuses": 2919,
      "solitons": 2920,
      "status": 2921,
      "##ries": 2922,
      "burst": 2923,
      "rigorous": 2924,
      "optimizing": 2925,
      "effort": 2926,
      "aligned": 2927,
      "versions": 2928,
      "losses": 2929,
      "surrounding": 2930,
      "representative": 2931,
      "opposite": 2932,
      "financial": 2933,
      "fail": 2934,
      "proven": 2935,
      "deformations": 2936,
      "resistance": 2937,
      "projected": 2938,
      "noncommutative": 2939,
      "private": 2940,
      "arithmetic": 2941,
      "primarily": 2942,
      "infer": 2943,
      "aggregation": 2944,
      "valuable": 2945,
      "torsion": 2946,
      "strengths": 2947,
      "iteration": 2948,
      "van": 2949,
      "universality": 2950,
      "auxiliary": 2951,
      "crossing": 2952,
      "deg": 2953,
      "perception": 2954,
      "newly": 2955,
      "polymer": 2956,
      "inclusion": 2957,
      "window": 2958,
      "actual": 2959,
      "false": 2960,
      "select": 2961,
      "vs": 2962,
      "averaged": 2963,
      "arxiv": 2964,
      "##ii": 2965,
      "80": 2966,
      "guide": 2967,
      "quantized": 2968,
      "screening": 2969,
      "proposal": 2970,
      "outputs": 2971,
      "##la": 2972,
      "plus": 2973,
      "activation": 2974,
      "vortices": 2975,
      "##ell": 2976,
      "generalizes": 2977,
      "##linear": 2978,
      "laboratory": 2979,
      "thick": 2980,
      "outperform": 2981,
      "cu": 2982,
      "old": 2983,
      "holomorphic": 2984,
      "analogue": 2985,
      "supergravity": 2986,
      "empirically": 2987,
      "admits": 2988,
      "author": 2989,
      "filling": 2990,
      "necessarily": 2991,
      "wavelengths": 2992,
      "la": 2993,
      "reasonable": 2994,
      "anomalies": 2995,
      "grb": 2996,
      "ca": 2997,
      "written": 2998,
      "nn": 2999,
      "minimizing": 3000,
      "##sphere": 3001,
      "globular": 3002,
      "algorithmic": 3003,
      "tilde": 3004,
      "ice": 3005,
      "greatly": 3006,
      "susceptibility": 3007,
      "kernels": 3008,
      "intervals": 3009,
      "usage": 3010,
      "##band": 3011,
      "annihilation": 3012,
      "simplified": 3013,
      "minimize": 3014,
      "deformed": 3015,
      "interior": 3016,
      "causes": 3017,
      "producing": 3018,
      "intelligent": 3019,
      "##tors": 3020,
      "##des": 3021,
      "halos": 3022,
      "start": 3023,
      "axion": 3024,
      "sums": 3025,
      "bipartite": 3026,
      "##ir": 3027,
      "sparsity": 3028,
      "finitely": 3029,
      "benefit": 3030,
      "##arity": 3031,
      "mimo": 3032,
      "##ky": 3033,
      "mergers": 3034,
      "share": 3035,
      "humans": 3036,
      "remote": 3037,
      "guarantee": 3038,
      "superfluid": 3039,
      "attributes": 3040,
      "##oring": 3041,
      "interpolation": 3042,
      "competition": 3043,
      "apparent": 3044,
      "instrument": 3045,
      "behind": 3046,
      "##nal": 3047,
      "track": 3048,
      "analog": 3049,
      "reversal": 3050,
      "outflow": 3051,
      "##mer": 3052,
      "look": 3053,
      "lengths": 3054,
      "synchronization": 3055,
      "envelope": 3056,
      "##pc": 3057,
      "probing": 3058,
      "##quark": 3059,
      "##mic": 3060,
      "scores": 3061,
      "squares": 3062,
      "helium": 3063,
      "subsequently": 3064,
      "acting": 3065,
      "remaining": 3066,
      "rev": 3067,
      "versus": 3068,
      "validated": 3069,
      "utilized": 3070,
      "patients": 3071,
      "covariant": 3072,
      "considerable": 3073,
      "throughout": 3074,
      "carry": 3075,
      "gates": 3076,
      "expanding": 3077,
      "min": 3078,
      "procedures": 3079,
      "filters": 3080,
      "luminous": 3081,
      "##rate": 3082,
      "raman": 3083,
      "moderate": 3084,
      "learns": 3085,
      "hopf": 3086,
      "neumann": 3087,
      "leverages": 3088,
      "negligible": 3089,
      "cognitive": 3090,
      "adapt": 3091,
      "integers": 3092,
      "outcome": 3093,
      "tend": 3094,
      "developments": 3095,
      "neighbor": 3096,
      "##mm": 3097,
      "randomly": 3098,
      "drive": 3099,
      "interactive": 3100,
      "foundation": 3101,
      "flexibility": 3102,
      "strictly": 3103,
      "trend": 3104,
      "##ator": 3105,
      "70": 3106,
      "2n": 3107,
      "##ber": 3108,
      "homotopy": 3109,
      "extremal": 3110,
      "counterpart": 3111,
      "consideration": 3112,
      "requirement": 3113,
      "indices": 3114,
      "prototype": 3115,
      "converges": 3116,
      "optically": 3117,
      "observing": 3118,
      "scanning": 3119,
      "junction": 3120,
      "induce": 3121,
      "defining": 3122,
      "ad": 3123,
      "bond": 3124,
      "involve": 3125,
      "addresses": 3126,
      "grain": 3127,
      "trap": 3128,
      "mn": 3129,
      "imply": 3130,
      "cancer": 3131,
      "ultraviolet": 3132,
      "navigation": 3133,
      "complexes": 3134,
      "wilson": 3135,
      "complicated": 3136,
      "physically": 3137,
      "extinction": 3138,
      "interpret": 3139,
      "suffer": 3140,
      "triplet": 3141,
      "35": 3142,
      "explanations": 3143,
      "quantity": 3144,
      "robotic": 3145,
      "members": 3146,
      "treated": 3147,
      "##ay": 3148,
      "concerns": 3149,
      "axial": 3150,
      "machines": 3151,
      "receiver": 3152,
      "illustrated": 3153,
      "##ising": 3154,
      "##ac": 3155,
      "fault": 3156,
      "frameworks": 3157,
      "biases": 3158,
      "later": 3159,
      "led": 3160,
      "##une": 3161,
      "dimensionality": 3162,
      "##sh": 3163,
      "activities": 3164,
      "decoherence": 3165,
      "equivariant": 3166,
      "##no": 3167,
      "completion": 3168,
      "efficacy": 3169,
      "enabled": 3170,
      "antenna": 3171,
      "spanning": 3172,
      "onset": 3173,
      "instabilities": 3174,
      "crossover": 3175,
      "characterizing": 3176,
      "##ped": 3177,
      "tunable": 3178,
      "quasar": 3179,
      "ranking": 3180,
      "answering": 3181,
      "combinations": 3182,
      "##ip": 3183,
      "comparisons": 3184,
      "##li": 3185,
      "flare": 3186,
      "alone": 3187,
      "controlling": 3188,
      "contained": 3189,
      "agree": 3190,
      "##ans": 3191,
      "creating": 3192,
      "vary": 3193,
      "fits": 3194,
      "##oids": 3195,
      "trends": 3196,
      "message": 3197,
      "shaped": 3198,
      "ms": 3199,
      "##and": 3200,
      "##aring": 3201,
      "fold": 3202,
      "assembly": 3203,
      "bh": 3204,
      "bottom": 3205,
      "gan": 3206,
      "difficulty": 3207,
      "banach": 3208,
      "bridge": 3209,
      "notably": 3210,
      "addressed": 3211,
      "qualitatively": 3212,
      "addressing": 3213,
      "##tes": 3214,
      "remarkably": 3215,
      "perpendicular": 3216,
      "comes": 3217,
      "ni": 3218,
      "comment": 3219,
      "package": 3220,
      "added": 3221,
      "multiplicity": 3222,
      "subsets": 3223,
      "received": 3224,
      "affects": 3225,
      "participants": 3226,
      "##lation": 3227,
      "overhead": 3228,
      "graded": 3229,
      "cooperative": 3230,
      "mitigate": 3231,
      "dependencies": 3232,
      "nevertheless": 3233,
      "surprisingly": 3234,
      "arbitrarily": 3235,
      "##ap": 3236,
      "normalized": 3237,
      "discrepancy": 3238,
      "##pes": 3239,
      "mining": 3240,
      "alternating": 3241,
      "newtonian": 3242,
      "ensembles": 3243,
      "pulsars": 3244,
      "consensus": 3245,
      "propagating": 3246,
      "truth": 3247,
      "##be": 3248,
      "randomized": 3249,
      "saturation": 3250,
      "##led": 3251,
      "##zing": 3252,
      "go": 3253,
      "##ars": 3254,
      "powers": 3255,
      "classifiers": 3256,
      "calculating": 3257,
      "hat": 3258,
      "twist": 3259,
      "chaos": 3260,
      "verified": 3261,
      "injection": 3262,
      "mission": 3263,
      "synchrotron": 3264,
      "bases": 3265,
      "valence": 3266,
      "##ving": 3267,
      "exciton": 3268,
      "identities": 3269,
      "attempt": 3270,
      "overlap": 3271,
      "conclusions": 3272,
      "geodesic": 3273,
      "differ": 3274,
      "sight": 3275,
      "compounds": 3276,
      "implementations": 3277,
      "quantitatively": 3278,
      "specified": 3279,
      "check": 3280,
      "put": 3281,
      "##nn": 3282,
      "distillation": 3283,
      "##osing": 3284,
      "backward": 3285,
      "300": 3286,
      "unseen": 3287,
      "##ow": 3288,
      "adapted": 3289,
      "fractions": 3290,
      "attributed": 3291,
      "##rd": 3292,
      "captured": 3293,
      "industrial": 3294,
      "choices": 3295,
      "triple": 3296,
      "realize": 3297,
      "sdss": 3298,
      "viscous": 3299,
      "until": 3300,
      "coronal": 3301,
      "condensation": 3302,
      "dna": 3303,
      "adjoint": 3304,
      "considers": 3305,
      "percolation": 3306,
      "##ory": 3307,
      "500": 3308,
      "diagnosis": 3309,
      "fragmentation": 3310,
      "##tt": 3311,
      "investigating": 3312,
      "##cted": 3313,
      "scalability": 3314,
      "degeneracy": 3315,
      "opportunities": 3316,
      "applies": 3317,
      "routing": 3318,
      "lies": 3319,
      "except": 3320,
      "##ural": 3321,
      "seems": 3322,
      "utilizes": 3323,
      "subgroups": 3324,
      "lipschitz": 3325,
      "head": 3326,
      "occurrence": 3327,
      "ns": 3328,
      "industry": 3329,
      "fluids": 3330,
      "##like": 3331,
      "curved": 3332,
      "shocks": 3333,
      "##rating": 3334,
      "##tal": 3335,
      "student": 3336,
      "crystalline": 3337,
      "conclusion": 3338,
      "isomorphic": 3339,
      "modifications": 3340,
      "josephson": 3341,
      "properly": 3342,
      "##ish": 3343,
      "decades": 3344,
      "descriptions": 3345,
      "topics": 3346,
      "biased": 3347,
      "expert": 3348,
      "##omorphic": 3349,
      "captures": 3350,
      "solver": 3351,
      "converge": 3352,
      "spheres": 3353,
      "iv": 3354,
      "resolve": 3355,
      "nonlinearity": 3356,
      "initio": 3357,
      "economic": 3358,
      "poses": 3359,
      "equipped": 3360,
      "##its": 3361,
      "centers": 3362,
      "telescopes": 3363,
      "triangular": 3364,
      "heuristic": 3365,
      "patient": 3366,
      "display": 3367,
      "passive": 3368,
      "tomography": 3369,
      "yr": 3370,
      "reason": 3371,
      "##cular": 3372,
      "bell": 3373,
      "employs": 3374,
      "gpu": 3375,
      "begin": 3376,
      "induces": 3377,
      "determines": 3378,
      "##point": 3379,
      "refinement": 3380,
      "incorporates": 3381,
      "##flow": 3382,
      "solvable": 3383,
      "intra": 3384,
      "enhances": 3385,
      "gauss": 3386,
      "##ists": 3387,
      "sc": 3388,
      "grains": 3389,
      "mediated": 3390,
      "##ka": 3391,
      "tc": 3392,
      "##wise": 3393,
      "functionals": 3394,
      "mg": 3395,
      "objectives": 3396,
      "relate": 3397,
      "navier": 3398,
      "supporting": 3399,
      "constructions": 3400,
      "maximize": 3401,
      "inertial": 3402,
      "proving": 3403,
      "ambient": 3404,
      "landscape": 3405,
      "person": 3406,
      "entity": 3407,
      "ricci": 3408,
      "compound": 3409,
      "optimality": 3410,
      "pm0": 3411,
      "##ious": 3412,
      "##kov": 3413,
      "walls": 3414,
      "circle": 3415,
      "sne": 3416,
      "squared": 3417,
      "contextual": 3418,
      "cdm": 3419,
      "speaker": 3420,
      "news": 3421,
      "##ton": 3422,
      "junctions": 3423,
      "discretization": 3424,
      "bilayer": 3425,
      "emerged": 3426,
      "fractal": 3427,
      "kinds": 3428,
      "balanced": 3429,
      "walks": 3430,
      "thought": 3431,
      "##ks": 3432,
      "spacetimes": 3433,
      "entities": 3434,
      "nlp": 3435,
      "continuously": 3436,
      "ct": 3437,
      "##ses": 3438,
      "discover": 3439,
      "master": 3440,
      "act": 3441,
      "pairwise": 3442,
      "cs": 3443,
      "modalities": 3444,
      "lyapunov": 3445,
      "marginal": 3446,
      "snr": 3447,
      "ideals": 3448,
      "emergent": 3449,
      "collaborative": 3450,
      "contexts": 3451,
      "##ged": 3452,
      "ball": 3453,
      "cft": 3454,
      "##ak": 3455,
      "safe": 3456,
      "permutation": 3457,
      "32": 3458,
      "corpus": 3459,
      "annotations": 3460,
      "urban": 3461,
      "##ca": 3462,
      "attribute": 3463,
      "proximity": 3464,
      "##ag": 3465,
      "epoch": 3466,
      "##ec": 3467,
      "annotated": 3468,
      "chemistry": 3469,
      "sobolev": 3470,
      "offline": 3471,
      "##tions": 3472,
      "statistically": 3473,
      "operational": 3474,
      "english": 3475,
      "infinitely": 3476,
      "se": 3477,
      "##nder": 3478,
      "posed": 3479,
      "##verse": 3480,
      "jacobi": 3481,
      "fock": 3482,
      "dc": 3483,
      "ranges": 3484,
      "library": 3485,
      "gw": 3486,
      "hd": 3487,
      "eight": 3488,
      "conduction": 3489,
      "convection": 3490,
      "oscillators": 3491,
      "faint": 3492,
      "globally": 3493,
      "million": 3494,
      "server": 3495,
      "sentence": 3496,
      "perturbed": 3497,
      "roughly": 3498,
      "##bar": 3499,
      "friction": 3500,
      "his": 3501,
      "inclusive": 3502,
      "kondo": 3503,
      "items": 3504,
      "extensively": 3505,
      "genetic": 3506,
      "reconstruct": 3507,
      "scenes": 3508,
      "tends": 3509,
      "streaming": 3510,
      "interact": 3511,
      "expansions": 3512,
      "linked": 3513,
      "##ved": 3514,
      "interpretable": 3515,
      "mri": 3516,
      "exceptional": 3517,
      "##ut": 3518,
      "move": 3519,
      "separable": 3520,
      "##fe": 3521,
      "##logical": 3522,
      "hamiltonians": 3523,
      "##un": 3524,
      "##tation": 3525,
      "##ulated": 3526,
      "reconstructed": 3527,
      "independence": 3528,
      "experts": 3529,
      "investigations": 3530,
      "logical": 3531,
      "nor": 3532,
      "##sm": 3533,
      "distant": 3534,
      "bodies": 3535,
      "displacement": 3536,
      "26": 3537,
      "multiplicative": 3538,
      "notions": 3539,
      "extracting": 3540,
      "viewed": 3541,
      "bubble": 3542,
      "##ments": 3543,
      "covers": 3544,
      "27": 3545,
      "prominent": 3546,
      "##ade": 3547,
      "infrastructure": 3548,
      "rf": 3549,
      "##red": 3550,
      "meaning": 3551,
      "lesssim": 3552,
      "differentiable": 3553,
      "compton": 3554,
      "##o3": 3555,
      "come": 3556,
      "reality": 3557,
      "layered": 3558,
      "fashion": 3559,
      "degradation": 3560,
      "mag": 3561,
      "transformers": 3562,
      "wigner": 3563,
      "45": 3564,
      "integrate": 3565,
      "gl": 3566,
      "capturing": 3567,
      "metals": 3568,
      "chandra": 3569,
      "visualization": 3570,
      "28": 3571,
      "ac": 3572,
      "resistivity": 3573,
      "letter": 3574,
      "##fication": 3575,
      "ansatz": 3576,
      "communities": 3577,
      "otherwise": 3578,
      "seven": 3579,
      "adopt": 3580,
      "decentralized": 3581,
      "centre": 3582,
      "modality": 3583,
      "semiclassical": 3584,
      "monolayer": 3585,
      "annotation": 3586,
      "gaia": 3587,
      "amounts": 3588,
      "parameterized": 3589,
      "##ai": 3590,
      "drop": 3591,
      "contrary": 3592,
      "mhd": 3593,
      "##og": 3594,
      "ergodic": 3595,
      "historical": 3596,
      "##vs": 3597,
      "##hs": 3598,
      "emphasis": 3599,
      "##ose": 3600,
      "jump": 3601,
      "catalog": 3602,
      "fl": 3603,
      "##ab": 3604,
      "classified": 3605,
      "fuzzy": 3606,
      "overline": 3607,
      "implementing": 3608,
      "heterogeneity": 3609,
      "actually": 3610,
      "##lines": 3611,
      "schwarzschild": 3612,
      "merging": 3613,
      "supervision": 3614,
      "compressed": 3615,
      "acquisition": 3616,
      "centered": 3617,
      "incident": 3618,
      "complement": 3619,
      "75": 3620,
      "##ties": 3621,
      "opens": 3622,
      "chip": 3623,
      "closure": 3624,
      "preferences": 3625,
      "##ction": 3626,
      "nonzero": 3627,
      "gains": 3628,
      "mhz": 3629,
      "##ify": 3630,
      "evolve": 3631,
      "migration": 3632,
      "neighborhood": 3633,
      "selective": 3634,
      "count": 3635,
      "tailored": 3636,
      "persistent": 3637,
      "cascade": 3638,
      "membrane": 3639,
      "ensuring": 3640,
      "admit": 3641,
      "horizontal": 3642,
      "dnn": 3643,
      "governed": 3644,
      "carefully": 3645,
      "arm": 3646,
      "nonequilibrium": 3647,
      "##ides": 3648,
      "encoded": 3649,
      "engine": 3650,
      "ten": 3651,
      "averaging": 3652,
      "standing": 3653,
      "impacts": 3654,
      "symbolic": 3655,
      "gases": 3656,
      "vicinity": 3657,
      "dedicated": 3658,
      "similarly": 3659,
      "klein": 3660,
      "regularized": 3661,
      "helps": 3662,
      "colour": 3663,
      "minkowski": 3664,
      "movement": 3665,
      "colors": 3666,
      "textbf": 3667,
      "insulators": 3668,
      "##hn": 3669,
      "achievable": 3670,
      "indirect": 3671,
      "simpler": 3672,
      "flares": 3673,
      "updates": 3674,
      "2020": 3675,
      "qed": 3676,
      "performances": 3677,
      "yielding": 3678,
      "##si": 3679,
      "##tary": 3680,
      "warm": 3681,
      "clean": 3682,
      "##sive": 3683,
      "frequently": 3684,
      "rgb": 3685,
      "##ort": 3686,
      "##act": 3687,
      "05": 3688,
      "comparative": 3689,
      "sampled": 3690,
      "luminosities": 3691,
      "##ves": 3692,
      "automata": 3693,
      "continuity": 3694,
      "satisfied": 3695,
      "##oi": 3696,
      "corrected": 3697,
      "transforms": 3698,
      "blockchain": 3699,
      "conserved": 3700,
      "imaginary": 3701,
      "maintain": 3702,
      "quickly": 3703,
      "considerably": 3704,
      "boolean": 3705,
      "correctly": 3706,
      "##ered": 3707,
      "##land": 3708,
      "##matic": 3709,
      "##ometric": 3710,
      "nano": 3711,
      "organic": 3712,
      "preserve": 3713,
      "competing": 3714,
      "facial": 3715,
      "deployed": 3716,
      "peculiar": 3717,
      "condensates": 3718,
      "concrete": 3719,
      "ionized": 3720,
      "firstly": 3721,
      "availability": 3722,
      "partitions": 3723,
      "backgrounds": 3724,
      "der": 3725,
      "preference": 3726,
      "denoising": 3727,
      "hst": 3728,
      "asymptotics": 3729,
      "micron": 3730,
      "weaker": 3731,
      "ldots": 3732,
      "exposure": 3733,
      "##12": 3734,
      "varies": 3735,
      "intensive": 3736,
      "importantly": 3737,
      "fourth": 3738,
      "emitted": 3739,
      "##sed": 3740,
      "dft": 3741,
      "##af": 3742,
      "meaningful": 3743,
      "markovian": 3744,
      "establishing": 3745,
      "gpt": 3746,
      "monotone": 3747,
      "diffusive": 3748,
      "##variate": 3749,
      "oxide": 3750,
      "smallest": 3751,
      "varphi": 3752,
      "coming": 3753,
      "imposed": 3754,
      "emerge": 3755,
      "##hing": 3756,
      "cnns": 3757,
      "normalization": 3758,
      "widths": 3759,
      "outflows": 3760,
      "texture": 3761,
      "aa": 3762,
      "minor": 3763,
      "##qa": 3764,
      "##ography": 3765,
      "climate": 3766,
      "##ess": 3767,
      "documents": 3768,
      "reaching": 3769,
      "manual": 3770,
      "hydrodynamics": 3771,
      "##ix": 3772,
      "counts": 3773,
      "torque": 3774,
      "counter": 3775,
      "probes": 3776,
      "momenta": 3777,
      "priors": 3778,
      "observer": 3779,
      "fair": 3780,
      "##ators": 3781,
      "knots": 3782,
      "02": 3783,
      "today": 3784,
      "guidance": 3785,
      "answers": 3786,
      "avoiding": 3787,
      "dependency": 3788,
      "##iate": 3789,
      "##tory": 3790,
      "thanks": 3791,
      "##cent": 3792,
      "mott": 3793,
      "goals": 3794,
      "strange": 3795,
      "spatio": 3796,
      "born": 3797,
      "cauchy": 3798,
      "neurons": 3799,
      "median": 3800,
      "packet": 3801,
      "straightforward": 3802,
      "views": 3803,
      "magneto": 3804,
      "passing": 3805,
      "atlas": 3806,
      "recorded": 3807,
      "searching": 3808,
      "simeq": 3809,
      "priori": 3810,
      "separately": 3811,
      "##ues": 3812,
      "course": 3813,
      "photo": 3814,
      "regret": 3815,
      "limitation": 3816,
      "##gan": 3817,
      "bulge": 3818,
      "incomplete": 3819,
      "explosion": 3820,
      "forest": 3821,
      "approximated": 3822,
      "reverse": 3823,
      "unbounded": 3824,
      "handling": 3825,
      "brief": 3826,
      "susy": 3827,
      "2018": 3828,
      "unusual": 3829,
      "recursive": 3830,
      "road": 3831,
      "##ght": 3832,
      "worst": 3833,
      "graphical": 3834,
      "viable": 3835,
      "grows": 3836,
      "respective": 3837,
      "math": 3838,
      "vibrational": 3839,
      "considerations": 3840,
      "segment": 3841,
      "generalizations": 3842,
      "possess": 3843,
      "placed": 3844,
      "investigates": 3845,
      "classic": 3846,
      "accounts": 3847,
      "interestingly": 3848,
      "bath": 3849,
      "suited": 3850,
      "grbs": 3851,
      "relying": 3852,
      "##ional": 3853,
      "##ller": 3854,
      "diamond": 3855,
      "textual": 3856,
      "##ode": 3857,
      "adic": 3858,
      "##ots": 3859,
      "solely": 3860,
      "##lic": 3861,
      "offering": 3862,
      "01": 3863,
      "isomorphism": 3864,
      "simplest": 3865,
      "formulae": 3866,
      "players": 3867,
      "99": 3868,
      "##etic": 3869,
      "simulating": 3870,
      "fisher": 3871,
      "##ass": 3872,
      "fewer": 3873,
      "hz": 3874,
      "tensors": 3875,
      "modulated": 3876,
      "era": 3877,
      "emitting": 3878,
      "trust": 3879,
      "##ee": 3880,
      "gene": 3881,
      "energetic": 3882,
      "laplace": 3883,
      "##lated": 3884,
      "4d": 3885,
      "forcing": 3886,
      "gr": 3887,
      "dl": 3888,
      "trapping": 3889,
      "##ba": 3890,
      "inflationary": 3891,
      "choose": 3892,
      "directional": 3893,
      "2019": 3894,
      "granular": 3895,
      "updated": 3896,
      "escape": 3897,
      "satellites": 3898,
      "##tting": 3899,
      "##50": 3900,
      "decaying": 3901,
      "2017": 3902,
      "##ein": 3903,
      "simons": 3904,
      "modulus": 3905,
      "mixtures": 3906,
      "eventually": 3907,
      "##ets": 3908,
      "##ert": 3909,
      "difficulties": 3910,
      "pole": 3911,
      "##lm": 3912,
      "myr": 3913,
      "labeling": 3914,
      "##sp": 3915,
      "goes": 3916,
      "transit": 3917,
      "##oc": 3918,
      "topologically": 3919,
      "fall": 3920,
      "timescale": 3921,
      "2015": 3922,
      "##metry": 3923,
      "##ulating": 3924,
      "raw": 3925,
      "referred": 3926,
      "##ire": 3927,
      "recombination": 3928,
      "acts": 3929,
      "perspectives": 3930,
      "music": 3931,
      "flavour": 3932,
      "##ier": 3933,
      "occurring": 3934,
      "highlights": 3935,
      "assignment": 3936,
      "recovered": 3937,
      "restriction": 3938,
      "nebula": 3939,
      "survival": 3940,
      "toric": 3941,
      "superposition": 3942,
      "valley": 3943,
      "ar": 3944,
      "hopping": 3945,
      "##ice": 3946,
      "accounting": 3947,
      "msun": 3948,
      "##ti": 3949,
      "demonstration": 3950,
      "sized": 3951,
      "##set": 3952,
      "##rated": 3953,
      "adjacent": 3954,
      "diagnostic": 3955,
      "##ential": 3956,
      "quotient": 3957,
      "batch": 3958,
      "reports": 3959,
      "item": 3960,
      "bifurcation": 3961,
      "conjectured": 3962,
      "situ": 3963,
      "baryons": 3964,
      "##ency": 3965,
      "evolved": 3966,
      "protected": 3967,
      "latest": 3968,
      "helicity": 3969,
      "na": 3970,
      "mild": 3971,
      "doppler": 3972,
      "rangle": 3973,
      "pass": 3974,
      "restrictions": 3975,
      "hours": 3976,
      "##logy": 3977,
      "##ying": 3978,
      "yau": 3979,
      "##fold": 3980,
      "quenched": 3981,
      "mask": 3982,
      "waveguide": 3983,
      "erg": 3984,
      "##late": 3985,
      "##out": 3986,
      "possibilities": 3987,
      "insulating": 3988,
      "selecting": 3989,
      "##normal": 3990,
      "knot": 3991,
      "interpretability": 3992,
      "projects": 3993,
      "emerges": 3994,
      "uncertain": 3995,
      "winds": 3996,
      "revealing": 3997,
      "instruments": 3998,
      "timescales": 3999,
      "slowly": 4000,
      "projections": 4001,
      "casimir": 4002,
      "controls": 4003,
      "generalizing": 4004,
      "##hip": 4005,
      "reached": 4006,
      "##nding": 4007,
      "themselves": 4008,
      "ti": 4009,
      "2016": 4010,
      "##nes": 4011,
      "exhibiting": 4012,
      "maximization": 4013,
      "smoothing": 4014,
      "expectations": 4015,
      "pump": 4016,
      "charm": 4017,
      "analysed": 4018,
      "triangle": 4019,
      "##ie": 4020,
      "faces": 4021,
      "##ake": 4022,
      "dialogue": 4023,
      "nanoparticles": 4024,
      "ongoing": 4025,
      "unlabeled": 4026,
      "ages": 4027,
      "player": 4028,
      "route": 4029,
      "primitive": 4030,
      "##ae": 4031,
      "subspaces": 4032,
      "interferometer": 4033,
      "detections": 4034,
      "protons": 4035,
      "kepler": 4036,
      "released": 4037,
      "magnitudes": 4038,
      "##tz": 4039,
      "asymmetries": 4040,
      "##mc": 4041,
      "discontinuous": 4042,
      "spherically": 4043,
      "remnant": 4044,
      "lying": 4045,
      "trigger": 4046,
      "##ens": 4047,
      "characters": 4048,
      "promise": 4049,
      "##ering": 4050,
      "informed": 4051,
      "truncated": 4052,
      "pruning": 4053,
      "protection": 4054,
      "scattered": 4055,
      "von": 4056,
      "matches": 4057,
      "piecewise": 4058,
      "amplification": 4059,
      "computers": 4060,
      "##ex": 4061,
      "gyr": 4062,
      "stabilization": 4063,
      "1000": 4064,
      "radar": 4065,
      "##20": 4066,
      "treat": 4067,
      "budget": 4068,
      "prospects": 4069,
      "refined": 4070,
      "shallow": 4071,
      "scatter": 4072,
      "return": 4073,
      "##ni": 4074,
      "serves": 4075,
      "##magnetic": 4076,
      "matched": 4077,
      "things": 4078,
      "rendering": 4079,
      "superiority": 4080,
      "##per": 4081,
      "broadband": 4082,
      "##ws": 4083,
      "operate": 4084,
      "sentiment": 4085,
      "prevent": 4086,
      "##izes": 4087,
      "conducting": 4088,
      "cutoff": 4089,
      "summary": 4090,
      "expect": 4091,
      "planes": 4092,
      "condensed": 4093,
      "bits": 4094,
      "drawn": 4095,
      "decade": 4096,
      "conservative": 4097,
      "auto": 4098,
      "segments": 4099,
      "##ures": 4100,
      "fm": 4101,
      "##ants": 4102,
      "neither": 4103,
      "##roid": 4104,
      "filaments": 4105,
      "doubly": 4106,
      "##particle": 4107,
      "##res": 4108,
      "33": 4109,
      "align": 4110,
      "##our": 4111,
      "aimed": 4112,
      "##rade": 4113,
      "##und": 4114,
      "boost": 4115,
      "unprecedented": 4116,
      "yukawa": 4117,
      "cl": 4118,
      "repulsive": 4119,
      "ever": 4120,
      "definitions": 4121,
      "##pa": 4122,
      "patch": 4123,
      "times10": 4124,
      "galois": 4125,
      "encode": 4126,
      "reviewed": 4127,
      "older": 4128,
      "thz": 4129,
      "##oidal": 4130,
      "incompressible": 4131,
      "lyman": 4132,
      "millimeter": 4133,
      "feynman": 4134,
      "hadrons": 4135,
      "##ids": 4136,
      "huge": 4137,
      "colliders": 4138,
      "##uting": 4139,
      "cool": 4140,
      "electrodynamics": 4141,
      "explains": 4142,
      "runs": 4143,
      "fails": 4144,
      "zeros": 4145,
      "morphological": 4146,
      "explores": 4147,
      "spreading": 4148,
      "lightweight": 4149,
      "##mers": 4150,
      "accompanied": 4151,
      "elliptical": 4152,
      "removal": 4153,
      "phonons": 4154,
      "reproduced": 4155,
      "believe": 4156,
      "prompts": 4157,
      "ast": 4158,
      "definite": 4159,
      "shifted": 4160,
      "hyper": 4161,
      "opportunity": 4162,
      "consuming": 4163,
      "streams": 4164,
      "##ened": 4165,
      "shorter": 4166,
      "intense": 4167,
      "xmm": 4168,
      "grown": 4169,
      "hausdorff": 4170,
      "uav": 4171,
      "quantification": 4172,
      "exploits": 4173,
      "percent": 4174,
      "tokens": 4175,
      "intuitive": 4176,
      "##sa": 4177,
      "discs": 4178,
      "##em": 4179,
      "heavily": 4180,
      "targeted": 4181,
      "add": 4182,
      "accelerating": 4183,
      "2012": 4184,
      "deriving": 4185,
      "witten": 4186,
      "multiplication": 4187,
      "revisit": 4188,
      "strict": 4189,
      "denote": 4190,
      "mappings": 4191,
      "oscillatory": 4192,
      "##uing": 4193,
      "accelerator": 4194,
      "reaches": 4195,
      "tissue": 4196,
      "##graph": 4197,
      "##ley": 4198,
      "desirable": 4199,
      "meet": 4200,
      "##end": 4201,
      "##onium": 4202,
      "sfr": 4203,
      "##ash": 4204,
      "automorphism": 4205,
      "unbiased": 4206,
      "attempts": 4207,
      "##mp": 4208,
      "2010": 4209,
      "hawking": 4210,
      "quasiparticle": 4211,
      "nanoscale": 4212,
      "solvers": 4213,
      "severe": 4214,
      "transformed": 4215,
      "probably": 4216,
      "never": 4217,
      "deduce": 4218,
      "##ters": 4219,
      "anderson": 4220,
      "becoming": 4221,
      "plausible": 4222,
      "corona": 4223,
      "equilibria": 4224,
      "calabi": 4225,
      "pde": 4226,
      "##ock": 4227,
      "modify": 4228,
      "##tch": 4229,
      "emotion": 4230,
      "liquids": 4231,
      "resonator": 4232,
      "grow": 4233,
      "##ml": 4234,
      "fitted": 4235,
      "31": 4236,
      "deeper": 4237,
      "weather": 4238,
      "##ver": 4239,
      "brown": 4240,
      "nodal": 4241,
      "annealing": 4242,
      "2000": 4243,
      "semigroup": 4244,
      "irregular": 4245,
      "iterations": 4246,
      "formulations": 4247,
      "##kin": 4248,
      "phenomenology": 4249,
      "sheet": 4250,
      "similarities": 4251,
      "relating": 4252,
      "scaled": 4253,
      "transmit": 4254,
      "exploited": 4255,
      "##utation": 4256,
      "constraining": 4257,
      "assessing": 4258,
      "volumes": 4259,
      "##ativity": 4260,
      "##form": 4261,
      "decoupling": 4262,
      "passage": 4263,
      "uniquely": 4264,
      "traces": 4265,
      "electrostatic": 4266,
      "##ey": 4267,
      "conditioned": 4268,
      "magnetized": 4269,
      "skew": 4270,
      "nitrogen": 4271,
      "##lo": 4272,
      "bert": 4273,
      "developers": 4274,
      "analogy": 4275,
      "databases": 4276,
      "personalized": 4277,
      "flight": 4278,
      "know": 4279,
      "acquired": 4280,
      "lidar": 4281,
      "outburst": 4282,
      "advance": 4283,
      "##back": 4284,
      "##mann": 4285,
      "discriminative": 4286,
      "generalised": 4287,
      "reconnection": 4288,
      "gibbs": 4289,
      "connecting": 4290,
      "runtime": 4291,
      "lstm": 4292,
      "2011": 4293,
      "mathematics": 4294,
      "deposition": 4295,
      "##ulator": 4296,
      "##ges": 4297,
      "cavities": 4298,
      "ahler": 4299,
      "rigidity": 4300,
      "mentioned": 4301,
      "python": 4302,
      "indicators": 4303,
      "carriers": 4304,
      "healthcare": 4305,
      "agnostic": 4306,
      "##rus": 4307,
      "attracted": 4308,
      "subjects": 4309,
      "nematic": 4310,
      "vanishes": 4311,
      "table": 4312,
      "ln": 4313,
      "supply": 4314,
      "division": 4315,
      "bethe": 4316,
      "bloch": 4317,
      "recommendations": 4318,
      "readily": 4319,
      "reflect": 4320,
      "##ax": 4321,
      "mathsf": 4322,
      "advancements": 4323,
      "poincar": 4324,
      "sectors": 4325,
      "##off": 4326,
      "completeness": 4327,
      "magnetism": 4328,
      "atmospheres": 4329,
      "messages": 4330,
      "quadrupole": 4331,
      "2014": 4332,
      "int": 4333,
      "entirely": 4334,
      "monopole": 4335,
      "risks": 4336,
      "interested": 4337,
      "drug": 4338,
      "team": 4339,
      "remove": 4340,
      "##ust": 4341,
      "wavelet": 4342,
      "ubiquitous": 4343,
      "doublet": 4344,
      "greedy": 4345,
      "aiming": 4346,
      "reflected": 4347,
      "linearized": 4348,
      "##way": 4349,
      "international": 4350,
      "sp": 4351,
      "impurities": 4352,
      "simulator": 4353,
      "norms": 4354,
      "positron": 4355,
      "span": 4356,
      "maximally": 4357,
      "##ture": 4358,
      "highlighting": 4359,
      "##of": 4360,
      "opening": 4361,
      "stack": 4362,
      "conceptual": 4363,
      "##symmetric": 4364,
      "preferred": 4365,
      "relational": 4366,
      "astronomical": 4367,
      "packing": 4368,
      "##bm": 4369,
      "##ond": 4370,
      "cylindrical": 4371,
      "dilaton": 4372,
      "read": 4373,
      "##eg": 4374,
      "reservoir": 4375,
      "closer": 4376,
      "totally": 4377,
      "36": 4378,
      "poorly": 4379,
      "##ced": 4380,
      "extragalactic": 4381,
      "ejecta": 4382,
      "coloring": 4383,
      "agrees": 4384,
      "##vability": 4385,
      "detectable": 4386,
      "triggered": 4387,
      "conjugate": 4388,
      "reasons": 4389,
      "tangent": 4390,
      "##o2": 4391,
      "##feld": 4392,
      "ch": 4393,
      "checking": 4394,
      "broader": 4395,
      "again": 4396,
      "regardless": 4397,
      "reproduces": 4398,
      "##action": 4399,
      "maximizing": 4400,
      "##cc": 4401,
      "determinant": 4402,
      "disjoint": 4403,
      "accelerate": 4404,
      "circumstellar": 4405,
      "overlapping": 4406,
      "2013": 4407,
      "sea": 4408,
      "damage": 4409,
      "multidimensional": 4410,
      "contraction": 4411,
      "##cl": 4412,
      "unfortunately": 4413,
      "commercial": 4414,
      "prescribed": 4415,
      "astronomy": 4416,
      "transportation": 4417,
      "proteins": 4418,
      "branches": 4419,
      "adoption": 4420,
      "ga": 4421,
      "##gm": 4422,
      "ferroelectric": 4423,
      "patches": 4424,
      "coordination": 4425,
      "dispersive": 4426,
      "sometimes": 4427,
      "supermassive": 4428,
      "innovative": 4429,
      "cameras": 4430,
      "neighbors": 4431,
      "plasmas": 4432,
      "token": 4433,
      "round": 4434,
      "taylor": 4435,
      "utilization": 4436,
      "gained": 4437,
      "hypotheses": 4438,
      "##lating": 4439,
      "going": 4440,
      "##field": 4441,
      "outline": 4442,
      "fb": 4443,
      "originally": 4444,
      "unity": 4445,
      "secondly": 4446,
      "ism": 4447,
      "propto": 4448,
      "aid": 4449,
      "##ast": 4450,
      "metastable": 4451,
      "tune": 4452,
      "##ined": 4453,
      "##rf": 4454,
      "arrival": 4455,
      "entries": 4456,
      "daily": 4457,
      "owing": 4458,
      "incorporated": 4459,
      "nilpotent": 4460,
      "guaranteed": 4461,
      "##ners": 4462,
      "##uate": 4463,
      "progenitor": 4464,
      "liouville": 4465,
      "##ncing": 4466,
      "foreground": 4467,
      "55": 4468,
      "emissions": 4469,
      "2021": 4470,
      "dipolar": 4471,
      "powered": 4472,
      "textrm": 4473,
      "##iated": 4474,
      "##ude": 4475,
      "governing": 4476,
      "##sibility": 4477,
      "simplicial": 4478,
      "drag": 4479,
      "lived": 4480,
      "linguistic": 4481,
      "85": 4482,
      "03": 4483,
      "f1": 4484,
      "preparation": 4485,
      "teacher": 4486,
      "artifacts": 4487,
      "specification": 4488,
      "clock": 4489,
      "##oor": 4490,
      "##pping": 4491,
      "reversible": 4492,
      "surrogate": 4493,
      "150": 4494,
      "porous": 4495,
      "reynolds": 4496,
      "##mark": 4497,
      "##over": 4498,
      "aerial": 4499,
      "covered": 4500,
      "bps": 4501,
      "##ivities": 4502,
      "smoothness": 4503,
      "delays": 4504,
      "##harmonic": 4505,
      "contributes": 4506,
      "pdes": 4507,
      "34": 4508,
      "leptons": 4509,
      "concerned": 4510,
      "incremental": 4511,
      "coincides": 4512,
      "belief": 4513,
      "demands": 4514,
      "replaced": 4515,
      "devoted": 4516,
      "ensures": 4517,
      "beamforming": 4518,
      "coexistence": 4519,
      "integrates": 4520,
      "##stein": 4521,
      "tube": 4522,
      "##els": 4523,
      "express": 4524,
      "randomness": 4525,
      "meanwhile": 4526,
      "##med": 4527,
      "relay": 4528,
      "starburst": 4529,
      "union": 4530,
      "transparency": 4531,
      "##stic": 4532,
      "lemma": 4533,
      "readout": 4534,
      "accreting": 4535,
      "filament": 4536,
      "pretrained": 4537,
      "claim": 4538,
      "arc": 4539,
      "organization": 4540,
      "65": 4541,
      "te": 4542,
      "fabrication": 4543,
      "handed": 4544,
      "nonparametric": 4545,
      "controllable": 4546,
      "calibrated": 4547,
      "##rant": 4548,
      "ne": 4549,
      "29": 4550,
      "convective": 4551,
      "synthesized": 4552,
      "gordon": 4553,
      "gold": 4554,
      "obstacle": 4555,
      "##ht": 4556,
      "tunnel": 4557,
      "rough": 4558,
      "tractable": 4559,
      "implying": 4560,
      "##imeter": 4561,
      "cyber": 4562,
      "nucleation": 4563,
      "pixels": 4564,
      "delayed": 4565,
      "registration": 4566,
      "editing": 4567,
      "##ul": 4568,
      "##aking": 4569,
      "shed": 4570,
      "breaks": 4571,
      "countries": 4572,
      "dp": 4573,
      "isospin": 4574,
      "permutations": 4575,
      "##urate": 4576,
      "swift": 4577,
      "##ronic": 4578,
      "confirms": 4579,
      "multilingual": 4580,
      "concentrations": 4581,
      "unification": 4582,
      "##onic": 4583,
      "education": 4584,
      "hexagonal": 4585,
      "pricing": 4586,
      "locality": 4587,
      "dramatically": 4588,
      "transparent": 4589,
      "otimes": 4590,
      "explaining": 4591,
      "ultracold": 4592,
      "vast": 4593,
      "filled": 4594,
      "nabla": 4595,
      "robotics": 4596,
      "facilitates": 4597,
      "inclination": 4598,
      "96": 4599,
      "speeds": 4600,
      "##meter": 4601,
      "whenever": 4602,
      "hoc": 4603,
      "##board": 4604,
      "measurable": 4605,
      "seem": 4606,
      "droplet": 4607,
      "langle": 4608,
      "##nse": 4609,
      "classifying": 4610,
      "##ality": 4611,
      "conjectures": 4612,
      "ly": 4613,
      "ce": 4614,
      "##ended": 4615,
      "recall": 4616,
      "successive": 4617,
      "terminal": 4618,
      "solids": 4619,
      "dealing": 4620,
      "station": 4621,
      "##acing": 4622,
      "texts": 4623,
      "couple": 4624,
      "coincide": 4625,
      "sentences": 4626,
      "displays": 4627,
      "reionization": 4628,
      "collect": 4629,
      "roots": 4630,
      "bring": 4631,
      "##using": 4632,
      "azimuthal": 4633,
      "markets": 4634,
      "##nic": 4635,
      "##bh": 4636,
      "regarded": 4637,
      "##24": 4638,
      "instruction": 4639,
      "quantifying": 4640,
      "eeg": 4641,
      "wider": 4642,
      "##art": 4643,
      "##mo": 4644,
      "identifies": 4645,
      "hypersurfaces": 4646,
      "simplicity": 4647,
      "posedness": 4648,
      "waals": 4649,
      "##iling": 4650,
      "keeping": 4651,
      "multiscale": 4652,
      "exceeds": 4653,
      "approximating": 4654,
      "nested": 4655,
      "plate": 4656,
      "nonnegative": 4657,
      "##jection": 4658,
      "business": 4659,
      "manually": 4660,
      "parent": 4661,
      "amorphous": 4662,
      "care": 4663,
      "grids": 4664,
      "nash": 4665,
      "discrimination": 4666,
      "rayleigh": 4667,
      "integrability": 4668,
      "delivery": 4669,
      "preserves": 4670,
      "##ale": 4671,
      "cooperation": 4672,
      "consist": 4673,
      "##uring": 4674,
      "lett": 4675,
      "##nted": 4676,
      "dnns": 4677,
      "ris": 4678,
      "margin": 4679,
      "##imetric": 4680,
      "plan": 4681,
      "ultrafast": 4682,
      "gender": 4683,
      "bubbles": 4684,
      "barriers": 4685,
      "vital": 4686,
      "recurrence": 4687,
      "##bly": 4688,
      "hundreds": 4689,
      "aided": 4690,
      "volatility": 4691,
      "##ographic": 4692,
      "ba": 4693,
      "probed": 4694,
      "pointed": 4695,
      "kinetics": 4696,
      "oscillating": 4697,
      "did": 4698,
      "thesis": 4699,
      "cap": 4700,
      "practices": 4701,
      "stock": 4702,
      "centric": 4703,
      "thresholds": 4704,
      "equality": 4705,
      "varied": 4706,
      "specialized": 4707,
      "tracing": 4708,
      "opinion": 4709,
      "##metric": 4710,
      "##ple": 4711,
      "##ig": 4712,
      "bottleneck": 4713,
      "##imal": 4714,
      "##cm": 4715,
      "##ya": 4716,
      "intriguing": 4717,
      "alma": 4718,
      "##tories": 4719,
      "informative": 4720,
      "##visible": 4721,
      "subgraph": 4722,
      "facility": 4723,
      "##uctive": 4724,
      "##hedral": 4725,
      "motivation": 4726,
      "2008": 4727,
      "minima": 4728,
      "spacing": 4729,
      "continue": 4730,
      "eigenstates": 4731,
      "quenching": 4732,
      "restoration": 4733,
      "reviews": 4734,
      "template": 4735,
      "battery": 4736,
      "sophisticated": 4737,
      "pronounced": 4738,
      "modelled": 4739,
      "monitor": 4740,
      "##most": 4741,
      "careful": 4742,
      "roles": 4743,
      "illumination": 4744,
      "spinor": 4745,
      "autoencoder": 4746,
      "axisymmetric": 4747,
      "solves": 4748,
      "alleviate": 4749,
      "rhic": 4750,
      "magnetoresistance": 4751,
      "shortest": 4752,
      "2009": 4753,
      "catalogue": 4754,
      "orbitals": 4755,
      "ps": 4756,
      "instantaneous": 4757,
      "travel": 4758,
      "moves": 4759,
      "##va": 4760,
      "university": 4761,
      "develops": 4762,
      "##points": 4763,
      "south": 4764,
      "langevin": 4765,
      "options": 4766,
      "semiconductors": 4767,
      "ionic": 4768,
      "plasmon": 4769,
      "leakage": 4770,
      "heterostructures": 4771,
      "cc": 4772,
      "##ball": 4773,
      "diseases": 4774,
      "repeated": 4775,
      "geodesics": 4776,
      "ultimately": 4777,
      "interfacial": 4778,
      "antennas": 4779,
      "spot": 4780,
      "topologies": 4781,
      "##17": 4782,
      "##ham": 4783,
      "agns": 4784,
      "differs": 4785,
      "summarization": 4786,
      "dex": 4787,
      "broadening": 4788,
      "compressible": 4789,
      "fibers": 4790,
      "offset": 4791,
      "##ney": 4792,
      "reflecting": 4793,
      "##ame": 4794,
      "modulo": 4795,
      "penalty": 4796,
      "##rl": 4797,
      "5g": 4798,
      "mapped": 4799,
      "records": 4800,
      "propagator": 4801,
      "categorical": 4802,
      "presentation": 4803,
      "##gon": 4804,
      "widespread": 4805,
      "unitarity": 4806,
      "bounding": 4807,
      "belong": 4808,
      "##ogenesis": 4809,
      "resolutions": 4810,
      "twin": 4811,
      "aperture": 4812,
      "instanton": 4813,
      "removing": 4814,
      "distortions": 4815,
      "tip": 4816,
      "44": 4817,
      "eccentricity": 4818,
      "adopting": 4819,
      "bs": 4820,
      "ago": 4821,
      "##ked": 4822,
      "jupiter": 4823,
      "##izer": 4824,
      "choosing": 4825,
      "astrophysics": 4826,
      "mesoscopic": 4827,
      "eye": 4828,
      "oracle": 4829,
      "scan": 4830,
      "spinning": 4831,
      "divided": 4832,
      "defines": 4833,
      "##coming": 4834,
      "baryonic": 4835,
      "##dal": 4836,
      "##valent": 4837,
      "##ys": 4838,
      "suite": 4839,
      "##15": 4840,
      "played": 4841,
      "xy": 4842,
      "##ung": 4843,
      "epidemic": 4844,
      "decompositions": 4845,
      "##bo": 4846,
      "clarify": 4847,
      "stored": 4848,
      "magnon": 4849,
      "db": 4850,
      "##vo": 4851,
      "asr": 4852,
      "clients": 4853,
      "spitzer": 4854,
      "cylinder": 4855,
      "exclusive": 4856,
      "aggregate": 4857,
      "plasmonic": 4858,
      "111": 4859,
      "##licate": 4860,
      "alternatives": 4861,
      "##ometry": 4862,
      "finds": 4863,
      "lateral": 4864,
      "inconsistent": 4865,
      "mitigation": 4866,
      "precession": 4867,
      "criticality": 4868,
      "##vin": 4869,
      "400": 4870,
      "fading": 4871,
      "believed": 4872,
      "tumor": 4873,
      "influenced": 4874,
      "appearing": 4875,
      "helical": 4876,
      "eff": 4877,
      "summarize": 4878,
      "technological": 4879,
      "tens": 4880,
      "dominate": 4881,
      "br": 4882,
      "realizations": 4883,
      "presenting": 4884,
      "record": 4885,
      "formally": 4886,
      "spatiotemporal": 4887,
      "##go": 4888,
      "rapidity": 4889,
      "##sation": 4890,
      "articles": 4891,
      "blow": 4892,
      "balancing": 4893,
      "37": 4894,
      "establishes": 4895,
      "inductive": 4896,
      "##truction": 4897,
      "frobenius": 4898,
      "agb": 4899,
      "mr": 4900,
      "ic": 4901,
      "relaxed": 4902,
      "wire": 4903,
      "grand": 4904,
      "popularity": 4905,
      "versatile": 4906,
      "##nders": 4907,
      "04": 4908,
      "##inated": 4909,
      "client": 4910,
      "##air": 4911,
      "unexpected": 4912,
      "equally": 4913,
      "##ians": 4914,
      "methodologies": 4915,
      "schwinger": 4916,
      "ll": 4917,
      "##cise": 4918,
      "viewpoint": 4919,
      "##unch": 4920,
      "##hler": 4921,
      "##als": 4922,
      "##ected": 4923,
      "apart": 4924,
      "48": 4925,
      "bilinear": 4926,
      "##my": 4927,
      "##ker": 4928,
      "##ining": 4929,
      "recommender": 4930,
      "##60": 4931,
      "##astic": 4932,
      "rydberg": 4933,
      "cancellation": 4934,
      "hope": 4935,
      "forecast": 4936,
      "sided": 4937,
      "hartree": 4938,
      "terrestrial": 4939,
      "automorphisms": 4940,
      "functionality": 4941,
      "indicator": 4942,
      "preserved": 4943,
      "imagenet": 4944,
      "##imate": 4945,
      "breakdown": 4946,
      "hardness": 4947,
      "claims": 4948,
      "blind": 4949,
      "hamilton": 4950,
      "continuation": 4951,
      "constitute": 4952,
      "##14": 4953,
      "##marks": 4954,
      "influences": 4955,
      "optimum": 4956,
      "##tivity": 4957,
      "##vector": 4958,
      "##ading": 4959,
      "mathscr": 4960,
      "irradiation": 4961,
      "switch": 4962,
      "##width": 4963,
      "##pass": 4964,
      "malicious": 4965,
      "resonators": 4966,
      "##spectral": 4967,
      "##s2": 4968,
      "purposes": 4969,
      "argued": 4970,
      "toroidal": 4971,
      "2007": 4972,
      "magic": 4973,
      "##ution": 4974,
      "##oton": 4975,
      "hii": 4976,
      "##ils": 4977,
      "##sis": 4978,
      "2022": 4979,
      "positivity": 4980,
      "imbalance": 4981,
      "interferometry": 4982,
      "64": 4983,
      "##ser": 4984,
      "assigned": 4985,
      "partitioning": 4986,
      "unconventional": 4987,
      "##where": 4988,
      "emitters": 4989,
      "##iation": 4990,
      "substrates": 4991,
      "lithium": 4992,
      "proposals": 4993,
      "proves": 4994,
      "controllers": 4995,
      "##dit": 4996,
      "personal": 4997,
      "##ads": 4998,
      "prepared": 4999,
      "beneficial": 5000,
      "38": 5001,
      "thousands": 5002,
      "comprising": 5003,
      "connect": 5004,
      "removed": 5005,
      "sgr": 5006,
      "##icity": 5007,
      "failures": 5008,
      "asynchronous": 5009,
      "experiences": 5010,
      "transmitted": 5011,
      "quiescent": 5012,
      "seed": 5013,
      "##vi": 5014,
      "termed": 5015,
      "wasserstein": 5016,
      "collinear": 5017,
      "causality": 5018,
      "pumping": 5019,
      "##oting": 5020,
      "enriched": 5021,
      "##lin": 5022,
      "excitons": 5023,
      "eigenfunctions": 5024,
      "contacts": 5025,
      "correlators": 5026,
      "##au": 5027,
      "##py": 5028,
      "obstacles": 5029,
      "secret": 5030,
      "##sence": 5031,
      "backbone": 5032,
      "doing": 5033,
      "impossible": 5034,
      "mc": 5035,
      "compatibility": 5036,
      "##biguous": 5037,
      "##liance": 5038,
      "convexity": 5039,
      "carrying": 5040,
      "unclear": 5041,
      "national": 5042,
      "write": 5043,
      "saddle": 5044,
      "evolves": 5045,
      "companions": 5046,
      "lmc": 5047,
      "scope": 5048,
      "fano": 5049,
      "ds": 5050,
      "persistence": 5051,
      "##ptic": 5052,
      "resolving": 5053,
      "magellanic": 5054,
      "hosts": 5055,
      "hardy": 5056,
      "heart": 5057,
      "monotonic": 5058,
      "berry": 5059,
      "symbols": 5060,
      "voice": 5061,
      "evaporation": 5062,
      "mssm": 5063,
      "seyfert": 5064,
      "##ase": 5065,
      "party": 5066,
      "symbol": 5067,
      "skin": 5068,
      "gtrsim": 5069,
      "##ford": 5070,
      "centrality": 5071,
      "waveform": 5072,
      "pauli": 5073,
      "##uly": 5074,
      "##akes": 5075,
      "##cts": 5076,
      "##x10": 5077,
      "##itable": 5078,
      "dose": 5079,
      "truncation": 5080,
      "dominates": 5081,
      "pandemic": 5082,
      "contamination": 5083,
      "intensities": 5084,
      "42": 5085,
      "##30": 5086,
      "##graphs": 5087,
      "geometrically": 5088,
      "##uities": 5089,
      "undergo": 5090,
      "alloys": 5091,
      "##mb": 5092,
      "##cn": 5093,
      "##used": 5094,
      "##izability": 5095,
      "fluorescence": 5096,
      "compositional": 5097,
      "##nk": 5098,
      "cms": 5099,
      "bcs": 5100,
      "chinese": 5101,
      "intended": 5102,
      "exoplanets": 5103,
      "concentrated": 5104,
      "##ene": 5105,
      "##ins": 5106,
      "##rg": 5107,
      "##16": 5108,
      "damped": 5109,
      "exoplanet": 5110,
      "##io": 5111,
      "##ack": 5112,
      "neighboring": 5113,
      "relic": 5114,
      "##val": 5115,
      "compactness": 5116,
      "vapor": 5117,
      "##morphic": 5118,
      "bending": 5119,
      "##rge": 5120,
      "keep": 5121,
      "clumps": 5122,
      "semigroups": 5123,
      "traveling": 5124,
      "##all": 5125,
      "hydrodynamical": 5126,
      "peer": 5127,
      "prices": 5128,
      "benchmarking": 5129,
      "arms": 5130,
      "separating": 5131,
      "##eep": 5132,
      "##lc": 5133,
      "##ifiable": 5134,
      "packets": 5135,
      "examining": 5136,
      "charging": 5137,
      "##cal": 5138,
      "cpu": 5139,
      "returns": 5140,
      "gnns": 5141,
      "distinguished": 5142,
      "originating": 5143,
      "ambiguity": 5144,
      "possesses": 5145,
      "conjunction": 5146,
      "ghost": 5147,
      "elasticity": 5148,
      "h2": 5149,
      "tails": 5150,
      "##ob": 5151,
      "43": 5152,
      "absent": 5153,
      "skills": 5154,
      "##sampling": 5155,
      "##ement": 5156,
      "cumulative": 5157,
      "##iss": 5158,
      "pulsed": 5159,
      "##sonic": 5160,
      "kg": 5161,
      "board": 5162,
      "surprising": 5163,
      "lasers": 5164,
      "horizons": 5165,
      "stacking": 5166,
      "sheaves": 5167,
      "stringent": 5168,
      "trial": 5169,
      "insufficient": 5170,
      "98": 5171,
      "statistic": 5172,
      "cache": 5173,
      "##ao": 5174,
      "indoor": 5175,
      "##mographic": 5176,
      "notes": 5177,
      "##nov": 5178,
      "plateau": 5179,
      "bootstrap": 5180,
      "spontaneously": 5181,
      "gnn": 5182,
      "dynamo": 5183,
      "quantified": 5184,
      "expand": 5185,
      "periodicity": 5186,
      "##ok": 5187,
      "##eet": 5188,
      "extrapolation": 5189,
      "gross": 5190,
      "vacancy": 5191,
      "iteratively": 5192,
      "colored": 5193,
      "##eration": 5194,
      "##fall": 5195,
      "paramagnetic": 5196,
      "defense": 5197,
      "##ave": 5198,
      "attenuation": 5199,
      "##dinal": 5200,
      "exclusion": 5201,
      "consecutive": 5202,
      "discusses": 5203,
      "european": 5204,
      "twitter": 5205,
      "oh": 5206,
      "optimally": 5207,
      "##lms": 5208,
      "vulnerable": 5209,
      "reliably": 5210,
      "remnants": 5211,
      "spectrograph": 5212,
      "##ition": 5213,
      "colloidal": 5214,
      "##lattice": 5215,
      "primes": 5216,
      "trading": 5217,
      "adapting": 5218,
      "##tl": 5219,
      "parametrization": 5220,
      "56": 5221,
      "##vent": 5222,
      "exp": 5223,
      "slip": 5224,
      "nine": 5225,
      "##ga": 5226,
      "droplets": 5227,
      "try": 5228,
      "optimisation": 5229,
      "2006": 5230,
      "rr": 5231,
      "subseteq": 5232,
      "##gram": 5233,
      "39": 5234,
      "##05": 5235,
      "hodge": 5236,
      "interpretations": 5237,
      "##ection": 5238,
      "001": 5239,
      "characterizations": 5240,
      "refine": 5241,
      "incidence": 5242,
      "frustrated": 5243,
      "bayes": 5244,
      "autoregressive": 5245,
      "##ph": 5246,
      "chapter": 5247,
      "spectrometer": 5248,
      "processed": 5249,
      "living": 5250,
      "statement": 5251,
      "thermoelectric": 5252,
      "##ken": 5253,
      "centralized": 5254,
      "ingredient": 5255,
      "option": 5256,
      "virial": 5257,
      "aforementioned": 5258,
      "emphasize": 5259,
      "sf": 5260,
      "periodically": 5261,
      "##sions": 5262,
      "shadow": 5263,
      "##nch": 5264,
      "attractor": 5265,
      "correctness": 5266,
      "realizing": 5267,
      "##iring": 5268,
      "gaas": 5269,
      "borel": 5270,
      "##ulations": 5271,
      "practitioners": 5272,
      "compositions": 5273,
      "mod": 5274,
      "epochs": 5275,
      "say": 5276,
      "##fi": 5277,
      "biology": 5278,
      "dimer": 5279,
      "leptonic": 5280,
      "fragments": 5281,
      "##nds": 5282,
      "chromatic": 5283,
      "gradually": 5284,
      "polymers": 5285,
      "accordingly": 5286,
      "##lab": 5287,
      "##96": 5288,
      "naive": 5289,
      "##tering": 5290,
      "##graphic": 5291,
      "galerkin": 5292,
      "##uted": 5293,
      "##lax": 5294,
      "##fa": 5295,
      "##ility": 5296,
      "##stream": 5297,
      "vorticity": 5298,
      "behave": 5299,
      "##ntial": 5300,
      "behavioral": 5301,
      "##fiability": 5302,
      "id": 5303,
      "##sc": 5304,
      "manufacturing": 5305,
      "correcting": 5306,
      "scalars": 5307,
      "##space": 5308,
      "nlo": 5309,
      "##mit": 5310,
      "exterior": 5311,
      "rigorously": 5312,
      "distinguishing": 5313,
      "format": 5314,
      "fr": 5315,
      "pathways": 5316,
      "##13": 5317,
      "looking": 5318,
      "adsorption": 5319,
      "##11": 5320,
      "thorough": 5321,
      "city": 5322,
      "perfectly": 5323,
      "2s": 5324,
      "deals": 5325,
      "flip": 5326,
      "##ncies": 5327,
      "depletion": 5328,
      "##ump": 5329,
      "creates": 5330,
      "nmr": 5331,
      "cones": 5332,
      "2005": 5333,
      "logistic": 5334,
      "substitution": 5335,
      "repulsion": 5336,
      "csi": 5337,
      "affecting": 5338,
      "##ther": 5339,
      "accumulation": 5340,
      "exhibited": 5341,
      "##40": 5342,
      "47": 5343,
      "##km": 5344,
      "squeezed": 5345,
      "ladder": 5346,
      "##ibration": 5347,
      "page": 5348,
      "cuprates": 5349,
      "ends": 5350,
      "##bilities": 5351,
      "##side": 5352,
      "analogues": 5353,
      "linking": 5354,
      "brings": 5355,
      "stopping": 5356,
      "constituent": 5357,
      "driver": 5358,
      "nucleosynthesis": 5359,
      "inherently": 5360,
      "lot": 5361,
      "empty": 5362,
      "marked": 5363,
      "stabilized": 5364,
      "##word": 5365,
      "somewhat": 5366,
      "##lis": 5367,
      "electronics": 5368,
      "##oth": 5369,
      "visibility": 5370,
      "##ored": 5371,
      "organized": 5372,
      "revisited": 5373,
      "changed": 5374,
      "##volution": 5375,
      "easier": 5376,
      "##utive": 5377,
      "##ucibility": 5378,
      "countable": 5379,
      "##pective": 5380,
      "##tr": 5381,
      "chirality": 5382,
      "schur": 5383,
      "##uple": 5384,
      "##time": 5385,
      "academic": 5386,
      "alice": 5387,
      "analytics": 5388,
      "refer": 5389,
      "melting": 5390,
      "photoemission": 5391,
      "jumps": 5392,
      "regard": 5393,
      "attached": 5394,
      "soc": 5395,
      "##vable": 5396,
      "freely": 5397,
      "adaptively": 5398,
      "reductions": 5399,
      "propagate": 5400,
      "virgo": 5401,
      "hyperfine": 5402,
      "##mi": 5403,
      "lastly": 5404,
      "##nate": 5405,
      "cardinality": 5406,
      "protoplanetary": 5407,
      "heuristics": 5408,
      "continual": 5409,
      "tracks": 5410,
      "##cr": 5411,
      "initialization": 5412,
      "interlayer": 5413,
      "boosting": 5414,
      "pseudoscalar": 5415,
      "##inting": 5416,
      "paired": 5417,
      "usefulness": 5418,
      "bang": 5419,
      "##uation": 5420,
      "floquet": 5421,
      "loading": 5422,
      "kolmogorov": 5423,
      "##ucible": 5424,
      "lab": 5425,
      "stat": 5426,
      "generically": 5427,
      "rotations": 5428,
      "renormalized": 5429,
      "##gulated": 5430,
      "ph": 5431,
      "functor": 5432,
      "quad": 5433,
      "##cy": 5434,
      "pd": 5435,
      "nanotubes": 5436,
      "##02": 5437,
      "##bert": 5438,
      "##itz": 5439,
      "assessed": 5440,
      "concern": 5441,
      "##ories": 5442,
      "leaves": 5443,
      "06": 5444,
      "##ath": 5445,
      "##dule": 5446,
      "neq": 5447,
      "skyrmion": 5448,
      "##odes": 5449,
      "outliers": 5450,
      "magnetically": 5451,
      "encountered": 5452,
      "distributional": 5453,
      "collisional": 5454,
      "terahertz": 5455,
      "costly": 5456,
      "reproducing": 5457,
      "cherenkov": 5458,
      "##zed": 5459,
      "41": 5460,
      "##arrow": 5461,
      "bec": 5462,
      "member": 5463,
      "shaping": 5464,
      "explainable": 5465,
      "##former": 5466,
      "dictionary": 5467,
      "reactive": 5468,
      "absorbing": 5469,
      "talk": 5470,
      "suppress": 5471,
      "##rum": 5472,
      "ginzburg": 5473,
      "signs": 5474,
      "120": 5475,
      "notable": 5476,
      "multilayer": 5477,
      "subtle": 5478,
      "facilities": 5479,
      "##rting": 5480,
      "##po": 5481,
      "belonging": 5482,
      "squeezing": 5483,
      "continued": 5484,
      "placement": 5485,
      "87": 5486,
      "cd": 5487,
      "membership": 5488,
      "upsilon": 5489,
      "outperforming": 5490,
      "inertia": 5491,
      "none": 5492,
      "assumes": 5493,
      "rs": 5494,
      "orientations": 5495,
      "perovskite": 5496,
      "resp": 5497,
      "shells": 5498,
      "predominantly": 5499,
      "dilute": 5500,
      "##wer": 5501,
      "toy": 5502,
      "belongs": 5503,
      "##nel": 5504,
      "2004": 5505,
      "hypergraph": 5506,
      "##03": 5507,
      "76": 5508,
      "orbifold": 5509,
      "speedup": 5510,
      "specifications": 5511,
      "##lands": 5512,
      "attraction": 5513,
      "poles": 5514,
      "excluded": 5515,
      "iterated": 5516,
      "##18": 5517,
      "##vasive": 5518,
      "##spheric": 5519,
      "pdf": 5520,
      "##ones": 5521,
      "##otic": 5522,
      "intervention": 5523,
      "resilience": 5524,
      "stiffness": 5525,
      "lagrange": 5526,
      "##hm": 5527,
      "ligo": 5528,
      "drastically": 5529,
      "tevatron": 5530,
      "metallicities": 5531,
      "##cordance": 5532,
      "causing": 5533,
      "interferometric": 5534,
      "minimax": 5535,
      "##nces": 5536,
      "##ionic": 5537,
      "##tube": 5538,
      "##lar": 5539,
      "mismatch": 5540,
      "##dp": 5541,
      "debris": 5542,
      "favorable": 5543,
      "##97": 5544,
      "traditionally": 5545,
      "exceed": 5546,
      "deduced": 5547,
      "clip": 5548,
      "histories": 5549,
      "magnets": 5550,
      "st": 5551,
      "hypersurface": 5552,
      "relates": 5553,
      "north": 5554,
      "drawing": 5555,
      "incoherent": 5556,
      "live": 5557,
      "rectangular": 5558,
      "lifshitz": 5559,
      "##head": 5560,
      "##ured": 5561,
      "upcoming": 5562,
      "hysteresis": 5563,
      "receive": 5564,
      "beginning": 5565,
      "convenient": 5566,
      "##gment": 5567,
      "sed": 5568,
      "electrodes": 5569,
      "##ucture": 5570,
      "facts": 5571,
      "gpa": 5572,
      "convergent": 5573,
      "##active": 5574,
      "##body": 5575,
      "reconstructing": 5576,
      "stations": 5577,
      "proxy": 5578,
      "rg": 5579,
      "##ats": 5580,
      "transferred": 5581,
      "##ises": 5582,
      "indicated": 5583,
      "##essing": 5584,
      "eddington": 5585,
      "folding": 5586,
      "##opic": 5587,
      "gapped": 5588,
      "microlensing": 5589,
      "acquire": 5590,
      "encryption": 5591,
      "68": 5592,
      "commuting": 5593,
      "##wa": 5594,
      "##book": 5595,
      "biomedical": 5596,
      "portfolio": 5597,
      "##encies": 5598,
      "##llation": 5599,
      "gc": 5600,
      "scans": 5601,
      "ill": 5602,
      "##essed": 5603,
      "##fv": 5604,
      "middle": 5605,
      "replace": 5606,
      "promote": 5607,
      "##rators": 5608,
      "##ray": 5609,
      "fake": 5610,
      "##df": 5611,
      "##01": 5612,
      "##mitted": 5613,
      "tolerant": 5614,
      "##lt": 5615,
      "arrangement": 5616,
      "##dic": 5617,
      "fabricated": 5618,
      "mutually": 5619,
      "##ini": 5620,
      "polytopes": 5621,
      "##acy": 5622,
      "writing": 5623,
      "##wards": 5624,
      "unless": 5625,
      "ballistic": 5626,
      "##let": 5627,
      "instructions": 5628,
      "replacing": 5629,
      "proposing": 5630,
      "hecke": 5631,
      "nanowires": 5632,
      "covariates": 5633,
      "operatorname": 5634,
      "##box": 5635,
      "2k": 5636,
      "##ructure": 5637,
      "expressive": 5638,
      "pca": 5639,
      "accelerators": 5640,
      "compactification": 5641,
      "##ense": 5642,
      "said": 5643,
      "associative": 5644,
      "vulnerabilities": 5645,
      "concave": 5646,
      "vanish": 5647,
      "##oms": 5648,
      "##titude": 5649,
      "reading": 5650,
      "##cluster": 5651,
      "##sal": 5652,
      "##aft": 5653,
      "##cence": 5654,
      "fairly": 5655,
      "sterile": 5656,
      "intricate": 5657,
      "exposed": 5658,
      "fill": 5659,
      "##rium": 5660,
      "undergoes": 5661,
      "prone": 5662,
      "enrichment": 5663,
      "##oy": 5664,
      "comprises": 5665,
      "spike": 5666,
      "isotopes": 5667,
      "eliminate": 5668,
      "incorrect": 5669,
      "##nge": 5670,
      "##iodic": 5671,
      "##thing": 5672,
      "##ulum": 5673,
      "quartic": 5674,
      "##omy": 5675,
      "##uclear": 5676,
      "spacecraft": 5677,
      "frequent": 5678,
      "lifetimes": 5679,
      "confirming": 5680,
      "draw": 5681,
      "ag": 5682,
      "##jective": 5683,
      "denotes": 5684,
      "sin": 5685,
      "cartan": 5686,
      "##di": 5687,
      "chatgpt": 5688,
      "##ime": 5689,
      "killing": 5690,
      "##rator": 5691,
      "lost": 5692,
      "##ded": 5693,
      "##nomy": 5694,
      "##ained": 5695,
      "recovering": 5696,
      "diagnostics": 5697,
      "nir": 5698,
      "devise": 5699,
      "seconds": 5700,
      "hypergeometric": 5701,
      "induction": 5702,
      "##ich": 5703,
      "glasses": 5704,
      "pressures": 5705,
      "pretraining": 5706,
      "bonds": 5707,
      "impressive": 5708,
      "instrumental": 5709,
      "amenable": 5710,
      "movements": 5711,
      "shall": 5712,
      "##lator": 5713,
      "##eed": 5714,
      "corollary": 5715,
      "impedance": 5716,
      "proximal": 5717,
      "zeeman": 5718,
      "sliding": 5719,
      "copies": 5720,
      "##gp": 5721,
      "irs": 5722,
      "stereo": 5723,
      "parametrized": 5724,
      "pilot": 5725,
      "uncover": 5726,
      "dephasing": 5727,
      "harmonics": 5728,
      "seismic": 5729,
      "##oto": 5730,
      "divergences": 5731,
      "threat": 5732,
      "en": 5733,
      "denoted": 5734,
      "signed": 5735,
      "vec": 5736,
      "vulnerability": 5737,
      "##asing": 5738,
      "##hr": 5739,
      "##iating": 5740,
      "avoids": 5741,
      "fluctuating": 5742,
      "minutes": 5743,
      "spurious": 5744,
      "originate": 5745,
      "weighting": 5746,
      "equiv": 5747,
      "imposing": 5748,
      "mini": 5749,
      "rewards": 5750,
      "facilitating": 5751,
      "##lov": 5752,
      "97": 5753,
      "lightest": 5754,
      "orbiting": 5755,
      "isothermal": 5756,
      "motor": 5757,
      "builds": 5758,
      "eos": 5759,
      "archival": 5760,
      "unresolved": 5761,
      "hundred": 5762,
      "##ply": 5763,
      "intersections": 5764,
      "##ites": 5765,
      "regulation": 5766,
      "##lization": 5767,
      "twice": 5768,
      "conflict": 5769,
      "##zation": 5770,
      "disruption": 5771,
      "lacking": 5772,
      "##imated": 5773,
      "minimally": 5774,
      "plans": 5775,
      "##mes": 5776,
      "codimension": 5777,
      "slice": 5778,
      "pl": 5779,
      "##ull": 5780,
      "appropriately": 5781,
      "pinning": 5782,
      "jordan": 5783,
      "southern": 5784,
      "abstraction": 5785,
      "##tle": 5786,
      "##ql": 5787,
      "axes": 5788,
      "lorentzian": 5789,
      "redundancy": 5790,
      "quench": 5791,
      "anisotropies": 5792,
      "psr": 5793,
      "inflaton": 5794,
      "name": 5795,
      "origins": 5796,
      "io": 5797,
      "dim": 5798,
      "##tuning": 5799,
      "approaching": 5800,
      "awareness": 5801,
      "straight": 5802,
      "thermally": 5803,
      "adversary": 5804,
      "meshes": 5805,
      "##ctor": 5806,
      "##cp": 5807,
      "society": 5808,
      "##fer": 5809,
      "tables": 5810,
      "clifford": 5811,
      "##production": 5812,
      "serious": 5813,
      "2003": 5814,
      "concurrent": 5815,
      "giants": 5816,
      "##rts": 5817,
      "imperfect": 5818,
      "predictor": 5819,
      "vacua": 5820,
      "workflow": 5821,
      "##lay": 5822,
      "##site": 5823,
      "fixing": 5824,
      "cuts": 5825,
      "layout": 5826,
      "##vy": 5827,
      "##ption": 5828,
      "08": 5829,
      "mcmc": 5830,
      "##ropic": 5831,
      "entropic": 5832,
      "masked": 5833,
      "rashba": 5834,
      "suffers": 5835,
      "death": 5836,
      "gans": 5837,
      "jwst": 5838,
      "##olution": 5839,
      "gapless": 5840,
      "genuine": 5841,
      "##formation": 5842,
      "nb": 5843,
      "expanded": 5844,
      "monotonicity": 5845,
      "starts": 5846,
      "susceptible": 5847,
      "authentication": 5848,
      "sota": 5849,
      "exceeding": 5850,
      "parsing": 5851,
      "portion": 5852,
      "##prise": 5853,
      "parties": 5854,
      "sciences": 5855,
      "ingredients": 5856,
      "pr": 5857,
      "interpreting": 5858,
      "slower": 5859,
      "##ntal": 5860,
      "cooper": 5861,
      "seek": 5862,
      "masks": 5863,
      "##star": 5864,
      "gaseous": 5865,
      "ap": 5866,
      "widetilde": 5867,
      "copy": 5868,
      "2023": 5869,
      "confining": 5870,
      "wild": 5871,
      "critically": 5872,
      "82": 5873,
      "assist": 5874,
      "blood": 5875,
      "invertible": 5876,
      "penetration": 5877,
      "afm": 5878,
      "cat": 5879,
      "obtains": 5880,
      "raised": 5881,
      "constructive": 5882,
      "di": 5883,
      "saturated": 5884,
      "infection": 5885,
      "struggle": 5886,
      "##east": 5887,
      "##ound": 5888,
      "electricity": 5889,
      "intrinsically": 5890,
      "birth": 5891,
      "constitutes": 5892,
      "sb": 5893,
      "52": 5894,
      "reflects": 5895,
      "impose": 5896,
      "redundant": 5897,
      "contributing": 5898,
      "##aled": 5899,
      "honeycomb": 5900,
      "transmitter": 5901,
      "##atomic": 5902,
      "demonstrations": 5903,
      "gp": 5904,
      "46": 5905,
      "haloes": 5906,
      "guidelines": 5907,
      "admissible": 5908,
      "satisfactory": 5909,
      "##correlation": 5910,
      "neglected": 5911,
      "transients": 5912,
      "##ris": 5913,
      "subsystems": 5914,
      "exciting": 5915,
      "##06": 5916,
      "perhaps": 5917,
      "##mber": 5918,
      "bernoulli": 5919,
      "automation": 5920,
      "treating": 5921,
      "discrepancies": 5922,
      "##ama": 5923,
      "algebraically": 5924,
      "##urn": 5925,
      "mimic": 5926,
      "##ocate": 5927,
      "multipliers": 5928,
      "coded": 5929,
      "adequate": 5930,
      "textures": 5931,
      "tropical": 5932,
      "updating": 5933,
      "gromov": 5934,
      "##95": 5935,
      "resulted": 5936,
      "##force": 5937,
      "110": 5938,
      "dominating": 5939,
      "nebulae": 5940,
      "alloy": 5941,
      "##ologies": 5942,
      "processor": 5943,
      "missions": 5944,
      "##gap": 5945,
      "practically": 5946,
      "interventions": 5947,
      "##rn": 5948,
      "##gen": 5949,
      "drives": 5950,
      "##ops": 5951,
      "poly": 5952,
      "graviton": 5953,
      "##aw": 5954,
      "##raded": 5955,
      "##ep": 5956,
      "##rse": 5957,
      "isolation": 5958,
      "07": 5959,
      "favor": 5960,
      "5d": 5961,
      "parameterization": 5962,
      "##down": 5963,
      "##33": 5964,
      "##fied": 5965,
      "morse": 5966,
      "decoupled": 5967,
      "google": 5968,
      "happens": 5969,
      "tori": 5970,
      "shower": 5971,
      "##kes": 5972,
      "##08": 5973,
      "accepted": 5974,
      "##lution": 5975,
      "file": 5976,
      "subjective": 5977,
      "ood": 5978,
      "manifest": 5979,
      "abilities": 5980,
      "cern": 5981,
      "prescription": 5982,
      "##load": 5983,
      "mach": 5984,
      "progenitors": 5985,
      "stacked": 5986,
      "##crystalline": 5987,
      "##sr": 5988,
      "cities": 5989,
      "nonperturbative": 5990,
      "neutrons": 5991,
      "comments": 5992,
      "mbox": 5993,
      "echo": 5994,
      "##class": 5995,
      "forced": 5996,
      "subjected": 5997,
      "transiting": 5998,
      "brightest": 5999,
      "##gies": 6000,
      "##plane": 6001,
      "##yi": 6002,
      "##yon": 6003,
      "lat": 6004,
      "spiking": 6005,
      "##vitation": 6006,
      "violations": 6007,
      "store": 6008,
      "waveguides": 6009,
      "computes": 6010,
      "conversational": 6011,
      "occupation": 6012,
      "dusty": 6013,
      "car": 6014,
      "pooling": 6015,
      "unstructured": 6016,
      "##hedra": 6017,
      "balls": 6018,
      "accommodate": 6019,
      "forbidden": 6020,
      "transitive": 6021,
      "boron": 6022,
      "characterizes": 6023,
      "nanostructures": 6024,
      "mitigating": 6025,
      "refractive": 6026,
      "wires": 6027,
      "strip": 6028,
      "boundedness": 6029,
      "##ster": 6030,
      "contents": 6031,
      "ks": 6032,
      "##table": 6033,
      "tradeoff": 6034,
      "differentiation": 6035,
      "##pace": 6036,
      "mathematically": 6037,
      "forecasts": 6038,
      "##sk": 6039,
      "dominance": 6040,
      "##vd": 6041,
      "feed": 6042,
      "ionizing": 6043,
      "##electric": 6044,
      "quiver": 6045,
      "##ctive": 6046,
      "thermalization": 6047,
      "boxes": 6048,
      "necessity": 6049,
      "##bing": 6050,
      "standards": 6051,
      "native": 6052,
      "##nesses": 6053,
      "teaching": 6054,
      "scoring": 6055,
      "neuron": 6056,
      "67": 6057,
      "fracture": 6058,
      "striking": 6059,
      "##doped": 6060,
      "proportion": 6061,
      "nova": 6062,
      "##ifold": 6063,
      "##print": 6064,
      "##tate": 6065,
      "##gh": 6066,
      "##ips": 6067,
      "dg": 6068,
      "##graphy": 6069,
      "##lu": 6070,
      "flag": 6071,
      "sgd": 6072,
      "abridged": 6073,
      "statements": 6074,
      "##olate": 6075,
      "54": 6076,
      "phantom": 6077,
      "ocean": 6078,
      "computable": 6079,
      "ask": 6080,
      "pointwise": 6081,
      "focal": 6082,
      "prompting": 6083,
      "reciprocal": 6084,
      "##critical": 6085,
      "setups": 6086,
      "treatments": 6087,
      "##bb": 6088,
      "disturbances": 6089,
      "##heating": 6090,
      "##ub": 6091,
      "equivalently": 6092,
      "##ogenous": 6093,
      "qa": 6094,
      "##ule": 6095,
      "##ny": 6096,
      "preservation": 6097,
      "51": 6098,
      "crowd": 6099,
      "recognize": 6100,
      "insensitive": 6101,
      "quasiparticles": 6102,
      "##so": 6103,
      "afterglow": 6104,
      "positioning": 6105,
      "rnn": 6106,
      "stratified": 6107,
      "decomposed": 6108,
      "drops": 6109,
      "##ied": 6110,
      "##lied": 6111,
      "rms": 6112,
      "dt": 6113,
      "##eter": 6114,
      "food": 6115,
      "evy": 6116,
      "##uv": 6117,
      "maintenance": 6118,
      "##second": 6119,
      "##verging": 6120,
      "subsystem": 6121,
      "250": 6122,
      "epitaxial": 6123,
      "mw": 6124,
      "originates": 6125,
      "separations": 6126,
      "strategic": 6127,
      "##afted": 6128,
      "legal": 6129,
      "##surface": 6130,
      "ablation": 6131,
      "##04": 6132,
      "mutation": 6133,
      "##itic": 6134,
      "synchronous": 6135,
      "##imation": 6136,
      "##isms": 6137,
      "92": 6138,
      "compressive": 6139,
      "implicitly": 6140,
      "book": 6141,
      "cube": 6142,
      "injected": 6143,
      "##ages": 6144,
      "##sure": 6145,
      "hop": 6146,
      "##quarks": 6147,
      "permits": 6148,
      "nanowire": 6149,
      "imagery": 6150,
      "##iance": 6151,
      "remained": 6152,
      "unexplored": 6153,
      "foundations": 6154,
      "tiny": 6155,
      "##stable": 6156,
      "ultrasound": 6157,
      "polytope": 6158,
      "conformally": 6159,
      "##bi": 6160,
      "controllability": 6161,
      "##ores": 6162,
      "recognized": 6163,
      "behaves": 6164,
      "political": 6165,
      "averages": 6166,
      "quotients": 6167,
      "gpus": 6168,
      "##nsive": 6169,
      "##aining": 6170,
      "vlt": 6171,
      "multipartite": 6172,
      "electrode": 6173,
      "lasso": 6174,
      "##urs": 6175,
      "gcs": 6176,
      "##brated": 6177,
      "quadrature": 6178,
      "scientists": 6179,
      "##ew": 6180,
      "nonconvex": 6181,
      "2002": 6182,
      "bl": 6183,
      "cartesian": 6184,
      "stop": 6185,
      "##ci": 6186,
      "antiferromagnet": 6187,
      "salient": 6188,
      "##ern": 6189,
      "##fy": 6190,
      "94": 6191,
      "##sn": 6192,
      "pareto": 6193,
      "##lies": 6194,
      "lensed": 6195,
      "##uous": 6196,
      "cifar": 6197,
      "##lling": 6198,
      "multiplier": 6199,
      "nets": 6200,
      "processors": 6201,
      "elucidate": 6202,
      "burning": 6203,
      "pointing": 6204,
      "eclipsing": 6205,
      "2001": 6206,
      "row": 6207,
      "congestion": 6208,
      "goldstone": 6209,
      "steering": 6210,
      "##imals": 6211,
      "magnet": 6212,
      "##agonal": 6213,
      "##nium": 6214,
      "fundamentally": 6215,
      "bandit": 6216,
      "aging": 6217,
      "diagonalization": 6218,
      "locus": 6219,
      "plant": 6220,
      "servers": 6221,
      "endowed": 6222,
      "reconfigurable": 6223,
      "##beck": 6224,
      "boldsymbol": 6225,
      "held": 6226,
      "##rch": 6227,
      "engines": 6228,
      "##32": 6229,
      "brillouin": 6230,
      "fix": 6231,
      "warped": 6232,
      "hr": 6233,
      "staggered": 6234,
      "##ptive": 6235,
      "##22": 6236,
      "guiding": 6237,
      "places": 6238,
      "##eck": 6239,
      "sides": 6240,
      "experienced": 6241,
      "months": 6242,
      "##unction": 6243,
      "gets": 6244,
      "oplus": 6245,
      "trials": 6246,
      "obvious": 6247,
      "steep": 6248,
      "##wavelength": 6249,
      "opposed": 6250,
      "##rk": 6251,
      "associations": 6252,
      "##bn": 6253,
      "roll": 6254,
      "libraries": 6255,
      "##plified": 6256,
      "abundant": 6257,
      "coincidence": 6258,
      "##cg": 6259,
      "cues": 6260,
      "cusp": 6261,
      "synthesize": 6262,
      "hypergraphs": 6263,
      "spots": 6264,
      "##ents": 6265,
      "##tals": 6266,
      "associate": 6267,
      "sheets": 6268,
      "##21": 6269,
      "strongest": 6270,
      "advection": 6271,
      "##dd": 6272,
      "her": 6273,
      "nitride": 6274,
      "##gonal": 6275,
      "cdw": 6276,
      "wells": 6277,
      "##algebras": 6278,
      "##ique": 6279,
      "differently": 6280,
      "ci": 6281,
      "acceptance": 6282,
      "dissociation": 6283,
      "bare": 6284,
      "decide": 6285,
      "dinger": 6286,
      "##ace": 6287,
      "ferromagnet": 6288,
      "##minator": 6289,
      "##pp": 6290,
      "##chi": 6291,
      "63": 6292,
      "unconstrained": 6293,
      "plastic": 6294,
      "suitably": 6295,
      "inverted": 6296,
      "sudden": 6297,
      "walker": 6298,
      "##bbons": 6299,
      "binomial": 6300,
      "##tti": 6301,
      "modest": 6302,
      "corpora": 6303,
      "counterfactual": 6304,
      "##cient": 6305,
      "53": 6306,
      "##ach": 6307,
      "##ulates": 6308,
      "job": 6309,
      "membranes": 6310,
      "fitness": 6311,
      "##fts": 6312,
      "##07": 6313,
      "unlikely": 6314,
      "voting": 6315,
      "subtraction": 6316,
      "wavefunction": 6317,
      "opacity": 6318,
      "inefficient": 6319,
      "58": 6320,
      "##kii": 6321,
      "gg": 6322,
      "perceptual": 6323,
      "converted": 6324,
      "crossed": 6325,
      "kagome": 6326,
      "schrodinger": 6327,
      "##ane": 6328,
      "inducing": 6329,
      "tolerance": 6330,
      "operates": 6331,
      "##pic": 6332,
      "##vation": 6333,
      "distinctive": 6334,
      "inferring": 6335,
      "home": 6336,
      "62": 6337,
      "decreased": 6338,
      "pathway": 6339,
      "translational": 6340,
      "rb": 6341,
      "##atory": 6342,
      "##ord": 6343,
      "88": 6344,
      "86": 6345,
      "##uit": 6346,
      "600": 6347,
      "##70": 6348,
      "##semble": 6349,
      "paradox": 6350,
      "teams": 6351,
      "##hat": 6352,
      "electro": 6353,
      "##ches": 6354,
      "##algebra": 6355,
      "functors": 6356,
      "kink": 6357,
      "nambu": 6358,
      "reasonably": 6359,
      "swarm": 6360,
      "fragment": 6361,
      "##ove": 6362,
      "recursion": 6363,
      "severely": 6364,
      "##ko": 6365,
      "showcase": 6366,
      "##scaling": 6367,
      "da": 6368,
      "prevalent": 6369,
      "tailed": 6370,
      "##fusion": 6371,
      "featuring": 6372,
      "asset": 6373,
      "modifying": 6374,
      "gauged": 6375,
      "seesaw": 6376,
      "cutting": 6377,
      "overfitting": 6378,
      "##angle": 6379,
      "immediate": 6380,
      "polariton": 6381,
      "diffractive": 6382,
      "dramatic": 6383,
      "##87": 6384,
      "roughness": 6385,
      "minimizes": 6386,
      "##rm": 6387,
      "##19": 6388,
      "##chemical": 6389,
      "k3": 6390,
      "##lattices": 6391,
      "superconformal": 6392,
      "##jan": 6393,
      "hessian": 6394,
      "avoidance": 6395,
      "fuel": 6396,
      "ontology": 6397,
      "immersed": 6398,
      "##imetry": 6399,
      "kalman": 6400,
      "adjusted": 6401,
      "century": 6402,
      "infinitesimal": 6403,
      "signaling": 6404,
      "pn": 6405,
      "##chromatic": 6406,
      "individually": 6407,
      "corner": 6408,
      "helpful": 6409,
      "hybridization": 6410,
      "lift": 6411,
      "nonlinearities": 6412,
      "##ytic": 6413,
      "custom": 6414,
      "kaon": 6415,
      "##lled": 6416,
      "##ckling": 6417,
      "tubes": 6418,
      "##rational": 6419,
      "macro": 6420,
      "lte": 6421,
      "##23": 6422,
      "##ibly": 6423,
      "leaving": 6424,
      "##51": 6425,
      "bonnet": 6426,
      "divisor": 6427,
      "sat": 6428,
      "windows": 6429,
      "##zable": 6430,
      "lp": 6431,
      "##cies": 6432,
      "##itt": 6433,
      "##pi": 6434,
      "##shing": 6435,
      "pa": 6436,
      "imf": 6437,
      "convert": 6438,
      "##ntation": 6439,
      "innovation": 6440,
      "implied": 6441,
      "##itability": 6442,
      "wd": 6443,
      "obscured": 6444,
      "ip": 6445,
      "##spot": 6446,
      "eccentric": 6447,
      "incoming": 6448,
      "##dity": 6449,
      "gps": 6450,
      "deposited": 6451,
      "72": 6452,
      "recoil": 6453,
      "##ams": 6454,
      "93": 6455,
      "malware": 6456,
      "classically": 6457,
      "friendly": 6458,
      "polarisation": 6459,
      "2m": 6460,
      "maser": 6461,
      "##hi": 6462,
      "caching": 6463,
      "segregation": 6464,
      "##ctors": 6465,
      "##cu": 6466,
      "blazars": 6467,
      "broadcast": 6468,
      "brought": 6469,
      "vi": 6470,
      "plates": 6471,
      "##tte": 6472,
      "##potential": 6473,
      "adjustment": 6474,
      "companies": 6475,
      "started": 6476,
      "##arning": 6477,
      "vocabulary": 6478,
      "##che": 6479,
      "##erative": 6480,
      "##dium": 6481,
      "##ands": 6482,
      "workshop": 6483,
      "##aries": 6484,
      "broadly": 6485,
      "sic": 6486,
      "manipulate": 6487,
      "arcsec": 6488,
      "accounted": 6489,
      "##80": 6490,
      "##qcd": 6491,
      "##ole": 6492,
      "##work": 6493,
      "##ending": 6494,
      "simplify": 6495,
      "cent": 6496,
      "isometric": 6497,
      "lane": 6498,
      "57": 6499,
      "freeze": 6500,
      "jacobian": 6501,
      "lenses": 6502,
      "##cate": 6503,
      "chance": 6504,
      "##ulators": 6505,
      "nc": 6506,
      "jones": 6507,
      "observers": 6508,
      "##ox": 6509,
      "kitaev": 6510,
      "md": 6511,
      "fission": 6512,
      "peaked": 6513,
      "calls": 6514,
      "compensation": 6515,
      "irrelevant": 6516,
      "##sian": 6517,
      "##ination": 6518,
      "sloan": 6519,
      "vr": 6520,
      "##ept": 6521,
      "photospheric": 6522,
      "smc": 6523,
      "##erate": 6524,
      "fs": 6525,
      "arcs": 6526,
      "##ura": 6527,
      "acceptable": 6528,
      "campaign": 6529,
      "cme": 6530,
      "subgraphs": 6531,
      "collecting": 6532,
      "forgetting": 6533,
      "mo": 6534,
      "bidirectional": 6535,
      "satisfaction": 6536,
      "##25": 6537,
      "divide": 6538,
      "activated": 6539,
      "analysing": 6540,
      "##aving": 6541,
      "fokker": 6542,
      "harvesting": 6543,
      "submanifolds": 6544,
      "generalisation": 6545,
      "##uary": 6546,
      "divergent": 6547,
      "##mission": 6548,
      "disturbance": 6549,
      "##composable": 6550,
      "characterisation": 6551,
      "discovering": 6552,
      "##dv": 6553,
      "occurred": 6554,
      "herschel": 6555,
      "##lish": 6556,
      "skyrmions": 6557,
      "##nar": 6558,
      "##ean": 6559,
      "##gn": 6560,
      "primal": 6561,
      "gluons": 6562,
      "templates": 6563,
      "84": 6564,
      "monocular": 6565,
      "tilt": 6566,
      "solvent": 6567,
      "##noid": 6568,
      "quiet": 6569,
      "contour": 6570,
      "leave": 6571,
      "##cture": 6572,
      "##oa": 6573,
      "##ail": 6574,
      "specify": 6575,
      "##tries": 6576,
      "bessel": 6577,
      "visually": 6578,
      "waveforms": 6579,
      "##dules": 6580,
      "##nstein": 6581,
      "linearity": 6582,
      "nominal": 6583,
      "deliver": 6584,
      "encodes": 6585,
      "semimetal": 6586,
      "comprehension": 6587,
      "##ohn": 6588,
      "##omotion": 6589,
      "##osition": 6590,
      "##lon": 6591,
      "m31": 6592,
      "novelty": 6593,
      "conditioning": 6594,
      "generality": 6595,
      "##dt": 6596,
      "##oelastic": 6597,
      "cdots": 6598,
      "monopoles": 6599,
      "##gating": 6600,
      "constructs": 6601,
      "##ifying": 6602,
      "famous": 6603,
      "baxter": 6604,
      "##rable": 6605,
      "nucleons": 6606,
      "##rations": 6607,
      "engineered": 6608,
      "zones": 6609,
      "elusive": 6610,
      "traced": 6611,
      "78": 6612,
      "equatorial": 6613,
      "hera": 6614,
      "dimensionless": 6615,
      "##passes": 6616,
      "##ception": 6617,
      "reactor": 6618,
      "##90": 6619,
      "uavs": 6620,
      "inspection": 6621,
      "##ux": 6622,
      "mock": 6623,
      "iib": 6624,
      "cf": 6625,
      "wherein": 6626,
      "##min": 6627,
      "bp": 6628,
      "cayley": 6629,
      "instantons": 6630,
      "coalescence": 6631,
      "adjusting": 6632,
      "kac": 6633,
      "##grid": 6634,
      "##opy": 6635,
      "clique": 6636,
      "deuteron": 6637,
      "##sov": 6638,
      "encounter": 6639,
      "##cript": 6640,
      "smoothly": 6641,
      "##09": 6642,
      "undergoing": 6643,
      "contracts": 6644,
      "thoroughly": 6645,
      "##rman": 6646,
      "elimination": 6647,
      "##hedron": 6648,
      "completed": 6649,
      "downlink": 6650,
      "familiar": 6651,
      "immediately": 6652,
      "moderately": 6653,
      "##bt": 6654,
      "##lp": 6655,
      "##oked": 6656,
      "derivations": 6657,
      "ramsey": 6658,
      "substructure": 6659,
      "attractors": 6660,
      "pivotal": 6661,
      "1s": 6662,
      "lifting": 6663,
      "hbar": 6664,
      "lebesgue": 6665,
      "preprocessing": 6666,
      "traps": 6667,
      "mental": 6668,
      "frozen": 6669,
      "discussing": 6670,
      "grounded": 6671,
      "ejection": 6672,
      "astrometric": 6673,
      "er": 6674,
      "syntactic": 6675,
      "semidefinite": 6676,
      "77": 6677,
      "09": 6678,
      "##cavity": 6679,
      "encoders": 6680,
      "sequentially": 6681,
      "slam": 6682,
      "enhancements": 6683,
      "want": 6684,
      "herein": 6685,
      "mt": 6686,
      "##rative": 6687,
      "generations": 6688,
      "millions": 6689,
      "outstanding": 6690,
      "planned": 6691,
      "rooted": 6692,
      "suboptimal": 6693,
      "##city": 6694,
      "##folds": 6695,
      "labelled": 6696,
      "##valence": 6697,
      "##onal": 6698,
      "distorted": 6699,
      "##lished": 6700,
      "sketch": 6701,
      "af": 6702,
      "nd": 6703,
      "83": 6704,
      "stripe": 6705,
      "##low": 6706,
      "##omorphism": 6707,
      "investment": 6708,
      "##ann": 6709,
      "##surance": 6710,
      "cryogenic": 6711,
      "##rphism": 6712,
      "##uth": 6713,
      "##35": 6714,
      "des": 6715,
      "doubling": 6716,
      "examination": 6717,
      "deeply": 6718,
      "intergalactic": 6719,
      "resistive": 6720,
      "temporally": 6721,
      "cup": 6722,
      "##uated": 6723,
      "##fl": 6724,
      "entropies": 6725,
      "##grams": 6726,
      "unifying": 6727,
      "cohen": 6728,
      "##uator": 6729,
      "pions": 6730,
      "correlate": 6731,
      "ode": 6732,
      "##ula": 6733,
      "##polating": 6734,
      "##rous": 6735,
      "mmwave": 6736,
      "dislocation": 6737,
      "vibration": 6738,
      "taxonomy": 6739,
      "descriptors": 6740,
      "imbalanced": 6741,
      "##inance": 6742,
      "asteroid": 6743,
      "ma": 6744,
      "##onomic": 6745,
      "dr": 6746,
      "targeting": 6747,
      "puzzle": 6748,
      "repair": 6749,
      "floating": 6750,
      "millisecond": 6751,
      "##ocal": 6752,
      "compares": 6753,
      "91": 6754,
      "threats": 6755,
      "negatively": 6756,
      "##iological": 6757,
      "##urable": 6758,
      "##sembling": 6759,
      "residue": 6760,
      "##parability": 6761,
      "cn": 6762,
      "wealth": 6763,
      "provably": 6764,
      "predictors": 6765,
      "##curacies": 6766,
      "electrically": 6767,
      "extrinsic": 6768,
      "wormhole": 6769,
      "2p": 6770,
      "adjust": 6771,
      "syst": 6772,
      "##ingly": 6773,
      "frustration": 6774,
      "workers": 6775,
      "##ifier": 6776,
      "##mar": 6777,
      "##ously": 6778,
      "##bling": 6779,
      "##ules": 6780,
      "##tching": 6781,
      "positively": 6782,
      "##dynamics": 6783,
      "##ek": 6784,
      "##ona": 6785,
      "##iptic": 6786,
      "pedestrian": 6787,
      "##48": 6788,
      "##rov": 6789,
      "suppose": 6790,
      "##ctic": 6791,
      "actively": 6792,
      "bogoliubov": 6793,
      "icecube": 6794,
      "transaction": 6795,
      "noises": 6796,
      "##light": 6797,
      "hierarchies": 6798,
      "mix": 6799,
      "##ject": 6800,
      "sine": 6801,
      "##oning": 6802,
      "66": 6803,
      "absorbed": 6804,
      "surgery": 6805,
      "##cial": 6806,
      "rarely": 6807,
      "hadamard": 6808,
      "##obe": 6809,
      "##ndered": 6810,
      "catastrophic": 6811,
      "files": 6812,
      "##fm": 6813,
      "lisa": 6814,
      "pipelines": 6815,
      "##issner": 6816,
      "aggregates": 6817,
      "customer": 6818,
      "braid": 6819,
      "fifth": 6820,
      "undirected": 6821,
      "requests": 6822,
      "um": 6823,
      "diffeomorphisms": 6824,
      "genes": 6825,
      "ruled": 6826,
      "ultimate": 6827,
      "##compact": 6828,
      "tilted": 6829,
      "##93": 6830,
      "##dc": 6831,
      "equals": 6832,
      "hosting": 6833,
      "combinatorics": 6834,
      "manage": 6835,
      "saliency": 6836,
      "##bic": 6837,
      "perceived": 6838,
      "sym": 6839,
      "##rometry": 6840,
      "initiated": 6841,
      "compactifications": 6842,
      "showers": 6843,
      "belt": 6844,
      "continues": 6845,
      "characterise": 6846,
      "vibrations": 6847,
      "tagging": 6848,
      "appeared": 6849,
      "genome": 6850,
      "helmholtz": 6851,
      "discontinuity": 6852,
      "bonding": 6853,
      "lag": 6854,
      "##ahedral": 6855,
      "contemporary": 6856,
      "transforming": 6857,
      "locked": 6858,
      "semisimple": 6859,
      "##sist": 6860,
      "stresses": 6861,
      "##iant": 6862,
      "url": 6863,
      "pseudogap": 6864,
      "couples": 6865,
      "##utions": 6866,
      "conserving": 6867,
      "conjugacy": 6868,
      "vert": 6869,
      "publications": 6870,
      "unable": 6871,
      "##fr": 6872,
      "##sky": 6873,
      "donor": 6874,
      "triangles": 6875,
      "##ha": 6876,
      "##94": 6877,
      "##gnition": 6878,
      "learner": 6879,
      "complexities": 6880,
      "##ely": 6881,
      "wiener": 6882,
      "##mon": 6883,
      "ee": 6884,
      "my": 6885,
      "you": 6886,
      "##nm": 6887,
      "advancing": 6888,
      "49": 6889,
      "excitonic": 6890,
      "imitation": 6891,
      "multipole": 6892,
      "##odal": 6893,
      "##cast": 6894,
      "offs": 6895,
      "##nns": 6896,
      "http": 6897,
      "lingual": 6898,
      "receivers": 6899,
      "##uo": 6900,
      "neutralino": 6901,
      "stem": 6902,
      "am": 6903,
      "eigenvectors": 6904,
      "slight": 6905,
      "##cycle": 6906,
      "##metries": 6907,
      "morphologies": 6908,
      "intractable": 6909,
      "occupancy": 6910,
      "##uli": 6911,
      "##ost": 6912,
      "metamaterials": 6913,
      "skeleton": 6914,
      "73": 6915,
      "vlasov": 6916,
      "##hoff": 6917,
      "playing": 6918,
      "decline": 6919,
      "ssl": 6920,
      "educational": 6921,
      "nv": 6922,
      "progressive": 6923,
      "##alt": 6924,
      "atomistic": 6925,
      "teleportation": 6926,
      "bohm": 6927,
      "##pr": 6928,
      "##loy": 6929,
      "##hood": 6930,
      "tendency": 6931,
      "##namic": 6932,
      "acyclic": 6933,
      "intersecting": 6934,
      "microscope": 6935,
      "##plifies": 6936,
      "ep": 6937,
      "tracer": 6938,
      "##clude": 6939,
      "api": 6940,
      "surveillance": 6941,
      "iso": 6942,
      "##lets": 6943,
      "clustered": 6944,
      "gravitating": 6945,
      "smoothed": 6946,
      "74": 6947,
      "photoproduction": 6948,
      "obey": 6949,
      "emotional": 6950,
      "domination": 6951,
      "quantile": 6952,
      "replica": 6953,
      "flavors": 6954,
      "89": 6955,
      "comb": 6956,
      "intent": 6957,
      "paradigms": 6958,
      "##ect": 6959,
      "prevents": 6960,
      "robustly": 6961,
      "figure": 6962,
      "retrieve": 6963,
      "summation": 6964,
      "heated": 6965,
      "ferromagnetism": 6966,
      "drivers": 6967,
      "alternatively": 6968,
      "citation": 6969,
      "infected": 6970,
      "##omorphisms": 6971,
      "##ody": 6972,
      "aggregated": 6973,
      "iras": 6974,
      "oxides": 6975,
      "##leading": 6976,
      "insertion": 6977,
      "arrangements": 6978,
      "merge": 6979,
      "wake": 6980,
      "assign": 6981,
      "raises": 6982,
      "adjacency": 6983,
      "restrict": 6984,
      "shannon": 6985,
      "stabilize": 6986,
      "##gy": 6987,
      "estimations": 6988,
      "##tre": 6989,
      "concentrate": 6990,
      "purity": 6991,
      "##correlated": 6992,
      "bars": 6993,
      "##inking": 6994,
      "61": 6995,
      "gaussianity": 6996,
      "eliminating": 6997,
      "locking": 6998,
      "##ching": 6999,
      "##phone": 7000,
      "##uples": 7001,
      "publication": 7002,
      "##map": 7003,
      "tightly": 7004,
      "decompose": 7005,
      "protect": 7006,
      "##product": 7007,
      "dyson": 7008,
      "ecosystem": 7009,
      "##ometer": 7010,
      "networking": 7011,
      "optomechanical": 7012,
      "##ctional": 7013,
      "admitting": 7014,
      "es": 7015,
      "ternary": 7016,
      "organizations": 7017,
      "kaluza": 7018,
      "##rupted": 7019,
      "integrity": 7020,
      "isometry": 7021,
      "##ically": 7022,
      "##ulse": 7023,
      "erd": 7024,
      "transactions": 7025,
      "##phy": 7026,
      "##max": 7027,
      "##ima": 7028,
      "##ily": 7029,
      "morphisms": 7030,
      "##row": 7031,
      "determinations": 7032,
      "clump": 7033,
      "burden": 7034,
      "heterotic": 7035,
      "##ug": 7036,
      "mind": 7037,
      "fpga": 7038,
      "gravitationally": 7039,
      "##iness": 7040,
      "##olar": 7041,
      "examines": 7042,
      "regulatory": 7043,
      "filtered": 7044,
      "##ames": 7045,
      "##cci": 7046,
      "translations": 7047,
      "##tively": 7048,
      "##code": 7049,
      "advancement": 7050,
      "microstructure": 7051,
      "northern": 7052,
      "alter": 7053,
      "school": 7054,
      "##card": 7055,
      "multiplexing": 7056,
      "determinants": 7057,
      "zn": 7058,
      "injective": 7059,
      "mnist": 7060,
      "##pm": 7061,
      "##quity": 7062,
      "offered": 7063,
      "falls": 7064,
      "##cking": 7065,
      "##eric": 7066,
      "##pelling": 7067,
      "closest": 7068,
      "chamber": 7069,
      "##mma": 7070,
      "differentially": 7071,
      "apparently": 7072,
      "spite": 7073,
      "##gate": 7074,
      "logics": 7075,
      "##osphere": 7076,
      "schmidt": 7077,
      "##kit": 7078,
      "discussions": 7079,
      "exploitation": 7080,
      "circulation": 7081,
      "transfers": 7082,
      "##loading": 7083,
      "conical": 7084,
      "percentage": 7085,
      "vlbi": 7086,
      "##eted": 7087,
      "dispersions": 7088,
      "##dr": 7089,
      "maintains": 7090,
      "resilient": 7091,
      "ann": 7092,
      "##istribution": 7093,
      "##ang": 7094,
      "81": 7095,
      "luttinger": 7096,
      "discriminate": 7097,
      "##ulsion": 7098,
      "billion": 7099,
      "cyclotron": 7100,
      "recovers": 7101,
      "svm": 7102,
      "demanding": 7103,
      "gave": 7104,
      "brighter": 7105,
      "discretized": 7106,
      "capillary": 7107,
      "efficiencies": 7108,
      "fed": 7109,
      "assembled": 7110,
      "attacker": 7111,
      "resummation": 7112,
      "##3d": 7113,
      "drl": 7114,
      "##ulus": 7115,
      "##usive": 7116,
      "buffer": 7117,
      "bn": 7118,
      "1999": 7119,
      "isotope": 7120,
      "deformable": 7121,
      "characterised": 7122,
      "paves": 7123,
      "translate": 7124,
      "wedge": 7125,
      "rabi": 7126,
      "##rtz": 7127,
      "footprint": 7128,
      "rounds": 7129,
      "##yl": 7130,
      "virtually": 7131,
      "crack": 7132,
      "communicate": 7133,
      "appealing": 7134,
      "lhcb": 7135,
      "magnetohydrodynamic": 7136,
      "##arm": 7137,
      "##stability": 7138,
      "exit": 7139,
      "avoided": 7140,
      "conversely": 7141,
      "collections": 7142,
      "slit": 7143,
      "backdoor": 7144,
      "eu": 7145,
      "##cel": 7146,
      "##oud": 7147,
      "stacks": 7148,
      "filtration": 7149,
      "termination": 7150,
      "customers": 7151,
      "##homogeneity": 7152,
      "##rupt": 7153,
      "rising": 7154,
      "cryptography": 7155,
      "normally": 7156,
      "##kel": 7157,
      "##finite": 7158,
      "slopes": 7159,
      "##ovich": 7160,
      "71": 7161,
      "semimetals": 7162,
      "prototypical": 7163,
      "tr": 7164,
      "##idation": 7165,
      "viewing": 7166,
      "##alpha": 7167,
      "##bach": 7168,
      "##bet": 7169,
      "##cke": 7170,
      "1998": 7171,
      "##gc": 7172,
      "##ounce": 7173,
      "##kl": 7174,
      "##sb": 7175,
      "probable": 7176,
      "superstring": 7177,
      "##backs": 7178,
      "monodromy": 7179,
      "##tial": 7180,
      "tracers": 7181,
      "partly": 7182,
      "stark": 7183,
      "regional": 7184,
      "crossings": 7185,
      "highlighted": 7186,
      "##bbon": 7187,
      "mk": 7188,
      "nonlocality": 7189,
      "exclusively": 7190,
      "queue": 7191,
      "logarithm": 7192,
      "##fc": 7193,
      "##sd": 7194,
      "debate": 7195,
      "crucially": 7196,
      "##usion": 7197,
      "app": 7198,
      "##92": 7199,
      "serving": 7200,
      "absorbers": 7201,
      "hydrostatic": 7202,
      "##atings": 7203,
      "##cer": 7204,
      "muons": 7205,
      "regge": 7206,
      "friedmann": 7207,
      "absolutely": 7208,
      "##forming": 7209,
      "providers": 7210,
      "enumeration": 7211,
      "asteroids": 7212,
      "claimed": 7213,
      "andreev": 7214,
      "zhang": 7215,
      "##inating": 7216,
      "mas": 7217,
      "soon": 7218,
      "##ued": 7219,
      "##ugh": 7220,
      "grating": 7221,
      "reductive": 7222,
      "##gged": 7223,
      "##jet": 7224,
      "##qs": 7225,
      "##vel": 7226,
      "##elled": 7227,
      "##nsible": 7228,
      "noma": 7229,
      "semantically": 7230,
      "##ods": 7231,
      "boosted": 7232,
      "trains": 7233,
      "##rial": 7234,
      "##rie": 7235,
      "healthy": 7236,
      "##ctures": 7237,
      "axioms": 7238,
      "latitude": 7239,
      "##lmer": 7240,
      "colours": 7241,
      "stabilizing": 7242,
      "faults": 7243,
      "##iii": 7244,
      "bank": 7245,
      "##modular": 7246,
      "##roids": 7247,
      "##ith": 7248,
      "##vities": 7249,
      "##licities": 7250,
      "##thermal": 7251,
      "lives": 7252,
      "blocking": 7253,
      "colliding": 7254,
      "co2": 7255,
      "kinematical": 7256,
      "##by": 7257,
      "plasticity": 7258,
      "##ances": 7259,
      "copper": 7260,
      "##bl": 7261,
      "##cination": 7262,
      "convolutions": 7263,
      "push": 7264,
      "qkd": 7265,
      "##eous": 7266,
      "secrecy": 7267,
      "##brate": 7268,
      "ease": 7269,
      "replacement": 7270,
      "##27": 7271,
      "pool": 7272,
      "shelf": 7273,
      "##ater": 7274,
      "##usivity": 7275,
      "renewable": 7276,
      "##ome": 7277,
      "##ctile": 7278,
      "##istor": 7279,
      "##rsor": 7280,
      "interferometers": 7281,
      "pore": 7282,
      "##rand": 7283,
      "learnable": 7284,
      "encourage": 7285,
      "tess": 7286,
      "##bc": 7287,
      "##o4": 7288,
      "progressively": 7289,
      "recognizing": 7290,
      "cultural": 7291,
      "fibre": 7292,
      "ridge": 7293,
      "whilst": 7294,
      "bc": 7295,
      "##enger": 7296,
      "##tachment": 7297,
      "automaton": 7298,
      "##ocity": 7299,
      "ex": 7300,
      "##umer": 7301,
      "eclipse": 7302,
      "default": 7303,
      "##coding": 7304,
      "nowadays": 7305,
      "paid": 7306,
      "slab": 7307,
      "turing": 7308,
      "volumetric": 7309,
      "diffeomorphism": 7310,
      "autoencoders": 7311,
      "absorber": 7312,
      "secular": 7313,
      "manipulating": 7314,
      "##rb": 7315,
      "engagement": 7316,
      "sustainable": 7317,
      "supercritical": 7318,
      "##ill": 7319,
      "##ptor": 7320,
      "underwater": 7321,
      "cast": 7322,
      "coordinated": 7323,
      "##ava": 7324,
      "##gers": 7325,
      "##mode": 7326,
      "##tered": 7327,
      "sam": 7328,
      "implication": 7329,
      "faraday": 7330,
      "nonrelativistic": 7331,
      "parallelism": 7332,
      "##current": 7333,
      "##ntable": 7334,
      "cryptographic": 7335,
      "femtosecond": 7336,
      "participation": 7337,
      "##ices": 7338,
      "##ught": 7339,
      "holography": 7340,
      "uplink": 7341,
      "##worthy": 7342,
      "maintained": 7343,
      "blazar": 7344,
      "monomial": 7345,
      "architectural": 7346,
      "inhomogeneities": 7347,
      "##lung": 7348,
      "inform": 7349,
      "lax": 7350,
      "semileptonic": 7351,
      "progression": 7352,
      "brst": 7353,
      "qso": 7354,
      "void": 7355,
      "isotopic": 7356,
      "skill": 7357,
      "##ctory": 7358,
      "##tent": 7359,
      "shifting": 7360,
      "ta": 7361,
      "##uration": 7362,
      "##rite": 7363,
      "##ucting": 7364,
      "##pts": 7365,
      "motivate": 7366,
      "##vich": 7367,
      "depths": 7368,
      "protostellar": 7369,
      "##cher": 7370,
      "bipolar": 7371,
      "occupied": 7372,
      "cuprate": 7373,
      "correspondences": 7374,
      "gated": 7375,
      "##wide": 7376,
      "keywords": 7377,
      "##lates": 7378,
      "wmap": 7379,
      "tm": 7380,
      "##lla": 7381,
      "rna": 7382,
      "generalizability": 7383,
      "stratification": 7384,
      "##enue": 7385,
      "outlier": 7386,
      "refers": 7387,
      "valuation": 7388,
      "pitch": 7389,
      "violated": 7390,
      "##mechanical": 7391,
      "##roidal": 7392,
      "piece": 7393,
      "##ong": 7394,
      "el": 7395,
      "stein": 7396,
      "subalgebra": 7397,
      "hyperparameters": 7398,
      "##ount": 7399,
      "stated": 7400,
      "resnet": 7401,
      "##cting": 7402,
      "##reen": 7403,
      "photoluminescence": 7404,
      "##emic": 7405,
      "##nable": 7406,
      "##ume": 7407,
      "##gl": 7408,
      "##heimer": 7409,
      "##rking": 7410,
      "captioning": 7411,
      "reconstructions": 7412,
      "##wood": 7413,
      "##osed": 7414,
      "##writing": 7415,
      "complements": 7416,
      "sz": 7417,
      "jamming": 7418,
      "pulsation": 7419,
      "congruence": 7420,
      "##lliard": 7421,
      "gd": 7422,
      "69": 7423,
      "frontier": 7424,
      "ij": 7425,
      "illustrates": 7426,
      "##ander": 7427,
      "microns": 7428,
      "ieee": 7429,
      "##oelectric": 7430,
      "bolometric": 7431,
      "##oliation": 7432,
      "##pose": 7433,
      "##sl": 7434,
      "plug": 7435,
      "##weets": 7436,
      "ss": 7437,
      "divisors": 7438,
      "spirals": 7439,
      "surgical": 7440,
      "##nation": 7441,
      "stimulated": 7442,
      "##ider": 7443,
      "children": 7444,
      "pieces": 7445,
      "submillimeter": 7446,
      "##eeds": 7447,
      "assets": 7448,
      "##imp": 7449,
      "##ogeneity": 7450,
      "grasp": 7451,
      "un": 7452,
      "##forced": 7453,
      "explainability": 7454,
      "revised": 7455,
      "alongside": 7456,
      "harder": 7457,
      "nonetheless": 7458,
      "##cluding": 7459,
      "martingale": 7460,
      "cardiac": 7461,
      "moir": 7462,
      "retrieved": 7463,
      "retain": 7464,
      "##alysis": 7465,
      "catalogs": 7466,
      "##acities": 7467,
      "##ident": 7468,
      "##stitute": 7469,
      "belle": 7470,
      "bridging": 7471,
      "opinions": 7472,
      "predefined": 7473,
      "behaviours": 7474,
      "khz": 7475,
      "triples": 7476,
      "conference": 7477,
      "polaritons": 7478,
      "##renstein": 7479,
      "land": 7480,
      "##ski": 7481,
      "##sq": 7482,
      "cv": 7483,
      "interests": 7484,
      "##itional": 7485,
      "ethical": 7486,
      "whereby": 7487,
      "##md": 7488,
      "illustrative": 7489,
      "wavefront": 7490,
      "metadata": 7491,
      "##55": 7492,
      "##rain": 7493,
      "perp": 7494,
      "workload": 7495,
      "##91": 7496,
      "permanent": 7497,
      "resultant": 7498,
      "vacancies": 7499,
      "##ground": 7500,
      "circumstances": 7501,
      "##72": 7502,
      "##iciency": 7503,
      "##scent": 7504,
      "finiteness": 7505,
      "fronts": 7506,
      "##ignment": 7507,
      "sd": 7508,
      "optic": 7509,
      "reflections": 7510,
      "session": 7511,
      "attain": 7512,
      "surrounded": 7513,
      "##ciding": 7514,
      "unmanned": 7515,
      "##urbed": 7516,
      "##vic": 7517,
      "carries": 7518,
      "emitter": 7519,
      "mp": 7520,
      "arrive": 7521,
      "##ratory": 7522,
      "deploying": 7523,
      "##que": 7524,
      "eulerian": 7525,
      "transferring": 7526,
      "auc": 7527,
      "maxima": 7528,
      "##tc": 7529,
      "##port": 7530,
      "##iving": 7531,
      "lee": 7532,
      "sectional": 7533,
      "qos": 7534,
      "encounters": 7535,
      "##cidable": 7536,
      "coxeter": 7537,
      "##alized": 7538,
      "searched": 7539,
      "toeplitz": 7540,
      "bin": 7541,
      "##polar": 7542,
      "##kers": 7543,
      "destination": 7544,
      "##llapsing": 7545,
      "discoveries": 7546,
      "##rve": 7547,
      "implements": 7548,
      "uniaxial": 7549,
      "##ract": 7550,
      "favored": 7551,
      "##tronics": 7552,
      "shortcomings": 7553,
      "verifying": 7554,
      "##jy": 7555,
      "indication": 7556,
      "grothendieck": 7557,
      "hyperparameter": 7558,
      "identically": 7559,
      "synchronized": 7560,
      "59": 7561,
      "seeking": 7562,
      "##nol": 7563,
      "##versible": 7564,
      "join": 7565,
      "fire": 7566,
      "##poration": 7567,
      "worse": 7568,
      "##rine": 7569,
      "wrong": 7570,
      "##ilities": 7571,
      "monoidal": 7572,
      "faithful": 7573,
      "resembles": 7574,
      "##uent": 7575,
      "##acket": 7576,
      "##solar": 7577,
      "bag": 7578,
      "hull": 7579,
      "bins": 7580,
      "marginally": 7581,
      "noether": 7582,
      "wang": 7583,
      "##ansistors": 7584,
      "monolayers": 7585,
      "functionalities": 7586,
      "heavier": 7587,
      "ignored": 7588,
      "##edit": 7589,
      "bus": 7590,
      "photoionization": 7591,
      "aligning": 7592,
      "##linary": 7593,
      "fly": 7594,
      "monitored": 7595,
      "poincare": 7596,
      "##angled": 7597,
      "##rc": 7598,
      "winding": 7599,
      "retaining": 7600,
      "entry": 7601,
      "mars": 7602,
      "programmable": 7603,
      "##changed": 7604,
      "##dicative": 7605,
      "##quest": 7606,
      "79": 7607,
      "lacks": 7608,
      "##nting": 7609,
      "##phase": 7610,
      "albeit": 7611,
      "envelopes": 7612,
      "deflection": 7613,
      "##ishable": 7614,
      "##cked": 7615,
      "turning": 7616,
      "##etrology": 7617,
      "intermittent": 7618,
      "meeting": 7619,
      "##borate": 7620,
      "##pton": 7621,
      "800": 7622,
      "##tracting": 7623,
      "##sine": 7624,
      "##vc": 7625,
      "multilevel": 7626,
      "##physical": 7627,
      "hermite": 7628,
      "##rp": 7629,
      "##scattering": 7630,
      "ejected": 7631,
      "tabular": 7632,
      "displacements": 7633,
      "positional": 7634,
      "##ulant": 7635,
      "radially": 7636,
      "##!": 7637,
      "##\"": 7638,
      "###": 7639,
      "##$": 7640,
      "##%": 7641,
      "##&": 7642,
      "##'": 7643,
      "##(": 7644,
      "##)": 7645,
      "##*": 7646,
      "##+": 7647,
      "##,": 7648,
      "##-": 7649,
      "##.": 7650,
      "##/": 7651,
      "##:": 7652,
      "##;": 7653,
      "##<": 7654,
      "##=": 7655,
      "##>": 7656,
      "##?": 7657,
      "##@": 7658,
      "##[": 7659,
      "##\\": 7660,
      "##]": 7661,
      "##^": 7662,
      "##_": 7663,
      "##`": 7664,
      "##{": 7665,
      "##|": 7666,
      "##}": 7667,
      "##~": 7668,
      "##¤": 7669,
      "##¿": 7670
    }
  }
}