[PAD]
[UNK]
[START]
[END]
!
"
#
$
%
&
'
(
)
*
+
,
-
.
/
0
1
2
3
4
5
6
7
8
9
:
;
<
=
>
?
@
[
\
]
^
_
`
a
b
c
d
e
f
g
h
i
j
k
l
m
n
o
p
q
r
s
t
u
v
w
x
y
z
{
|
}
~
¤
¿
the
of
and
in
to
we
for
is
that
with
on
##s
this
by
are
as
an
from
be
which
at
model
can
our
data
two
it
based
these
using
results
show
time
also
models
have
or
quantum
between
such
field
##ing
has
one
paper
study
method
system
non
energy
not
high
##d
new
state
their
learning
its
systems
large
theory
##ed
##ly
approach
problem
different
both
order
space
present
first
all
analysis
well
where
more
mass
than
when
been
number
methods
used
function
##t
phase
into
proposed
##r
properties
performance
over
structure
low
some
find
only
##e
dimensional
network
work
magnetic
spin
but
information
use
case
##a
other
however
states
propose
algorithm
while
density
set
distribution
##er
##o
three
type
then
through
linear
if
under
framework
each
networks
single
functions
##n
scale
dynamics
general
due
provide
finite
parameters
potential
temperature
local
point
most
10
##al
may
process
real
how
multi
observed
demonstrate
given
any
obtained
##i
range
result
##m
equation
##y
level
many
within
they
there
##l
solutions
##c
small
effect
##p
was
experiments
group
equations
power
up
particular
terms
applications
here
found
effects
graph
rate
ray
image
form
known
detection
solution
conditions
class
training
novel
neural
surface
numerical
recent
complex
effective
several
parameter
light
transition
star
prove
fields
experimental
deep
current
features
optical
via
##es
consider
problems
gamma
wave
matter
control
like
strong
will
various
free
out
simulations
standard
galaxies
simple
evolution
random
observations
stars
possible
including
shown
algorithms
interaction
same
very
compared
classical
limit
multiple
higher
matrix
self
size
optimal
further
##2
emission
long
design
black
no
about
times
source
critical
existing
even
without
##f
domain
alpha
##ity
measurements
##ic
second
particle
investigate
electron
formation
##0
associated
coupling
so
spectrum
symmetry
##g
value
were
spectral
accuracy
obtain
mathbb
discuss
frequency
efficient
values
important
images
gas
##b
behavior
interactions
language
flow
lattice
introduce
significant
line
task
way
noise
previous
boundary
give
zero
techniques
optimization
tasks
dark
sample
during
corresponding
theoretical
related
##on
bound
finally
physical
similar
structures
region
research
those
##h
thus
scattering
processes
near
galaxy
constant
lower
approximation
allows
them
approaches
main
##v
##able
classification
studies
studied
specific
datasets
representation
generation
application
available
provides
consistent
dataset
mean
groups
recently
##k
topological
art
constraints
open
physics
spatial
cross
applied
error
nonlinear
global
scheme
particles
test
simulation
knowledge
presented
end
stellar
lambda
##1
mathcal
correlation
graphs
cases
velocity
motion
hole
dependent
points
code
machine
rm
gauge
induced
resolution
initial
measure
3d
presence
text
cluster
vector
significantly
##x
mu
spaces
derived
feature
distance
certain
context
human
estimation
probability
sources
pi
called
dynamical
existence
quality
delta
thermal
search
mechanism
could
spectra
future
generalized
independent
four
weak
sigma
signal
generated
across
stochastic
key
derive
ratio
considered
theorem
##3
efficiency
band
us
scalar
decay
operators
objects
distributions
series
better
technique
prediction
##ation
charge
dynamic
channel
momentum
moreover
dependence
term
natural
differential
role
computational
defined
input
addition
driven
along
complexity
developed
do
gravitational
furthermore
operator
understanding
examples
world
diffusion
factor
continuous
positive
radio
does
shows
gravity
loss
part
describe
ii
sets
dimension
relation
##ion
object
stability
invariant
algebra
binary
transport
production
after
regions
##ness
coupled
measurement
robust
omega
modes
often
total
##u
among
fixed
few
full
##in
component
compact
action
sequence
mode
solar
improve
around
ground
symmetric
background
molecular
estimate
transfer
clusters
condition
edge
modeling
flux
statistical
average
body
complete
length
being
massive
calculations
representations
target
geometry
metric
develop
convergence
bounds
photon
example
plane
direct
layer
gap
user
stable
short
resulting
##ization
attention
discussed
measured
fundamental
extended
components
exact
discrete
entropy
theories
impact
##ts
determine
gaussian
##an
quark
disk
survey
degree
construct
types
best
expected
maximum
address
regime
leading
dimensions
cost
leads
##w
much
##z
neutrino
identify
equilibrium
##ers
strongly
achieve
predictions
respectively
larger
respect
##ally
functional
arbitrary
whose
highly
evidence
limited
beta
central
additional
scaling
since
relative
sim
law
##5
al
introduced
masses
trained
wide
evaluation
less
accurate
temporal
rates
core
nature
fast
samples
processing
either
communication
##le
##nt
computing
report
log
variables
gradient
good
step
analyze
environment
map
therefore
##or
upper
population
estimates
asymptotic
loop
response
above
partial
##4
towards
##ive
compare
fully
radiation
active
neutron
algebras
perform
focus
cosmological
tensor
classes
##rs
compute
waves
account
proof
elements
change
co
apply
growth
nuclear
pair
heavy
##ting
common
explicit
fluctuations
memory
development
description
##ized
expansion
increase
quasi
correlations
pre
shape
challenges
polarization
property
comparison
minimal
make
scenarios
still
materials
specifically
inference
maps
##us
product
scales
construction
closed
imaging
close
distributed
described
sum
devices
bar
because
geometric
investigated
explore
et
agreement
literature
mathrm
##6
relevant
polynomial
determined
able
electronic
need
galactic
changes
support
special
##ability
experiment
increasing
events
normal
infinite
should
relativistic
strategy
least
cosmic
users
2d
double
variable
selection
computation
pressure
sub
lines
performed
lead
entanglement
previously
negative
higgs
reduction
generate
##en
every
question
extensive
visual
evaluate
dual
made
setting
factors
suggest
means
magnitude
numbers
qcd
reduced
improved
universe
hamiltonian
family
##8
directly
generalization
uncertainty
angular
pm
basis
path
relations
architecture
##ar
conjecture
years
beyond
interest
segmentation
provided
individual
periodic
contribution
underlying
would
coefficients
contrast
integral
semi
required
making
luminosity
energies
formula
curves
off
convex
challenging
collisions
view
against
although
patterns
pairs
chiral
matrices
index
speed
infrared
bounded
nu
surfaces
phases
beam
transitions
material
fine
connected
cloud
difference
area
string
redshift
requires
achieved
universal
holes
dust
sampling
variety
event
establish
volume
early
##ate
##ian
designed
hard
electric
limits
far
version
review
external
solve
scenario
medium
effectiveness
social
##te
chemical
metal
analytical
force
video
unique
curvature
tool
parallel
gev
domains
bulk
tau
##9
fermi
precision
lie
measures
challenge
let
period
smooth
amplitude
whether
rank
adaptive
signals
direction
recognition
atomic
detected
semantic
rotation
resonance
include
following
allow
fluid
phi
extend
structural
article
detector
next
20
orbital
##7
fraction
extension
chain
characteristic
implementation
radius
##is
laser
calculate
prior
characteristics
accretion
calculated
practical
almost
cannot
software
observation
right
infty
strength
equivalent
bias
predict
inverse
##se
enhanced
algebraic
absorption
detailed
angle
influence
reconstruction
original
findings
de
conventional
supervised
100
depth
reduce
plasma
principle
interacting
##ant
online
carlo
monte
codes
necessary
##ne
minimum
below
exhibit
what
liquid
mixing
demonstrated
heat
procedure
output
decision
concept
benchmark
feedback
einstein
coherent
jet
hybrid
superconducting
require
especially
orbit
ion
uniform
traditional
levels
empirical
yet
smaller
tree
combined
hand
manifold
statistics
solving
sensitivity
uses
ai
content
become
combination
mechanisms
##ment
corrections
graphene
top
frac
atoms
temperatures
learn
ability
suitable
##et
crucial
predicted
gives
manifolds
useful
nodes
schemes
clustering
cell
strategies
presents
bayesian
metrics
regular
forms
computer
electrons
transmission
12
ring
per
approximate
flat
sparse
adversarial
##ous
breaking
identified
origin
sufficient
exchange
enables
spectroscopy
increases
must
propagation
produce
analytic
tools
achieves
depends
channels
rather
promising
##ating
layers
threshold
remains
perturbation
environments
produced
curve
##re
considering
errors
su
mixed
left
robustness
agent
explain
fact
position
soft
##ated
dense
constructed
works
define
together
final
vacuum
center
static
generating
formulation
distinct
matching
tuning
theta
down
providing
modified
sensitive
contributions
finding
proton
latter
##um
activity
dirac
##as
decomposition
objective
radial
##ities
agents
element
systematic
exponential
charged
importance
fe
particularly
regression
interface
integrated
observe
outperforms
alternative
##it
flows
continuum
##ial
square
peak
access
telescope
detect
decays
##less
policy
stage
capture
varying
indicate
rich
testing
thin
effectively
localization
intermediate
another
##el
connection
constrained
polynomials
namely
formalism
sequences
correlated
calculation
synthetic
weighted
mapping
despite
ones
additionally
llms
speech
behaviour
privacy
established
goal
##ms
vertex
module
risk
15
fractional
instead
transverse
half
overall
essential
constraint
shift
rho
realistic
epsilon
pattern
leq
##tion
reveal
##os
variation
configuration
aim
help
degrees
security
makes
explicitly
showing
##ize
variations
major
vision
sqrt
joint
intrinsic
widely
differences
##ns
becomes
ell
subset
typical
perturbations
contains
assumptions
electromagnetic
weight
dispersion
generic
relaxation
homogeneous
boson
exist
water
transformation
cm
upon
quadratic
typically
embedding
identification
frame
probe
phenomena
topology
color
##izing
section
conformal
basic
involving
interesting
super
oscillations
efficiently
improvement
possibility
likely
##ps
reported
device
instability
##ted
crystal
resource
characterized
experimentally
exists
fit
harmonic
characterization
issues
notion
simultaneously
having
estimated
##ies
array
comprehensive
implications
unit
characterize
variational
convolutional
kernel
contact
internal
nuclei
illustrate
issue
treatment
generative
stationary
re
analyzed
capacity
understand
halo
suggests
five
hence
mechanical
taking
singular
amount
broad
interpretation
configurations
modules
excitation
assumption
mathematical
seen
inner
yields
includes
examine
##ance
relationship
https
depending
intensity
profile
##ry
interference
##ling
abelian
trivial
take
applying
attacks
reaction
wind
separation
##ter
integer
category
forward
computed
github
orders
science
pure
potentials
##q
diverse
30
driving
densities
reinforcement
taken
11
unknown
eta
lhc
hall
##ia
aspects
tests
kinetic
diagram
relatively
appropriate
mechanics
technology
photons
quantitative
operations
generally
sense
markov
canonical
locally
##ce
difficult
hot
consists
robot
equal
coefficient
##nce
according
precise
proved
spacetime
game
13
expression
tev
allowing
50
evaluated
moment
discovery
selected
integration
before
post
choice
qubit
ensemble
might
rules
anomalous
width
ideal
numerically
molecules
aims
sensing
reference
program
fusion
maximal
node
combining
building
insights
##ge
improves
lack
programming
enhance
##ds
third
shot
simulated
transform
frequencies
agn
dwarf
assuming
controlled
geq
implemented
shell
##am
latent
tracking
##ions
profiles
motivated
ratios
vertices
settings
correction
forming
base
rise
embedded
cp
elastic
phenomenon
psi
enhancement
improving
age
face
comparable
usually
symmetries
cavity
exhibits
weakly
anti
##id
anisotropic
protocol
appear
com
earth
questions
primary
proper
artificial
similarity
digital
iii
pseudo
perturbative
traffic
mev
rule
spherical
supersymmetric
##th
observational
neutral
argue
note
principles
subject
hyperbolic
consistency
actions
vortex
planet
host
edges
acceleration
variability
elliptic
##man
resources
enable
play
link
19
hilbert
detectors
horizon
operation
prime
probabilistic
atom
fermions
freedom
capabilities
##ivity
hierarchical
side
needed
perspective
popular
formed
aware
always
resolved
implies
train
block
candidate
couplings
##at
detail
axis
yield
km
powerful
inequality
inside
media
causal
cycle
true
uv
##ot
baseline
##ical
bands
##cs
synthesis
community
radiative
requirements
phonon
purpose
transformer
solid
##ary
expressions
containing
alignment
location
dominated
fourier
wavelength
depend
rational
rotating
naturally
anisotropy
comparing
logic
moving
sensor
planets
localized
##de
renormalization
last
categories
completely
limitations
polarized
methodology
medical
moments
instance
##ised
hydrogen
amplitudes
##isation
learned
observables
shock
represent
faster
giant
weights
deformation
unified
translation
turbulence
species
##ov
engineering
lagrangian
pulse
mobile
extract
reasoning
nucleon
disorder
##il
nearly
directions
products
extraction
dipole
employed
duality
##ve
clouds
anomaly
16
ultra
##ls
architectures
planar
preserving
cold
distances
##sing
orthogonal
automatic
planning
public
variance
enough
extreme
poisson
confirm
norm
increased
composition
whole
wireless
hypothesis
gain
au
autonomous
modelling
white
resonant
##tic
delay
accurately
conclude
quantities
abundance
shear
##ft
grid
slow
investigation
cooling
ir
14
equivalence
orbits
easily
exactly
##net
generalize
past
transformations
parametric
analyses
sphere
inspired
parts
appears
hardware
sizes
cells
collapse
thermodynamic
follow
occurs
labels
fermion
quantization
rays
occur
likelihood
virtual
reveals
conditional
sections
caused
reduces
hidden
correct
odot
carbon
idea
retrieval
young
candidates
uncertainties
##est
metallicity
##ping
earlier
excitations
describing
splitting
stress
##om
spectroscopic
consequence
deterministic
25
##st
platform
films
##gs
takes
whereas
tested
studying
trajectories
modern
manner
approximately
place
##ss
##pe
excited
collective
##ent
sky
conducted
query
sector
definition
ngc
families
spatially
violation
conductivity
attack
advantage
six
neutrinos
##ring
entire
sharp
sufficiently
ads
build
inflation
vectors
describes
coherence
arise
projective
concentration
collected
big
reliable
estimator
label
great
currently
disc
red
##ning
mainly
affine
areas
meson
superconductivity
achieving
##ons
chi
extra
commonly
compression
introduces
acoustic
odd
now
automated
carried
steps
wall
trees
collision
heterogeneous
steady
clear
thereby
invariants
trajectory
chains
##tive
project
bose
arising
word
reducing
flavor
##ch
disks
degenerate
noisy
asymmetry
box
unitary
rely
concepts
valued
kev
monitoring
modulation
theoretically
potentially
jets
regularization
extremely
progress
magnetization
scientific
##ra
predictive
extensions
lattices
solved
brain
##ors
capable
interval
confidence
sun
starting
##me
##ide
forces
perfect
management
success
turn
games
improvements
absence
embeddings
40
coulomb
site
consisting
pose
##ct
inequalities
nm
employ
tunneling
populations
combinatorial
extracted
gluon
euclidean
storage
score
fitting
asymptotically
##ma
criterion
identifying
already
calibration
unsupervised
he
##ad
demonstrates
introducing
contain
just
moduli
rapid
showed
cite
reach
microwave
regimes
invariance
safety
measuring
surveys
languages
enabling
dominant
projection
analyzing
paradigm
##ty
inter
offers
approximations
narrow
paths
brane
filter
net
advanced
evolutionary
##ll
cohomology
involves
structured
ordered
practice
relativity
constants
ferromagnetic
determination
correspondence
greater
adaptation
excess
supernova
successfully
proposes
microscopic
camera
collection
benchmarks
parity
holds
partition
outer
call
detecting
diagrams
assumed
validate
discovered
strain
implement
ml
binaries
xi
answer
##ging
##ism
crystals
modular
indicates
offer
create
exploration
cnn
asymmetric
hadron
sign
circuit
resonances
service
sequential
though
technologies
toward
partially
emph
baryon
performing
suggested
satisfy
cosmology
singularities
##ine
rightarrow
itself
photometric
dissipation
absolute
scene
explained
sn
velocities
dot
web
history
iterative
allowed
unlike
run
flexible
ghz
formulas
built
landau
insulator
voltage
##ium
weyl
focusing
##ue
regularity
##les
exponent
derivative
usual
ions
mathbf
textit
bi
connections
criteria
satellite
advantages
restricted
qubits
##ke
determining
estimating
automatically
si
##ner
back
turbulent
ge
coding
leveraging
assess
employing
rings
##da
kappa
utilizing
decrease
sensors
##tor
words
##ified
affect
developing
missing
##ual
eigenvalues
bright
details
modal
laws
life
circular
market
signatures
##line
compatible
superior
##nd
##ble
le
done
transient
schr
explored
mixture
##bility
remain
revealed
relies
unstable
diversity
assume
##fs
green
planetary
##up
inputs
trace
##ck
optimized
planck
defects
yang
onto
analytically
##ite
behaviors
constrain
18
fidelity
character
oriented
reflection
boundaries
possibly
substantial
get
nucleus
##ise
capability
picture
oscillation
gate
quarks
lepton
lensing
ab
computationally
atmospheric
observable
nearby
competitive
tight
entangled
largest
little
approx
branching
growing
rotational
##ard
plays
changing
theorems
valid
predicting
researchers
em
limiting
late
vanishing
precisely
integrable
formal
##ur
isotropic
utility
understood
verify
superconductors
binding
##istic
infinity
##berg
theoretic
lorentz
residual
integrals
intelligence
bf
photonic
needs
ising
protocols
extends
applicable
varieties
ev
branch
##ure
cubic
heating
represented
probabilities
switching
principal
bosons
simultaneous
demand
ordering
located
clinical
isolated
pulsar
audio
decreases
##ile
##ification
database
rapidly
mathfrak
directed
##ro
singularity
##ler
hierarchy
phys
##j
emerging
kind
ordinary
orientation
##ration
cycles
riemannian
llm
##age
##ative
##ably
coverage
kpc
dm
shared
relationships
composite
running
ways
links
overcome
vehicle
condensate
costs
quantify
circuits
doped
follows
instances
stokes
identity
regarding
mid
twisted
quite
film
cmb
electrical
##00
logarithmic
highlight
explanation
corresponds
extending
cal
abundances
assessment
excellent
collider
created
suggesting
signature
cover
policies
##sion
coordinate
##one
silicon
##ible
chosen
reproduce
shifts
longitudinal
multimodal
scalable
too
longer
sites
encoder
euler
conduct
secondary
guarantees
desired
17
21
biological
easy
verification
cause
astrophysical
rl
realized
##pt
barrier
allocation
symplectic
##ening
currents
supported
included
mobility
produces
coordinates
represents
proportional
consequences
programs
##atic
confirmed
meta
counting
expressed
varepsilon
##ld
cone
pion
conversion
focused
pc
hi
searches
constructing
involved
balance
health
covering
##rt
##bs
highest
metallic
hermitian
elementary
others
responsible
indeed
qualitative
newton
24
dielectric
pairing
exploit
benefits
etc
##ological
hadronic
technical
robots
spins
rare
pulses
ensure
poor
##ates
dynamically
##ral
##ncy
trade
interplay
##nts
200
indicating
antiferromagnetic
wise
loops
ionization
setup
superconductor
encoding
estimators
polar
hydrodynamic
sound
arises
who
oscillator
queries
conservation
covariance
chaotic
disease
spiral
pixel
hubble
frames
emergence
torus
##ular
consumption
published
named
null
##ta
60
doping
labeled
adiabatic
bursts
advances
root
irreducible
composed
broken
sharing
1d
heisenberg
90
##ding
spontaneous
bit
##ron
vehicles
evaluating
reactions
classify
ranging
dwarfs
reliability
##ri
classifier
air
exploiting
shapes
targets
appearance
contribute
decoding
leverage
viscosity
max
prompt
dots
generates
diffraction
zeta
pipeline
recovery
realization
interpreted
tidal
glass
##ain
remarkable
computations
incorporating
units
enhancing
expectation
fiber
inversion
videos
nearest
combine
systematically
consistently
operating
factorization
##ics
additive
separate
implicit
increasingly
radii
##ulation
designs
homology
day
linearly
closely
successful
cut
positions
insight
services
introduction
sl
grained
##co
supersymmetry
motions
interstellar
##ence
besides
satisfies
modeled
people
days
brownian
connectivity
stronger
authors
##king
publicly
uniqueness
##izable
merger
experience
separated
##ki
drift
macroscopic
manipulation
##he
deviation
formulate
identical
##ger
exploring
chern
##ev
gradients
see
thickness
blocks
hold
##cing
guided
match
split
spread
concerning
eigenvalue
utilize
defect
uniformly
lowest
cyclic
validation
affected
pb
periods
angles
mesons
handle
fluctuation
##ulate
turns
satisfying
ideas
thermodynamics
mpc
muon
##oid
protein
derivatives
##ze
optimize
bandwidth
primordial
redshifts
predicts
##dm
year
confined
atmosphere
generator
intersection
##ned
brightness
validity
recover
followed
outcomes
consequently
##ifies
electroweak
bundle
combines
inhomogeneous
modification
formulated
derivation
holographic
discussion
massless
room
##ibility
responses
purely
visible
demonstrating
riemann
##ings
commutative
##ful
extent
facilitate
topic
front
oxygen
##ist
slightly
divergence
arguments
variant
##bed
molecule
recurrent
semantics
serve
performs
odinger
accelerated
inherent
away
environmental
analogous
mm
##ology
photometry
disordered
subspace
smart
zone
requiring
significance
internet
numerous
22
np
branes
filtering
update
individuals
downstream
000
nonlocal
briefly
covid
release
descent
fermionic
collaboration
ia
latency
parabolic
largely
situation
beams
tuned
cores
##ric
supernovae
cdot
examined
interfaces
complementary
exponentially
trapped
avoid
##od
dirichlet
designing
mills
microscopy
augmentation
independently
simulate
multivariate
suppression
outside
geometries
obtaining
th
tail
locations
morphology
secure
strings
representing
conductance
##to
confinement
essentially
once
vertical
stages
coarse
diagonal
correspond
pt
situations
deviations
##10
simply
##ute
substantially
arrays
creation
students
mirror
overview
augmented
federated
##ng
load
relevance
sr
why
applicability
platforms
proofs
abstract
##na
slope
damping
preliminary
cellular
attractive
decisions
##use
forecasting
walk
lens
bundles
mutual
execution
timing
nontrivial
blue
hubbard
height
controller
sitter
micro
feasible
calculus
##ff
distortion
genus
column
iron
##son
charges
assisted
##der
diffuse
majority
dissipative
gaps
giving
mostly
minimization
recommendation
association
companion
iot
own
soliton
23
baselines
convolution
##ol
semiconductor
bosonic
adding
exponents
maxwell
circ
violating
price
##im
inelastic
throughput
optics
argument
stream
efforts
peaks
observatory
tackle
list
95
li
variants
subsequent
decoder
##ino
had
clearly
generators
style
adopted
reward
rest
sm
carrier
papers
suppressed
scheduling
communications
kinematic
tension
milky
deal
boltzmann
jointly
evaluations
impurity
evolving
rigid
kerr
posterior
laplacian
deployment
failure
supports
fairness
pp
##ick
substrate
incorporate
accessible
document
contrastive
analyse
subgroup
duration
feasibility
counterparts
lifetime
maintaining
quasars
majorana
exotic
date
cr
kinematics
##ward
parton
working
break
distinguish
##op
aspect
former
phenomenological
singlet
diameter
integrating
##ore
mesh
decreasing
expensive
inferred
##ming
##ations
geometrical
fluxes
initially
focuses
solitons
status
##ries
burst
rigorous
optimizing
effort
aligned
versions
losses
surrounding
representative
opposite
financial
fail
proven
deformations
resistance
projected
noncommutative
private
arithmetic
primarily
infer
aggregation
valuable
torsion
strengths
iteration
van
universality
auxiliary
crossing
deg
perception
newly
polymer
inclusion
window
actual
false
select
vs
averaged
arxiv
##ii
80
guide
quantized
screening
proposal
outputs
##la
plus
activation
vortices
##ell
generalizes
##linear
laboratory
thick
outperform
cu
old
holomorphic
analogue
supergravity
empirically
admits
author
filling
necessarily
wavelengths
la
reasonable
anomalies
grb
ca
written
nn
minimizing
##sphere
globular
algorithmic
tilde
ice
greatly
susceptibility
kernels
intervals
usage
##band
annihilation
simplified
minimize
deformed
interior
causes
producing
intelligent
##tors
##des
halos
start
axion
sums
bipartite
##ir
sparsity
finitely
benefit
##arity
mimo
##ky
mergers
share
humans
remote
guarantee
superfluid
attributes
##oring
interpolation
competition
apparent
instrument
behind
##nal
track
analog
reversal
outflow
##mer
look
lengths
synchronization
envelope
##pc
probing
##quark
##mic
scores
squares
helium
subsequently
acting
remaining
rev
versus
validated
utilized
patients
covariant
considerable
throughout
carry
gates
expanding
min
procedures
filters
luminous
##rate
raman
moderate
learns
hopf
neumann
leverages
negligible
cognitive
adapt
integers
outcome
tend
developments
neighbor
##mm
randomly
drive
interactive
foundation
flexibility
strictly
trend
##ator
70
2n
##ber
homotopy
extremal
counterpart
consideration
requirement
indices
prototype
converges
optically
observing
scanning
junction
induce
defining
ad
bond
involve
addresses
grain
trap
mn
imply
cancer
ultraviolet
navigation
complexes
wilson
complicated
physically
extinction
interpret
suffer
triplet
35
explanations
quantity
robotic
members
treated
##ay
concerns
axial
machines
receiver
illustrated
##ising
##ac
fault
frameworks
biases
later
led
##une
dimensionality
##sh
activities
decoherence
equivariant
##no
completion
efficacy
enabled
antenna
spanning
onset
instabilities
crossover
characterizing
##ped
tunable
quasar
ranking
answering
combinations
##ip
comparisons
##li
flare
alone
controlling
contained
agree
##ans
creating
vary
fits
##oids
trends
message
shaped
ms
##and
##aring
fold
assembly
bh
bottom
gan
difficulty
banach
bridge
notably
addressed
qualitatively
addressing
##tes
remarkably
perpendicular
comes
ni
comment
package
added
multiplicity
subsets
received
affects
participants
##lation
overhead
graded
cooperative
mitigate
dependencies
nevertheless
surprisingly
arbitrarily
##ap
normalized
discrepancy
##pes
mining
alternating
newtonian
ensembles
pulsars
consensus
propagating
truth
##be
randomized
saturation
##led
##zing
go
##ars
powers
classifiers
calculating
hat
twist
chaos
verified
injection
mission
synchrotron
bases
valence
##ving
exciton
identities
attempt
overlap
conclusions
geodesic
differ
sight
compounds
implementations
quantitatively
specified
check
put
##nn
distillation
##osing
backward
300
unseen
##ow
adapted
fractions
attributed
##rd
captured
industrial
choices
triple
realize
sdss
viscous
until
coronal
condensation
dna
adjoint
considers
percolation
##ory
500
diagnosis
fragmentation
##tt
investigating
##cted
scalability
degeneracy
opportunities
applies
routing
lies
except
##ural
seems
utilizes
subgroups
lipschitz
head
occurrence
ns
industry
fluids
##like
curved
shocks
##rating
##tal
student
crystalline
conclusion
isomorphic
modifications
josephson
properly
##ish
decades
descriptions
topics
biased
expert
##omorphic
captures
solver
converge
spheres
iv
resolve
nonlinearity
initio
economic
poses
equipped
##its
centers
telescopes
triangular
heuristic
patient
display
passive
tomography
yr
reason
##cular
bell
employs
gpu
begin
induces
determines
##point
refinement
incorporates
##flow
solvable
intra
enhances
gauss
##ists
sc
grains
mediated
##ka
tc
##wise
functionals
mg
objectives
relate
navier
supporting
constructions
maximize
inertial
proving
ambient
landscape
person
entity
ricci
compound
optimality
pm0
##ious
##kov
walls
circle
sne
squared
contextual
cdm
speaker
news
##ton
junctions
discretization
bilayer
emerged
fractal
kinds
balanced
walks
thought
##ks
spacetimes
entities
nlp
continuously
ct
##ses
discover
master
act
pairwise
cs
modalities
lyapunov
marginal
snr
ideals
emergent
collaborative
contexts
##ged
ball
cft
##ak
safe
permutation
32
corpus
annotations
urban
##ca
attribute
proximity
##ag
epoch
##ec
annotated
chemistry
sobolev
offline
##tions
statistically
operational
english
infinitely
se
##nder
posed
##verse
jacobi
fock
dc
ranges
library
gw
hd
eight
conduction
convection
oscillators
faint
globally
million
server
sentence
perturbed
roughly
##bar
friction
his
inclusive
kondo
items
extensively
genetic
reconstruct
scenes
tends
streaming
interact
expansions
linked
##ved
interpretable
mri
exceptional
##ut
move
separable
##fe
##logical
hamiltonians
##un
##tation
##ulated
reconstructed
independence
experts
investigations
logical
nor
##sm
distant
bodies
displacement
26
multiplicative
notions
extracting
viewed
bubble
##ments
covers
27
prominent
##ade
infrastructure
rf
##red
meaning
lesssim
differentiable
compton
##o3
come
reality
layered
fashion
degradation
mag
transformers
wigner
45
integrate
gl
capturing
metals
chandra
visualization
28
ac
resistivity
letter
##fication
ansatz
communities
otherwise
seven
adopt
decentralized
centre
modality
semiclassical
monolayer
annotation
gaia
amounts
parameterized
##ai
drop
contrary
mhd
##og
ergodic
historical
##vs
##hs
emphasis
##ose
jump
catalog
fl
##ab
classified
fuzzy
overline
implementing
heterogeneity
actually
##lines
schwarzschild
merging
supervision
compressed
acquisition
centered
incident
complement
75
##ties
opens
chip
closure
preferences
##ction
nonzero
gains
mhz
##ify
evolve
migration
neighborhood
selective
count
tailored
persistent
cascade
membrane
ensuring
admit
horizontal
dnn
governed
carefully
arm
nonequilibrium
##ides
encoded
engine
ten
averaging
standing
impacts
symbolic
gases
vicinity
dedicated
similarly
klein
regularized
helps
colour
minkowski
movement
colors
textbf
insulators
##hn
achievable
indirect
simpler
flares
updates
2020
qed
performances
yielding
##si
##tary
warm
clean
##sive
frequently
rgb
##ort
##act
05
comparative
sampled
luminosities
##ves
automata
continuity
satisfied
##oi
corrected
transforms
blockchain
conserved
imaginary
maintain
quickly
considerably
boolean
correctly
##ered
##land
##matic
##ometric
nano
organic
preserve
competing
facial
deployed
peculiar
condensates
concrete
ionized
firstly
availability
partitions
backgrounds
der
preference
denoising
hst
asymptotics
micron
weaker
ldots
exposure
##12
varies
intensive
importantly
fourth
emitted
##sed
dft
##af
meaningful
markovian
establishing
gpt
monotone
diffusive
##variate
oxide
smallest
varphi
coming
imposed
emerge
##hing
cnns
normalization
widths
outflows
texture
aa
minor
##qa
##ography
climate
##ess
documents
reaching
manual
hydrodynamics
##ix
counts
torque
counter
probes
momenta
priors
observer
fair
##ators
knots
02
today
guidance
answers
avoiding
dependency
##iate
##tory
thanks
##cent
mott
goals
strange
spatio
born
cauchy
neurons
median
packet
straightforward
views
magneto
passing
atlas
recorded
searching
simeq
priori
separately
##ues
course
photo
regret
limitation
##gan
bulge
incomplete
explosion
forest
approximated
reverse
unbounded
handling
brief
susy
2018
unusual
recursive
road
##ght
worst
graphical
viable
grows
respective
math
vibrational
considerations
segment
generalizations
possess
placed
investigates
classic
accounts
interestingly
bath
suited
grbs
relying
##ional
##ller
diamond
textual
##ode
adic
##ots
solely
##lic
offering
01
isomorphism
simplest
formulae
players
99
##etic
simulating
fisher
##ass
fewer
hz
tensors
modulated
era
emitting
trust
##ee
gene
energetic
laplace
##lated
4d
forcing
gr
dl
trapping
##ba
inflationary
choose
directional
2019
granular
updated
escape
satellites
##tting
##50
decaying
2017
##ein
simons
modulus
mixtures
eventually
##ets
##ert
difficulties
pole
##lm
myr
labeling
##sp
goes
transit
##oc
topologically
fall
timescale
2015
##metry
##ulating
raw
referred
##ire
recombination
acts
perspectives
music
flavour
##ier
occurring
highlights
assignment
recovered
restriction
nebula
survival
toric
superposition
valley
ar
hopping
##ice
accounting
msun
##ti
demonstration
sized
##set
##rated
adjacent
diagnostic
##ential
quotient
batch
reports
item
bifurcation
conjectured
situ
baryons
##ency
evolved
protected
latest
helicity
na
mild
doppler
rangle
pass
restrictions
hours
##logy
##ying
yau
##fold
quenched
mask
waveguide
erg
##late
##out
possibilities
insulating
selecting
##normal
knot
interpretability
projects
emerges
uncertain
winds
revealing
instruments
timescales
slowly
projections
casimir
controls
generalizing
##hip
reached
##nding
themselves
ti
2016
##nes
exhibiting
maximization
smoothing
expectations
pump
charm
analysed
triangle
##ie
faces
##ake
dialogue
nanoparticles
ongoing
unlabeled
ages
player
route
primitive
##ae
subspaces
interferometer
detections
protons
kepler
released
magnitudes
##tz
asymmetries
##mc
discontinuous
spherically
remnant
lying
trigger
##ens
characters
promise
##ering
informed
truncated
pruning
protection
scattered
von
matches
piecewise
amplification
computers
##ex
gyr
stabilization
1000
radar
##20
treat
budget
prospects
refined
shallow
scatter
return
##ni
serves
##magnetic
matched
things
rendering
superiority
##per
broadband
##ws
operate
sentiment
prevent
##izes
conducting
cutoff
summary
expect
planes
condensed
bits
drawn
decade
conservative
auto
segments
##ures
fm
##ants
neither
##roid
filaments
doubly
##particle
##res
33
align
##our
aimed
##rade
##und
boost
unprecedented
yukawa
cl
repulsive
ever
definitions
##pa
patch
times10
galois
encode
reviewed
older
thz
##oidal
incompressible
lyman
millimeter
feynman
hadrons
##ids
huge
colliders
##uting
cool
electrodynamics
explains
runs
fails
zeros
morphological
explores
spreading
lightweight
##mers
accompanied
elliptical
removal
phonons
reproduced
believe
prompts
ast
definite
shifted
hyper
opportunity
consuming
streams
##ened
shorter
intense
xmm
grown
hausdorff
uav
quantification
exploits
percent
tokens
intuitive
##sa
discs
##em
heavily
targeted
add
accelerating
2012
deriving
witten
multiplication
revisit
strict
denote
mappings
oscillatory
##uing
accelerator
reaches
tissue
##graph
##ley
desirable
meet
##end
##onium
sfr
##ash
automorphism
unbiased
attempts
##mp
2010
hawking
quasiparticle
nanoscale
solvers
severe
transformed
probably
never
deduce
##ters
anderson
becoming
plausible
corona
equilibria
calabi
pde
##ock
modify
##tch
emotion
liquids
resonator
grow
##ml
fitted
31
deeper
weather
##ver
brown
nodal
annealing
2000
semigroup
irregular
iterations
formulations
##kin
phenomenology
sheet
similarities
relating
scaled
transmit
exploited
##utation
constraining
assessing
volumes
##ativity
##form
decoupling
passage
uniquely
traces
electrostatic
##ey
conditioned
magnetized
skew
nitrogen
##lo
bert
developers
analogy
databases
personalized
flight
know
acquired
lidar
outburst
advance
##back
##mann
discriminative
generalised
reconnection
gibbs
connecting
runtime
lstm
2011
mathematics
deposition
##ulator
##ges
cavities
ahler
rigidity
mentioned
python
indicators
carriers
healthcare
agnostic
##rus
attracted
subjects
nematic
vanishes
table
ln
supply
division
bethe
bloch
recommendations
readily
reflect
##ax
mathsf
advancements
poincar
sectors
##off
completeness
magnetism
atmospheres
messages
quadrupole
2014
int
entirely
monopole
risks
interested
drug
team
remove
##ust
wavelet
ubiquitous
doublet
greedy
aiming
reflected
linearized
##way
international
sp
impurities
simulator
norms
positron
span
maximally
##ture
highlighting
##of
opening
stack
conceptual
##symmetric
preferred
relational
astronomical
packing
##bm
##ond
cylindrical
dilaton
read
##eg
reservoir
closer
totally
36
poorly
##ced
extragalactic
ejecta
coloring
agrees
##vability
detectable
triggered
conjugate
reasons
tangent
##o2
##feld
ch
checking
broader
again
regardless
reproduces
##action
maximizing
##cc
determinant
disjoint
accelerate
circumstellar
overlapping
2013
sea
damage
multidimensional
contraction
##cl
unfortunately
commercial
prescribed
astronomy
transportation
proteins
branches
adoption
ga
##gm
ferroelectric
patches
coordination
dispersive
sometimes
supermassive
innovative
cameras
neighbors
plasmas
token
round
taylor
utilization
gained
hypotheses
##lating
going
##field
outline
fb
originally
unity
secondly
ism
propto
aid
##ast
metastable
tune
##ined
##rf
arrival
entries
daily
owing
incorporated
nilpotent
guaranteed
##ners
##uate
progenitor
liouville
##ncing
foreground
55
emissions
2021
dipolar
powered
textrm
##iated
##ude
governing
##sibility
simplicial
drag
lived
linguistic
85
03
f1
preparation
teacher
artifacts
specification
clock
##oor
##pping
reversible
surrogate
150
porous
reynolds
##mark
##over
aerial
covered
bps
##ivities
smoothness
delays
##harmonic
contributes
pdes
34
leptons
concerned
incremental
coincides
belief
demands
replaced
devoted
ensures
beamforming
coexistence
integrates
##stein
tube
##els
express
randomness
meanwhile
##med
relay
starburst
union
transparency
##stic
lemma
readout
accreting
filament
pretrained
claim
arc
organization
65
te
fabrication
handed
nonparametric
controllable
calibrated
##rant
ne
29
convective
synthesized
gordon
gold
obstacle
##ht
tunnel
rough
tractable
implying
##imeter
cyber
nucleation
pixels
delayed
registration
editing
##ul
##aking
shed
breaks
countries
dp
isospin
permutations
##urate
swift
##ronic
confirms
multilingual
concentrations
unification
##onic
education
hexagonal
pricing
locality
dramatically
transparent
otimes
explaining
ultracold
vast
filled
nabla
robotics
facilitates
inclination
96
speeds
##meter
whenever
hoc
##board
measurable
seem
droplet
langle
##nse
classifying
##ality
conjectures
ly
ce
##ended
recall
successive
terminal
solids
dealing
station
##acing
texts
couple
coincide
sentences
displays
reionization
collect
roots
bring
##using
azimuthal
markets
##nic
##bh
regarded
##24
instruction
quantifying
eeg
wider
##art
##mo
identifies
hypersurfaces
simplicity
posedness
waals
##iling
keeping
multiscale
exceeds
approximating
nested
plate
nonnegative
##jection
business
manually
parent
amorphous
care
grids
nash
discrimination
rayleigh
integrability
delivery
preserves
##ale
cooperation
consist
##uring
lett
##nted
dnns
ris
margin
##imetric
plan
ultrafast
gender
bubbles
barriers
vital
recurrence
##bly
hundreds
aided
volatility
##ographic
ba
probed
pointed
kinetics
oscillating
did
thesis
cap
practices
stock
centric
thresholds
equality
varied
specialized
tracing
opinion
##metric
##ple
##ig
bottleneck
##imal
##cm
##ya
intriguing
alma
##tories
informative
##visible
subgraph
facility
##uctive
##hedral
motivation
2008
minima
spacing
continue
eigenstates
quenching
restoration
reviews
template
battery
sophisticated
pronounced
modelled
monitor
##most
careful
roles
illumination
spinor
autoencoder
axisymmetric
solves
alleviate
rhic
magnetoresistance
shortest
2009
catalogue
orbitals
ps
instantaneous
travel
moves
##va
university
develops
##points
south
langevin
options
semiconductors
ionic
plasmon
leakage
heterostructures
cc
##ball
diseases
repeated
geodesics
ultimately
interfacial
antennas
spot
topologies
##17
##ham
agns
differs
summarization
dex
broadening
compressible
fibers
offset
##ney
reflecting
##ame
modulo
penalty
##rl
5g
mapped
records
propagator
categorical
presentation
##gon
widespread
unitarity
bounding
belong
##ogenesis
resolutions
twin
aperture
instanton
removing
distortions
tip
44
eccentricity
adopting
bs
ago
##ked
jupiter
##izer
choosing
astrophysics
mesoscopic
eye
oracle
scan
spinning
divided
defines
##coming
baryonic
##dal
##valent
##ys
suite
##15
played
xy
##ung
epidemic
decompositions
##bo
clarify
stored
magnon
db
##vo
asr
clients
spitzer
cylinder
exclusive
aggregate
plasmonic
111
##licate
alternatives
##ometry
finds
lateral
inconsistent
mitigation
precession
criticality
##vin
400
fading
believed
tumor
influenced
appearing
helical
eff
summarize
technological
tens
dominate
br
realizations
presenting
record
formally
spatiotemporal
##go
rapidity
##sation
articles
blow
balancing
37
establishes
inductive
##truction
frobenius
agb
mr
ic
relaxed
wire
grand
popularity
versatile
##nders
04
##inated
client
##air
unexpected
equally
##ians
methodologies
schwinger
ll
##cise
viewpoint
##unch
##hler
##als
##ected
apart
48
bilinear
##my
##ker
##ining
recommender
##60
##astic
rydberg
cancellation
hope
forecast
sided
hartree
terrestrial
automorphisms
functionality
indicator
preserved
imagenet
##imate
breakdown
hardness
claims
blind
hamilton
continuation
constitute
##14
##marks
influences
optimum
##tivity
##vector
##ading
mathscr
irradiation
switch
##width
##pass
malicious
resonators
##spectral
##s2
purposes
argued
toroidal
2007
magic
##ution
##oton
hii
##ils
##sis
2022
positivity
imbalance
interferometry
64
##ser
assigned
partitioning
unconventional
##where
emitters
##iation
substrates
lithium
proposals
proves
controllers
##dit
personal
##ads
prepared
beneficial
38
thousands
comprising
connect
removed
sgr
##icity
failures
asynchronous
experiences
transmitted
quiescent
seed
##vi
termed
wasserstein
collinear
causality
pumping
##oting
enriched
##lin
excitons
eigenfunctions
contacts
correlators
##au
##py
obstacles
secret
##sence
backbone
doing
impossible
mc
compatibility
##biguous
##liance
convexity
carrying
unclear
national
write
saddle
evolves
companions
lmc
scope
fano
ds
persistence
##ptic
resolving
magellanic
hosts
hardy
heart
monotonic
berry
symbols
voice
evaporation
mssm
seyfert
##ase
party
symbol
skin
gtrsim
##ford
centrality
waveform
pauli
##uly
##akes
##cts
##x10
##itable
dose
truncation
dominates
pandemic
contamination
intensities
42
##30
##graphs
geometrically
##uities
undergo
alloys
##mb
##cn
##used
##izability
fluorescence
compositional
##nk
cms
bcs
chinese
intended
exoplanets
concentrated
##ene
##ins
##rg
##16
damped
exoplanet
##io
##ack
neighboring
relic
##val
compactness
vapor
##morphic
bending
##rge
keep
clumps
semigroups
traveling
##all
hydrodynamical
peer
prices
benchmarking
arms
separating
##eep
##lc
##ifiable
packets
examining
charging
##cal
cpu
returns
gnns
distinguished
originating
ambiguity
possesses
conjunction
ghost
elasticity
h2
tails
##ob
43
absent
skills
##sampling
##ement
cumulative
##iss
pulsed
##sonic
kg
board
surprising
lasers
horizons
stacking
sheaves
stringent
trial
insufficient
98
statistic
cache
##ao
indoor
##mographic
notes
##nov
plateau
bootstrap
spontaneously
gnn
dynamo
quantified
expand
periodicity
##ok
##eet
extrapolation
gross
vacancy
iteratively
colored
##eration
##fall
paramagnetic
defense
##ave
attenuation
##dinal
exclusion
consecutive
discusses
european
twitter
oh
optimally
##lms
vulnerable
reliably
remnants
spectrograph
##ition
colloidal
##lattice
primes
trading
adapting
##tl
parametrization
56
##vent
exp
slip
nine
##ga
droplets
try
optimisation
2006
rr
subseteq
##gram
39
##05
hodge
interpretations
##ection
001
characterizations
refine
incidence
frustrated
bayes
autoregressive
##ph
chapter
spectrometer
processed
living
statement
thermoelectric
##ken
centralized
ingredient
option
virial
aforementioned
emphasize
sf
periodically
##sions
shadow
##nch
attractor
correctness
realizing
##iring
gaas
borel
##ulations
practitioners
compositions
mod
epochs
say
##fi
biology
dimer
leptonic
fragments
##nds
chromatic
gradually
polymers
accordingly
##lab
##96
naive
##tering
##graphic
galerkin
##uted
##lax
##fa
##ility
##stream
vorticity
behave
##ntial
behavioral
##fiability
id
##sc
manufacturing
correcting
scalars
##space
nlo
##mit
exterior
rigorously
distinguishing
format
fr
pathways
##13
looking
adsorption
##11
thorough
city
perfectly
2s
deals
flip
##ncies
depletion
##ump
creates
nmr
cones
2005
logistic
substitution
repulsion
csi
affecting
##ther
accumulation
exhibited
##40
47
##km
squeezed
ladder
##ibration
page
cuprates
ends
##bilities
##side
analogues
linking
brings
stopping
constituent
driver
nucleosynthesis
inherently
lot
empty
marked
stabilized
##word
somewhat
##lis
electronics
##oth
visibility
##ored
organized
revisited
changed
##volution
easier
##utive
##ucibility
countable
##pective
##tr
chirality
schur
##uple
##time
academic
alice
analytics
refer
melting
photoemission
jumps
regard
attached
soc
##vable
freely
adaptively
reductions
propagate
virgo
hyperfine
##mi
lastly
##nate
cardinality
protoplanetary
heuristics
continual
tracks
##cr
initialization
interlayer
boosting
pseudoscalar
##inting
paired
usefulness
bang
##uation
floquet
loading
kolmogorov
##ucible
lab
stat
generically
rotations
renormalized
##gulated
ph
functor
quad
##cy
pd
nanotubes
##02
##bert
##itz
assessed
concern
##ories
leaves
06
##ath
##dule
neq
skyrmion
##odes
outliers
magnetically
encountered
distributional
collisional
terahertz
costly
reproducing
cherenkov
##zed
41
##arrow
bec
member
shaping
explainable
##former
dictionary
reactive
absorbing
talk
suppress
##rum
ginzburg
signs
120
notable
multilayer
subtle
facilities
##rting
##po
belonging
squeezing
continued
placement
87
cd
membership
upsilon
outperforming
inertia
none
assumes
rs
orientations
perovskite
resp
shells
predominantly
dilute
##wer
toy
belongs
##nel
2004
hypergraph
##03
76
orbifold
speedup
specifications
##lands
attraction
poles
excluded
iterated
##18
##vasive
##spheric
pdf
##ones
##otic
intervention
resilience
stiffness
lagrange
##hm
ligo
drastically
tevatron
metallicities
##cordance
causing
interferometric
minimax
##nces
##ionic
##tube
##lar
mismatch
##dp
debris
favorable
##97
traditionally
exceed
deduced
clip
histories
magnets
st
hypersurface
relates
north
drawing
incoherent
live
rectangular
lifshitz
##head
##ured
upcoming
hysteresis
receive
beginning
convenient
##gment
sed
electrodes
##ucture
facts
gpa
convergent
##active
##body
reconstructing
stations
proxy
rg
##ats
transferred
##ises
indicated
##essing
eddington
folding
##opic
gapped
microlensing
acquire
encryption
68
commuting
##wa
##book
biomedical
portfolio
##encies
##llation
gc
scans
ill
##essed
##fv
middle
replace
promote
##rators
##ray
fake
##df
##01
##mitted
tolerant
##lt
arrangement
##dic
fabricated
mutually
##ini
polytopes
##acy
writing
##wards
unless
ballistic
##let
instructions
replacing
proposing
hecke
nanowires
covariates
operatorname
##box
2k
##ructure
expressive
pca
accelerators
compactification
##ense
said
associative
vulnerabilities
concave
vanish
##oms
##titude
reading
##cluster
##sal
##aft
##cence
fairly
sterile
intricate
exposed
fill
##rium
undergoes
prone
enrichment
##oy
comprises
spike
isotopes
eliminate
incorrect
##nge
##iodic
##thing
##ulum
quartic
##omy
##uclear
spacecraft
frequent
lifetimes
confirming
draw
ag
##jective
denotes
sin
cartan
##di
chatgpt
##ime
killing
##rator
lost
##ded
##nomy
##ained
recovering
diagnostics
nir
devise
seconds
hypergeometric
induction
##ich
glasses
pressures
pretraining
bonds
impressive
instrumental
amenable
movements
shall
##lator
##eed
corollary
impedance
proximal
zeeman
sliding
copies
##gp
irs
stereo
parametrized
pilot
uncover
dephasing
harmonics
seismic
##oto
divergences
threat
en
denoted
signed
vec
vulnerability
##asing
##hr
##iating
avoids
fluctuating
minutes
spurious
originate
weighting
equiv
imposing
mini
rewards
facilitating
##lov
97
lightest
orbiting
isothermal
motor
builds
eos
archival
unresolved
hundred
##ply
intersections
##ites
regulation
##lization
twice
conflict
##zation
disruption
lacking
##imated
minimally
plans
##mes
codimension
slice
pl
##ull
appropriately
pinning
jordan
southern
abstraction
##tle
##ql
axes
lorentzian
redundancy
quench
anisotropies
psr
inflaton
name
origins
io
dim
##tuning
approaching
awareness
straight
thermally
adversary
meshes
##ctor
##cp
society
##fer
tables
clifford
##production
serious
2003
concurrent
giants
##rts
imperfect
predictor
vacua
workflow
##lay
##site
fixing
cuts
layout
##vy
##ption
08
mcmc
##ropic
entropic
masked
rashba
suffers
death
gans
jwst
##olution
gapless
genuine
##formation
nb
expanded
monotonicity
starts
susceptible
authentication
sota
exceeding
parsing
portion
##prise
parties
sciences
ingredients
pr
interpreting
slower
##ntal
cooper
seek
masks
##star
gaseous
ap
widetilde
copy
2023
confining
wild
critically
82
assist
blood
invertible
penetration
afm
cat
obtains
raised
constructive
di
saturated
infection
struggle
##east
##ound
electricity
intrinsically
birth
constitutes
sb
52
reflects
impose
redundant
contributing
##aled
honeycomb
transmitter
##atomic
demonstrations
gp
46
haloes
guidelines
admissible
satisfactory
##correlation
neglected
transients
##ris
subsystems
exciting
##06
perhaps
##mber
bernoulli
automation
treating
discrepancies
##ama
algebraically
##urn
mimic
##ocate
multipliers
coded
adequate
textures
tropical
updating
gromov
##95
resulted
##force
110
dominating
nebulae
alloy
##ologies
processor
missions
##gap
practically
interventions
##rn
##gen
drives
##ops
poly
graviton
##aw
##raded
##ep
##rse
isolation
07
favor
5d
parameterization
##down
##33
##fied
morse
decoupled
google
happens
tori
shower
##kes
##08
accepted
##lution
file
subjective
ood
manifest
abilities
cern
prescription
##load
mach
progenitors
stacked
##crystalline
##sr
cities
nonperturbative
neutrons
comments
mbox
echo
##class
forced
subjected
transiting
brightest
##gies
##plane
##yi
##yon
lat
spiking
##vitation
violations
store
waveguides
computes
conversational
occupation
dusty
car
pooling
unstructured
##hedra
balls
accommodate
forbidden
transitive
boron
characterizes
nanostructures
mitigating
refractive
wires
strip
boundedness
##ster
contents
ks
##table
tradeoff
differentiation
##pace
mathematically
forecasts
##sk
dominance
##vd
feed
ionizing
##electric
quiver
##ctive
thermalization
boxes
necessity
##bing
standards
native
##nesses
teaching
scoring
neuron
67
fracture
striking
##doped
proportion
nova
##ifold
##print
##tate
##gh
##ips
dg
##graphy
##lu
flag
sgd
abridged
statements
##olate
54
phantom
ocean
computable
ask
pointwise
focal
prompting
reciprocal
##critical
setups
treatments
##bb
disturbances
##heating
##ub
equivalently
##ogenous
qa
##ule
##ny
preservation
51
crowd
recognize
insensitive
quasiparticles
##so
afterglow
positioning
rnn
stratified
decomposed
drops
##ied
##lied
rms
dt
##eter
food
evy
##uv
maintenance
##second
##verging
subsystem
250
epitaxial
mw
originates
separations
strategic
##afted
legal
##surface
ablation
##04
mutation
##itic
synchronous
##imation
##isms
92
compressive
implicitly
book
cube
injected
##ages
##sure
hop
##quarks
permits
nanowire
imagery
##iance
remained
unexplored
foundations
tiny
##stable
ultrasound
polytope
conformally
##bi
controllability
##ores
recognized
behaves
political
averages
quotients
gpus
##nsive
##aining
vlt
multipartite
electrode
lasso
##urs
gcs
##brated
quadrature
scientists
##ew
nonconvex
2002
bl
cartesian
stop
##ci
antiferromagnet
salient
##ern
##fy
94
##sn
pareto
##lies
lensed
##uous
cifar
##lling
multiplier
nets
processors
elucidate
burning
pointing
eclipsing
2001
row
congestion
goldstone
steering
##imals
magnet
##agonal
##nium
fundamentally
bandit
aging
diagonalization
locus
plant
servers
endowed
reconfigurable
##beck
boldsymbol
held
##rch
engines
##32
brillouin
fix
warped
hr
staggered
##ptive
##22
guiding
places
##eck
sides
experienced
months
##unction
gets
oplus
trials
obvious
steep
##wavelength
opposed
##rk
associations
##bn
roll
libraries
##plified
abundant
coincidence
##cg
cues
cusp
synthesize
hypergraphs
spots
##ents
##tals
associate
sheets
##21
strongest
advection
##dd
her
nitride
##gonal
cdw
wells
##algebras
##ique
differently
ci
acceptance
dissociation
bare
decide
dinger
##ace
ferromagnet
##minator
##pp
##chi
63
unconstrained
plastic
suitably
inverted
sudden
walker
##bbons
binomial
##tti
modest
corpora
counterfactual
##cient
53
##ach
##ulates
job
membranes
fitness
##fts
##07
unlikely
voting
subtraction
wavefunction
opacity
inefficient
58
##kii
gg
perceptual
converted
crossed
kagome
schrodinger
##ane
inducing
tolerance
operates
##pic
##vation
distinctive
inferring
home
62
decreased
pathway
translational
rb
##atory
##ord
88
86
##uit
600
##70
##semble
paradox
teams
##hat
electro
##ches
##algebra
functors
kink
nambu
reasonably
swarm
fragment
##ove
recursion
severely
##ko
showcase
##scaling
da
prevalent
tailed
##fusion
featuring
asset
modifying
gauged
seesaw
cutting
overfitting
##angle
immediate
polariton
diffractive
dramatic
##87
roughness
minimizes
##rm
##19
##chemical
k3
##lattices
superconformal
##jan
hessian
avoidance
fuel
ontology
immersed
##imetry
kalman
adjusted
century
infinitesimal
signaling
pn
##chromatic
individually
corner
helpful
hybridization
lift
nonlinearities
##ytic
custom
kaon
##lled
##ckling
tubes
##rational
macro
lte
##23
##ibly
leaving
##51
bonnet
divisor
sat
windows
##zable
lp
##cies
##itt
##pi
##shing
pa
imf
convert
##ntation
innovation
implied
##itability
wd
obscured
ip
##spot
eccentric
incoming
##dity
gps
deposited
72
recoil
##ams
93
malware
classically
friendly
polarisation
2m
maser
##hi
caching
segregation
##ctors
##cu
blazars
broadcast
brought
vi
plates
##tte
##potential
adjustment
companies
started
##arning
vocabulary
##che
##erative
##dium
##ands
workshop
##aries
broadly
sic
manipulate
arcsec
accounted
##80
##qcd
##ole
##work
##ending
simplify
cent
isometric
lane
57
freeze
jacobian
lenses
##cate
chance
##ulators
nc
jones
observers
##ox
kitaev
md
fission
peaked
calls
compensation
irrelevant
##sian
##ination
sloan
vr
##ept
photospheric
smc
##erate
fs
arcs
##ura
acceptable
campaign
cme
subgraphs
collecting
forgetting
mo
bidirectional
satisfaction
##25
divide
activated
analysing
##aving
fokker
harvesting
submanifolds
generalisation
##uary
divergent
##mission
disturbance
##composable
characterisation
discovering
##dv
occurred
herschel
##lish
skyrmions
##nar
##ean
##gn
primal
gluons
templates
84
monocular
tilt
solvent
##noid
quiet
contour
leave
##cture
##oa
##ail
specify
##tries
bessel
visually
waveforms
##dules
##nstein
linearity
nominal
deliver
encodes
semimetal
comprehension
##ohn
##omotion
##osition
##lon
m31
novelty
conditioning
generality
##dt
##oelastic
cdots
monopoles
##gating
constructs
##ifying
famous
baxter
##rable
nucleons
##rations
engineered
zones
elusive
traced
78
equatorial
hera
dimensionless
##passes
##ception
reactor
##90
uavs
inspection
##ux
mock
iib
cf
wherein
##min
bp
cayley
instantons
coalescence
adjusting
kac
##grid
##opy
clique
deuteron
##sov
encounter
##cript
smoothly
##09
undergoing
contracts
thoroughly
##rman
elimination
##hedron
completed
downlink
familiar
immediately
moderately
##bt
##lp
##oked
derivations
ramsey
substructure
attractors
pivotal
1s
lifting
hbar
lebesgue
preprocessing
traps
mental
frozen
discussing
grounded
ejection
astrometric
er
syntactic
semidefinite
77
09
##cavity
encoders
sequentially
slam
enhancements
want
herein
mt
##rative
generations
millions
outstanding
planned
rooted
suboptimal
##city
##folds
labelled
##valence
##onal
distorted
##lished
sketch
af
nd
83
stripe
##low
##omorphism
investment
##ann
##surance
cryogenic
##rphism
##uth
##35
des
doubling
examination
deeply
intergalactic
resistive
temporally
cup
##uated
##fl
entropies
##grams
unifying
cohen
##uator
pions
correlate
ode
##ula
##polating
##rous
mmwave
dislocation
vibration
taxonomy
descriptors
imbalanced
##inance
asteroid
ma
##onomic
dr
targeting
puzzle
repair
floating
millisecond
##ocal
compares
91
threats
negatively
##iological
##urable
##sembling
residue
##parability
cn
wealth
provably
predictors
##curacies
electrically
extrinsic
wormhole
2p
adjust
syst
##ingly
frustration
workers
##ifier
##mar
##ously
##bling
##ules
##tching
positively
##dynamics
##ek
##ona
##iptic
pedestrian
##48
##rov
suppose
##ctic
actively
bogoliubov
icecube
transaction
noises
##light
hierarchies
mix
##ject
sine
##oning
66
absorbed
surgery
##cial
rarely
hadamard
##obe
##ndered
catastrophic
files
##fm
lisa
pipelines
##issner
aggregates
customer
braid
fifth
undirected
requests
um
diffeomorphisms
genes
ruled
ultimate
##compact
tilted
##93
##dc
equals
hosting
combinatorics
manage
saliency
##bic
perceived
sym
##rometry
initiated
compactifications
showers
belt
continues
characterise
vibrations
tagging
appeared
genome
helmholtz
discontinuity
bonding
lag
##ahedral
contemporary
transforming
locked
semisimple
##sist
stresses
##iant
url
pseudogap
couples
##utions
conserving
conjugacy
vert
publications
unable
##fr
##sky
donor
triangles
##ha
##94
##gnition
learner
complexities
##ely
wiener
##mon
ee
my
you
##nm
advancing
49
excitonic
imitation
multipole
##odal
##cast
offs
##nns
http
lingual
receivers
##uo
neutralino
stem
am
eigenvectors
slight
##cycle
##metries
morphologies
intractable
occupancy
##uli
##ost
metamaterials
skeleton
73
vlasov
##hoff
playing
decline
ssl
educational
nv
progressive
##alt
atomistic
teleportation
bohm
##pr
##loy
##hood
tendency
##namic
acyclic
intersecting
microscope
##plifies
ep
tracer
##clude
api
surveillance
iso
##lets
clustered
gravitating
smoothed
74
photoproduction
obey
emotional
domination
quantile
replica
flavors
89
comb
intent
paradigms
##ect
prevents
robustly
figure
retrieve
summation
heated
ferromagnetism
drivers
alternatively
citation
infected
##omorphisms
##ody
aggregated
iras
oxides
##leading
insertion
arrangements
merge
wake
assign
raises
adjacency
restrict
shannon
stabilize
##gy
estimations
##tre
concentrate
purity
##correlated
bars
##inking
61
gaussianity
eliminating
locking
##ching
##phone
##uples
publication
##map
tightly
decompose
protect
##product
dyson
ecosystem
##ometer
networking
optomechanical
##ctional
admitting
es
ternary
organizations
kaluza
##rupted
integrity
isometry
##ically
##ulse
erd
transactions
##phy
##max
##ima
##ily
morphisms
##row
determinations
clump
burden
heterotic
##ug
mind
fpga
gravitationally
##iness
##olar
examines
regulatory
filtered
##ames
##cci
translations
##tively
##code
advancement
microstructure
northern
alter
school
##card
multiplexing
determinants
zn
injective
mnist
##pm
##quity
offered
falls
##cking
##eric
##pelling
closest
chamber
##mma
differentially
apparently
spite
##gate
logics
##osphere
schmidt
##kit
discussions
exploitation
circulation
transfers
##loading
conical
percentage
vlbi
##eted
dispersions
##dr
maintains
resilient
ann
##istribution
##ang
81
luttinger
discriminate
##ulsion
billion
cyclotron
recovers
svm
demanding
gave
brighter
discretized
capillary
efficiencies
fed
assembled
attacker
resummation
##3d
drl
##ulus
##usive
buffer
bn
1999
isotope
deformable
characterised
paves
translate
wedge
rabi
##rtz
footprint
rounds
##yl
virtually
crack
communicate
appealing
lhcb
magnetohydrodynamic
##arm
##stability
exit
avoided
conversely
collections
slit
backdoor
eu
##cel
##oud
stacks
filtration
termination
customers
##homogeneity
##rupt
rising
cryptography
normally
##kel
##finite
slopes
##ovich
71
semimetals
prototypical
tr
##idation
viewing
##alpha
##bach
##bet
##cke
1998
##gc
##ounce
##kl
##sb
probable
superstring
##backs
monodromy
##tial
tracers
partly
stark
regional
crossings
highlighted
##bbon
mk
nonlocality
exclusively
queue
logarithm
##fc
##sd
debate
crucially
##usion
app
##92
serving
absorbers
hydrostatic
##atings
##cer
muons
regge
friedmann
absolutely
##forming
providers
enumeration
asteroids
claimed
andreev
zhang
##inating
mas
soon
##ued
##ugh
grating
reductive
##gged
##jet
##qs
##vel
##elled
##nsible
noma
semantically
##ods
boosted
trains
##rial
##rie
healthy
##ctures
axioms
latitude
##lmer
colours
stabilizing
faults
##iii
bank
##modular
##roids
##ith
##vities
##licities
##thermal
lives
blocking
colliding
co2
kinematical
##by
plasticity
##ances
copper
##bl
##cination
convolutions
push
qkd
##eous
secrecy
##brate
ease
replacement
##27
pool
shelf
##ater
##usivity
renewable
##ome
##ctile
##istor
##rsor
interferometers
pore
##rand
learnable
encourage
tess
##bc
##o4
progressively
recognizing
cultural
fibre
ridge
whilst
bc
##enger
##tachment
automaton
##ocity
ex
##umer
eclipse
default
##coding
nowadays
paid
slab
turing
volumetric
diffeomorphism
autoencoders
absorber
secular
manipulating
##rb
engagement
sustainable
supercritical
##ill
##ptor
underwater
cast
coordinated
##ava
##gers
##mode
##tered
sam
implication
faraday
nonrelativistic
parallelism
##current
##ntable
cryptographic
femtosecond
participation
##ices
##ught
holography
uplink
##worthy
maintained
blazar
monomial
architectural
inhomogeneities
##lung
inform
lax
semileptonic
progression
brst
qso
void
isotopic
skill
##ctory
##tent
shifting
ta
##uration
##rite
##ucting
##pts
motivate
##vich
depths
protostellar
##cher
bipolar
occupied
cuprate
correspondences
gated
##wide
keywords
##lates
wmap
tm
##lla
rna
generalizability
stratification
##enue
outlier
refers
valuation
pitch
violated
##mechanical
##roidal
piece
##ong
el
stein
subalgebra
hyperparameters
##ount
stated
resnet
##cting
##reen
photoluminescence
##emic
##nable
##ume
##gl
##heimer
##rking
captioning
reconstructions
##wood
##osed
##writing
complements
sz
jamming
pulsation
congruence
##lliard
gd
69
frontier
ij
illustrates
##ander
microns
ieee
##oelectric
bolometric
##oliation
##pose
##sl
plug
##weets
ss
divisors
spirals
surgical
##nation
stimulated
##ider
children
pieces
submillimeter
##eeds
assets
##imp
##ogeneity
grasp
un
##forced
explainability
revised
alongside
harder
nonetheless
##cluding
martingale
cardiac
moir
retrieved
retain
##alysis
catalogs
##acities
##ident
##stitute
belle
bridging
opinions
predefined
behaviours
khz
triples
conference
polaritons
##renstein
land
##ski
##sq
cv
interests
##itional
ethical
whereby
##md
illustrative
wavefront
metadata
##55
##rain
perp
workload
##91
permanent
resultant
vacancies
##ground
circumstances
##72
##iciency
##scent
finiteness
fronts
##ignment
sd
optic
reflections
session
attain
surrounded
##ciding
unmanned
##urbed
##vic
carries
emitter
mp
arrive
##ratory
deploying
##que
eulerian
transferring
auc
maxima
##tc
##port
##iving
lee
sectional
qos
encounters
##cidable
coxeter
##alized
searched
toeplitz
bin
##polar
##kers
destination
##llapsing
discoveries
##rve
implements
uniaxial
##ract
favored
##tronics
shortcomings
verifying
##jy
indication
grothendieck
hyperparameter
identically
synchronized
59
seeking
##nol
##versible
join
fire
##poration
worse
##rine
wrong
##ilities
monoidal
faithful
resembles
##uent
##acket
##solar
bag
hull
bins
marginally
noether
wang
##ansistors
monolayers
functionalities
heavier
ignored
##edit
bus
photoionization
aligning
##linary
fly
monitored
poincare
##angled
##rc
winding
retaining
entry
mars
programmable
##changed
##dicative
##quest
79
lacks
##nting
##phase
albeit
envelopes
deflection
##ishable
##cked
turning
##etrology
intermittent
meeting
##borate
##pton
800
##tracting
##sine
##vc
multilevel
##physical
hermite
##rp
##scattering
ejected
tabular
displacements
positional
##ulant
radially
##!
##"
###
##$
##%
##&
##'
##(
##)
##*
##+
##,
##-
##.
##/
##:
##;
##<
##=
##>
##?
##@
##[
##\
##]
##^
##_
##`
##{
##|
##}
##~
##¤
##¿
