{
  "version": "1.0",
  "truncation": null,
  "padding": null,
  "added_tokens": [
    {
      "id": 0,
      "content": "[PAD]",
      "single_word": false,
      "lstrip": false,
      "rstrip": false,
      "normalized": false,
      "special": true
    },
    {
      "id": 1,
      "content": "[UNK]",
      "single_word": false,
      "lstrip": false,
      "rstrip": false,
      "normalized": false,
      "special": true
    },
    {
      "id": 2,
      "content": "[START]",
      "single_word": false,
      "lstrip": false,
      "rstrip": false,
      "normalized": false,
      "special": true
    },
    {
      "id": 3,
      "content": "[END]",
      "single_word": false,
      "lstrip": false,
      "rstrip": false,
      "normalized": false,
      "special": true
    }
  ],
  "normalizer": null,
  "pre_tokenizer": {
    "type": "Whitespace"
  },
  "post_processor": null,
  "decoder": null,
  "model": {
    "type": "WordPiece",
    "unk_token": "[UNK]",
    "continuing_subword_prefix": "##",
    "max_input_chars_per_word": 100,
    "vocab": {
      "[PAD]": 0,
      "[UNK]": 1,
      "[START]": 2,
      "[END]": 3,
      "!": 4,
      "\"": 5,
      "#": 6,
      "$": 7,
      "%": 8,
      "&": 9,
      "'": 10,
      "(": 11,
      ")": 12,
      "*": 13,
      "+": 14,
      ",": 15,
      "-": 16,
      ".": 17,
      "/": 18,
      "0": 19,
      "1": 20,
      "2": 21,
      "3": 22,
      "4": 23,
      "5": 24,
      "6": 25,
      "7": 26,
      "8": 27,
      "9": 28,
      ":": 29,
      ";": 30,
      "<": 31,
      "=": 32,
      ">": 33,
      "?": 34,
      "@": 35,
      "[": 36,
      "\\": 37,
      "]": 38,
      "^": 39,
      "_": 40,
      "`": 41,
      "a": 42,
      "b": 43,
      "c": 44,
      "d": 45,
      "e": 46,
      "f": 47,
      "g": 48,
      "h": 49,
      "i": 50,
      "j": 51,
      "k": 52,
      "l": 53,
      "m": 54,
      "n": 55,
      "o": 56,
      "p": 57,
      "q": 58,
      "r": 59,
      "s": 60,
      "t": 61,
      "u": 62,
      "v": 63,
      "w": 64,
      "x": 65,
      "y": 66,
      "z": 67,
      "{": 68,
      "|": 69,
      "}": 70,
      "~": 71,
      "¤": 72,
      "¿": 73,
      "the": 74,
      "of": 75,
      "and": 76,
      "in": 77,
      "to": 78,
      "we": 79,
      "for": 80,
      "is": 81,
      "that": 82,
      "with": 83,
      "on": 84,
      "##s": 85,
      "this": 86,
      "by": 87,
      "are": 88,
      "as": 89,
      "an": 90,
      "from": 91,
      "be": 92,
      "which": 93,
      "at": 94,
      "model": 95,
      "can": 96,
      "our": 97,
      "data": 98,
      "two": 99,
      "it": 100,
      "based": 101,
      "these": 102,
      "using": 103,
      "results": 104,
      "show": 105,
      "time": 106,
      "also": 107,
      "models": 108,
      "have": 109,
      "or": 110,
      "quantum": 111,
      "between": 112,
      "such": 113,
      "field": 114,
      "##ing": 115,
      "has": 116,
      "one": 117,
      "paper": 118,
      "study": 119,
      "method": 120,
      "system": 121,
      "non": 122,
      "energy": 123,
      "not": 124,
      "high": 125,
      "##d": 126,
      "new": 127,
      "state": 128,
      "their": 129,
      "learning": 130,
      "its": 131,
      "systems": 132,
      "large": 133,
      "theory": 134,
      "##ed": 135,
      "##ly": 136,
      "approach": 137,
      "problem": 138,
      "different": 139,
      "both": 140,
      "order": 141,
      "space": 142,
      "present": 143,
      "first": 144,
      "all": 145,
      "analysis": 146,
      "well": 147,
      "where": 148,
      "more": 149,
      "mass": 150,
      "than": 151,
      "when": 152,
      "been": 153,
      "number": 154,
      "methods": 155,
      "used": 156,
      "function": 157,
      "##t": 158,
      "phase": 159,
      "into": 160,
      "proposed": 161,
      "##r": 162,
      "properties": 163,
      "performance": 164,
      "over": 165,
      "structure": 166,
      "low": 167,
      "some": 168,
      "find": 169,
      "only": 170,
      "##e": 171,
      "dimensional": 172,
      "network": 173,
      "work": 174,
      "magnetic": 175,
      "spin": 176,
      "but": 177,
      "information": 178,
      "use": 179,
      "case": 180,
      "##a": 181,
      "other": 182,
      "however": 183,
      "states": 184,
      "propose": 185,
      "algorithm": 186,
      "while": 187,
      "density": 188,
      "set": 189,
      "distribution": 190,
      "##er": 191,
      "##o": 192,
      "three": 193,
      "type": 194,
      "then": 195,
      "through": 196,
      "linear": 197,
      "if": 198,
      "under": 199,
      "framework": 200,
      "each": 201,
      "networks": 202,
      "single": 203,
      "functions": 204,
      "##n": 205,
      "scale": 206,
      "dynamics": 207,
      "general": 208,
      "due": 209,
      "provide": 210,
      "finite": 211,
      "parameters": 212,
      "potential": 213,
      "temperature": 214,
      "local": 215,
      "point": 216,
      "most": 217,
      "10": 218,
      "##al": 219,
      "may": 220,
      "process": 221,
      "real": 222,
      "how": 223,
      "multi": 224,
      "observed": 225,
      "demonstrate": 226,
      "given": 227,
      "any": 228,
      "obtained": 229,
      "##i": 230,
      "range": 231,
      "result": 232,
      "##m": 233,
      "equation": 234,
      "##y": 235,
      "level": 236,
      "many": 237,
      "within": 238,
      "they": 239,
      "there": 240,
      "##l": 241,
      "solutions": 242,
      "##c": 243,
      "small": 244,
      "effect": 245,
      "##p": 246,
      "was": 247,
      "experiments": 248,
      "group": 249,
      "equations": 250,
      "power": 251,
      "up": 252,
      "particular": 253,
      "terms": 254,
      "applications": 255,
      "here": 256,
      "found": 257,
      "effects": 258,
      "graph": 259,
      "rate": 260,
      "ray": 261,
      "image": 262,
      "form": 263,
      "known": 264,
      "detection": 265,
      "solution": 266,
      "conditions": 267,
      "class": 268,
      "training": 269,
      "novel": 270,
      "neural": 271,
      "surface": 272,
      "numerical": 273,
      "recent": 274,
      "complex": 275,
      "effective": 276,
      "several": 277,
      "parameter": 278,
      "light": 279,
      "transition": 280,
      "star": 281,
      "prove": 282,
      "fields": 283,
      "experimental": 284,
      "deep": 285,
      "current": 286,
      "features": 287,
      "optical": 288,
      "via": 289,
      "##es": 290,
      "consider": 291,
      "problems": 292,
      "gamma": 293,
      "wave": 294,
      "matter": 295,
      "control": 296,
      "like": 297,
      "strong": 298,
      "will": 299,
      "various": 300,
      "free": 301,
      "out": 302,
      "simulations": 303,
      "standard": 304,
      "galaxies": 305,
      "simple": 306,
      "evolution": 307,
      "random": 308,
      "observations": 309,
      "stars": 310,
      "possible": 311,
      "including": 312,
      "shown": 313,
      "algorithms": 314,
      "interaction": 315,
      "same": 316,
      "very": 317,
      "compared": 318,
      "classical": 319,
      "limit": 320,
      "multiple": 321,
      "higher": 322,
      "matrix": 323,
      "self": 324,
      "size": 325,
      "optimal": 326,
      "further": 327,
      "##2": 328,
      "emission": 329,
      "long": 330,
      "design": 331,
      "black": 332,
      "no": 333,
      "about": 334,
      "times": 335,
      "source": 336,
      "critical": 337,
      "existing": 338,
      "even": 339,
      "without": 340,
      "##f": 341,
      "domain": 342,
      "alpha": 343,
      "##ity": 344,
      "measurements": 345,
      "##ic": 346,
      "second": 347,
      "particle": 348,
      "investigate": 349,
      "electron": 350,
      "formation": 351,
      "##0": 352,
      "associated": 353,
      "coupling": 354,
      "so": 355,
      "spectrum": 356,
      "symmetry": 357,
      "##g": 358,
      "value": 359,
      "were": 360,
      "spectral": 361,
      "accuracy": 362,
      "obtain": 363,
      "mathbb": 364,
      "discuss": 365,
      "frequency": 366,
      "efficient": 367,
      "values": 368,
      "important": 369,
      "images": 370,
      "gas": 371,
      "##b": 372,
      "behavior": 373,
      "interactions": 374,
      "language": 375,
      "flow": 376,
      "lattice": 377,
      "introduce": 378,
      "significant": 379,
      "line": 380,
      "task": 381,
      "way": 382,
      "noise": 383,
      "previous": 384,
      "boundary": 385,
      "give": 386,
      "zero": 387,
      "techniques": 388,
      "optimization": 389,
      "tasks": 390,
      "dark": 391,
      "sample": 392,
      "during": 393,
      "corresponding": 394,
      "theoretical": 395,
      "related": 396,
      "##on": 397,
      "bound": 398,
      "finally": 399,
      "physical": 400,
      "similar": 401,
      "structures": 402,
      "region": 403,
      "research": 404,
      "those": 405,
      "##h": 406,
      "thus": 407,
      "scattering": 408,
      "processes": 409,
      "near": 410,
      "galaxy": 411,
      "constant": 412,
      "lower": 413,
      "approximation": 414,
      "allows": 415,
      "them": 416,
      "approaches": 417,
      "main": 418,
      "##v": 419,
      "##able": 420,
      "classification": 421,
      "studies": 422,
      "studied": 423,
      "specific": 424,
      "datasets": 425,
      "representation": 426,
      "generation": 427,
      "application": 428,
      "available": 429,
      "provides": 430,
      "consistent": 431,
      "dataset": 432,
      "mean": 433,
      "groups": 434,
      "recently": 435,
      "##k": 436,
      "topological": 437,
      "art": 438,
      "constraints": 439,
      "open": 440,
      "physics": 441,
      "spatial": 442,
      "cross": 443,
      "applied": 444,
      "error": 445,
      "nonlinear": 446,
      "global": 447,
      "scheme": 448,
      "particles": 449,
      "test": 450,
      "simulation": 451,
      "knowledge": 452,
      "presented": 453,
      "end": 454,
      "stellar": 455,
      "lambda": 456,
      "##1": 457,
      "mathcal": 458,
      "correlation": 459,
      "graphs": 460,
      "cases": 461,
      "velocity": 462,
      "motion": 463,
      "hole": 464,
      "dependent": 465,
      "points": 466,
      "code": 467,
      "machine": 468,
      "rm": 469,
      "gauge": 470,
      "induced": 471,
      "resolution": 472,
      "initial": 473,
      "measure": 474,
      "3d": 475,
      "presence": 476,
      "text": 477,
      "cluster": 478,
      "vector": 479,
      "significantly": 480,
      "##x": 481,
      "mu": 482,
      "spaces": 483,
      "derived": 484,
      "feature": 485,
      "distance": 486,
      "certain": 487,
      "context": 488,
      "human": 489,
      "estimation": 490,
      "probability": 491,
      "sources": 492,
      "pi": 493,
      "called": 494,
      "dynamical": 495,
      "existence": 496,
      "quality": 497,
      "delta": 498,
      "thermal": 499,
      "search": 500,
      "mechanism": 501,
      "could": 502,
      "spectra": 503,
      "future": 504,
      "generalized": 505,
      "independent": 506,
      "four": 507,
      "weak": 508,
      "sigma": 509,
      "signal": 510,
      "generated": 511,
      "across": 512,
      "stochastic": 513,
      "key": 514,
      "derive": 515,
      "ratio": 516,
      "considered": 517,
      "theorem": 518,
      "##3": 519,
      "efficiency": 520,
      "band": 521,
      "us": 522,
      "scalar": 523,
      "decay": 524,
      "operators": 525,
      "objects": 526,
      "distributions": 527,
      "series": 528,
      "better": 529,
      "technique": 530,
      "prediction": 531,
      "##ation": 532,
      "charge": 533,
      "dynamic": 534,
      "channel": 535,
      "momentum": 536,
      "moreover": 537,
      "dependence": 538,
      "term": 539,
      "natural": 540,
      "differential": 541,
      "role": 542,
      "computational": 543,
      "defined": 544,
      "input": 545,
      "addition": 546,
      "driven": 547,
      "along": 548,
      "complexity": 549,
      "developed": 550,
      "do": 551,
      "gravitational": 552,
      "furthermore": 553,
      "operator": 554,
      "understanding": 555,
      "examples": 556,
      "world": 557,
      "diffusion": 558,
      "factor": 559,
      "continuous": 560,
      "positive": 561,
      "radio": 562,
      "does": 563,
      "shows": 564,
      "gravity": 565,
      "loss": 566,
      "part": 567,
      "describe": 568,
      "ii": 569,
      "sets": 570,
      "dimension": 571,
      "relation": 572,
      "##ion": 573,
      "object": 574,
      "stability": 575,
      "invariant": 576,
      "algebra": 577,
      "binary": 578,
      "transport": 579,
      "production": 580,
      "after": 581,
      "regions": 582,
      "##ness": 583,
      "coupled": 584,
      "measurement": 585,
      "robust": 586,
      "omega": 587,
      "modes": 588,
      "often": 589,
      "total": 590,
      "##u": 591,
      "among": 592,
      "fixed": 593,
      "few": 594,
      "full": 595,
      "##in": 596,
      "component": 597,
      "compact": 598,
      "action": 599,
      "sequence": 600,
      "mode": 601,
      "solar": 602,
      "improve": 603,
      "around": 604,
      "ground": 605,
      "symmetric": 606,
      "background": 607,
      "molecular": 608,
      "estimate": 609,
      "transfer": 610,
      "clusters": 611,
      "condition": 612,
      "edge": 613,
      "modeling": 614,
      "flux": 615,
      "statistical": 616,
      "average": 617,
      "body": 618,
      "complete": 619,
      "length": 620,
      "being": 621,
      "massive": 622,
      "calculations": 623,
      "representations": 624,
      "target": 625,
      "geometry": 626,
      "metric": 627,
      "develop": 628,
      "convergence": 629,
      "bounds": 630,
      "photon": 631,
      "example": 632,
      "plane": 633,
      "direct": 634,
      "layer": 635,
      "gap": 636,
      "user": 637,
      "stable": 638,
      "short": 639,
      "resulting": 640,
      "##ization": 641,
      "attention": 642,
      "discussed": 643,
      "measured": 644,
      "fundamental": 645,
      "extended": 646,
      "components": 647,
      "exact": 648,
      "discrete": 649,
      "entropy": 650,
      "theories": 651,
      "impact": 652,
      "##ts": 653,
      "determine": 654,
      "gaussian": 655,
      "##an": 656,
      "quark": 657,
      "disk": 658,
      "survey": 659,
      "degree": 660,
      "construct": 661,
      "types": 662,
      "best": 663,
      "expected": 664,
      "maximum": 665,
      "address": 666,
      "regime": 667,
      "leading": 668,
      "dimensions": 669,
      "cost": 670,
      "leads": 671,
      "##w": 672,
      "much": 673,
      "##z": 674,
      "neutrino": 675,
      "identify": 676,
      "equilibrium": 677,
      "##ers": 678,
      "strongly": 679,
      "achieve": 680,
      "predictions": 681,
      "respectively": 682,
      "larger": 683,
      "respect": 684,
      "##ally": 685,
      "functional": 686,
      "arbitrary": 687,
      "whose": 688,
      "highly": 689,
      "evidence": 690,
      "limited": 691,
      "beta": 692,
      "central": 693,
      "additional": 694,
      "scaling": 695,
      "since": 696,
      "relative": 697,
      "sim": 698,
      "law": 699,
      "##5": 700,
      "al": 701,
      "introduced": 702,
      "masses": 703,
      "trained": 704,
      "wide": 705,
      "evaluation": 706,
      "less": 707,
      "accurate": 708,
      "temporal": 709,
      "rates": 710,
      "core": 711,
      "nature": 712,
      "fast": 713,
      "samples": 714,
      "processing": 715,
      "either": 716,
      "communication": 717,
      "##le": 718,
      "##nt": 719,
      "computing": 720,
      "report": 721,
      "log": 722,
      "variables": 723,
      "gradient": 724,
      "good": 725,
      "step": 726,
      "analyze": 727,
      "environment": 728,
      "map": 729,
      "therefore": 730,
      "##or": 731,
      "upper": 732,
      "population": 733,
      "estimates": 734,
      "asymptotic": 735,
      "loop": 736,
      "response": 737,
      "above": 738,
      "partial": 739,
      "##4": 740,
      "towards": 741,
      "##ive": 742,
      "compare": 743,
      "fully": 744,
      "radiation": 745,
      "active": 746,
      "neutron": 747,
      "algebras": 748,
      "perform": 749,
      "focus": 750,
      "cosmological": 751,
      "tensor": 752,
      "classes": 753,
      "##rs": 754,
      "compute": 755,
      "waves": 756,
      "account": 757,
      "proof": 758,
      "elements": 759,
      "change": 760,
      "co": 761,
      "apply": 762,
      "growth": 763,
      "nuclear": 764,
      "pair": 765,
      "heavy": 766,
      "##ting": 767,
      "common": 768,
      "explicit": 769,
      "fluctuations": 770,
      "memory": 771,
      "development": 772,
      "description": 773,
      "##ized": 774,
      "expansion": 775,
      "increase": 776,
      "quasi": 777,
      "correlations": 778,
      "pre": 779,
      "shape": 780,
      "challenges": 781,
      "polarization": 782,
      "property": 783,
      "comparison": 784,
      "minimal": 785,
      "make": 786,
      "scenarios": 787,
      "still": 788,
      "materials": 789,
      "specifically": 790,
      "inference": 791,
      "maps": 792,
      "##us": 793,
      "product": 794,
      "scales": 795,
      "construction": 796,
      "closed": 797,
      "imaging": 798,
      "close": 799,
      "distributed": 800,
      "described": 801,
      "sum": 802,
      "devices": 803,
      "bar": 804,
      "because": 805,
      "geometric": 806,
      "investigated": 807,
      "explore": 808,
      "et": 809,
      "agreement": 810,
      "literature": 811,
      "mathrm": 812,
      "##6": 813,
      "relevant": 814,
      "polynomial": 815,
      "determined": 816,
      "able": 817,
      "electronic": 818,
      "need": 819,
      "galactic": 820,
      "changes": 821,
      "support": 822,
      "special": 823,
      "##ability": 824,
      "experiment": 825,
      "increasing": 826,
      "events": 827,
      "normal": 828,
      "infinite": 829,
      "should": 830,
      "relativistic": 831,
      "strategy": 832,
      "least": 833,
      "cosmic": 834,
      "users": 835,
      "2d": 836,
      "double": 837,
      "variable": 838,
      "selection": 839,
      "computation": 840,
      "pressure": 841,
      "sub": 842,
      "lines": 843,
      "performed": 844,
      "lead": 845,
      "entanglement": 846,
      "previously": 847,
      "negative": 848,
      "higgs": 849,
      "reduction": 850,
      "generate": 851,
      "##en": 852,
      "every": 853,
      "question": 854,
      "extensive": 855,
      "visual": 856,
      "evaluate": 857,
      "dual": 858,
      "made": 859,
      "setting": 860,
      "factors": 861,
      "suggest": 862,
      "means": 863,
      "magnitude": 864,
      "numbers": 865,
      "qcd": 866,
      "reduced": 867,
      "improved": 868,
      "universe": 869,
      "hamiltonian": 870,
      "family": 871,
      "##8": 872,
      "directly": 873,
      "generalization": 874,
      "uncertainty": 875,
      "angular": 876,
      "pm": 877,
      "basis": 878,
      "path": 879,
      "relations": 880,
      "architecture": 881,
      "##ar": 882,
      "conjecture": 883,
      "years": 884,
      "beyond": 885,
      "interest": 886,
      "segmentation": 887,
      "provided": 888,
      "individual": 889,
      "periodic": 890,
      "contribution": 891,
      "underlying": 892,
      "would": 893,
      "coefficients": 894,
      "contrast": 895,
      "integral": 896,
      "semi": 897,
      "required": 898,
      "making": 899,
      "luminosity": 900,
      "energies": 901,
      "formula": 902,
      "curves": 903,
      "off": 904,
      "convex": 905,
      "challenging": 906,
      "collisions": 907,
      "view": 908,
      "against": 909,
      "although": 910,
      "patterns": 911,
      "pairs": 912,
      "chiral": 913,
      "matrices": 914,
      "index": 915,
      "speed": 916,
      "infrared": 917,
      "bounded": 918,
      "nu": 919,
      "surfaces": 920,
      "phases": 921,
      "beam": 922,
      "transitions": 923,
      "material": 924,
      "fine": 925,
      "connected": 926,
      "cloud": 927,
      "difference": 928,
      "area": 929,
      "string": 930,
      "redshift": 931,
      "requires": 932,
      "achieved": 933,
      "universal": 934,
      "holes": 935,
      "dust": 936,
      "sampling": 937,
      "variety": 938,
      "event": 939,
      "establish": 940,
      "volume": 941,
      "early": 942,
      "##ate": 943,
      "##ian": 944,
      "designed": 945,
      "hard": 946,
      "electric": 947,
      "limits": 948,
      "far": 949,
      "version": 950,
      "review": 951,
      "external": 952,
      "solve": 953,
      "scenario": 954,
      "medium": 955,
      "effectiveness": 956,
      "social": 957,
      "##te": 958,
      "chemical": 959,
      "metal": 960,
      "analytical": 961,
      "force": 962,
      "video": 963,
      "unique": 964,
      "curvature": 965,
      "tool": 966,
      "parallel": 967,
      "gev": 968,
      "domains": 969,
      "bulk": 970,
      "tau": 971,
      "##9": 972,
      "fermi": 973,
      "precision": 974,
      "lie": 975,
      "measures": 976,
      "challenge": 977,
      "let": 978,
      "period": 979,
      "smooth": 980,
      "amplitude": 981,
      "whether": 982,
      "rank": 983,
      "adaptive": 984,
      "signals": 985,
      "direction": 986,
      "recognition": 987,
      "atomic": 988,
      "detected": 989,
      "semantic": 990,
      "rotation": 991,
      "resonance": 992,
      "include": 993,
      "following": 994,
      "allow": 995,
      "fluid": 996,
      "phi": 997,
      "extend": 998,
      "structural": 999,
      "article": 1000,
      "detector": 1001,
      "next": 1002,
      "20": 1003,
      "orbital": 1004,
      "##7": 1005,
      "fraction": 1006,
      "extension": 1007,
      "chain": 1008,
      "characteristic": 1009,
      "implementation": 1010,
      "radius": 1011,
      "##is": 1012,
      "laser": 1013,
      "calculate": 1014,
      "prior": 1015,
      "characteristics": 1016,
      "accretion": 1017,
      "calculated": 1018,
      "practical": 1019,
      "almost": 1020,
      "cannot": 1021,
      "software": 1022,
      "observation": 1023,
      "right": 1024,
      "infty": 1025,
      "strength": 1026,
      "equivalent": 1027,
      "bias": 1028,
      "predict": 1029,
      "inverse": 1030,
      "##se": 1031,
      "enhanced": 1032,
      "algebraic": 1033,
      "absorption": 1034,
      "detailed": 1035,
      "angle": 1036,
      "influence": 1037,
      "reconstruction": 1038,
      "original": 1039,
      "findings": 1040,
      "de": 1041,
      "conventional": 1042,
      "supervised": 1043,
      "100": 1044,
      "depth": 1045,
      "reduce": 1046,
      "plasma": 1047,
      "principle": 1048,
      "interacting": 1049,
      "##ant": 1050,
      "online": 1051,
      "carlo": 1052,
      "monte": 1053,
      "codes": 1054,
      "necessary": 1055,
      "##ne": 1056,
      "minimum": 1057,
      "below": 1058,
      "exhibit": 1059,
      "what": 1060,
      "liquid": 1061,
      "mixing": 1062,
      "demonstrated": 1063,
      "heat": 1064,
      "procedure": 1065,
      "output": 1066,
      "decision": 1067,
      "concept": 1068,
      "benchmark": 1069,
      "feedback": 1070,
      "einstein": 1071,
      "coherent": 1072,
      "jet": 1073,
      "hybrid": 1074,
      "superconducting": 1075,
      "require": 1076,
      "especially": 1077,
      "orbit": 1078,
      "ion": 1079,
      "uniform": 1080,
      "traditional": 1081,
      "levels": 1082,
      "empirical": 1083,
      "yet": 1084,
      "smaller": 1085,
      "tree": 1086,
      "combined": 1087,
      "hand": 1088,
      "manifold": 1089,
      "statistics": 1090,
      "solving": 1091,
      "sensitivity": 1092,
      "uses": 1093,
      "ai": 1094,
      "content": 1095,
      "become": 1096,
      "combination": 1097,
      "mechanisms": 1098,
      "##ment": 1099,
      "corrections": 1100,
      "graphene": 1101,
      "top": 1102,
      "frac": 1103,
      "atoms": 1104,
      "temperatures": 1105,
      "learn": 1106,
      "ability": 1107,
      "suitable": 1108,
      "##et": 1109,
      "crucial": 1110,
      "predicted": 1111,
      "gives": 1112,
      "manifolds": 1113,
      "useful": 1114,
      "nodes": 1115,
      "schemes": 1116,
      "clustering": 1117,
      "cell": 1118,
      "strategies": 1119,
      "presents": 1120,
      "bayesian": 1121,
      "metrics": 1122,
      "regular": 1123,
      "forms": 1124,
      "computer": 1125,
      "electrons": 1126,
      "transmission": 1127,
      "12": 1128,
      "ring": 1129,
      "per": 1130,
      "approximate": 1131,
      "flat": 1132,
      "sparse": 1133,
      "adversarial": 1134,
      "##ous": 1135,
      "breaking": 1136,
      "identified": 1137,
      "origin": 1138,
      "sufficient": 1139,
      "exchange": 1140,
      "enables": 1141,
      "spectroscopy": 1142,
      "increases": 1143,
      "must": 1144,
      "propagation": 1145,
      "produce": 1146,
      "analytic": 1147,
      "tools": 1148,
      "achieves": 1149,
      "depends": 1150,
      "channels": 1151,
      "rather": 1152,
      "promising": 1153,
      "##ating": 1154,
      "layers": 1155,
      "threshold": 1156,
      "remains": 1157,
      "perturbation": 1158,
      "environments": 1159,
      "produced": 1160,
      "curve": 1161,
      "##re": 1162,
      "considering": 1163,
      "errors": 1164,
      "su": 1165,
      "mixed": 1166,
      "left": 1167,
      "robustness": 1168,
      "agent": 1169,
      "explain": 1170,
      "fact": 1171,
      "position": 1172,
      "soft": 1173,
      "##ated": 1174,
      "dense": 1175,
      "constructed": 1176,
      "works": 1177,
      "define": 1178,
      "together": 1179,
      "final": 1180,
      "vacuum": 1181,
      "center": 1182,
      "static": 1183,
      "generating": 1184,
      "formulation": 1185,
      "distinct": 1186,
      "matching": 1187,
      "tuning": 1188,
      "theta": 1189,
      "down": 1190,
      "providing": 1191,
      "modified": 1192,
      "sensitive": 1193,
      "contributions": 1194,
      "finding": 1195,
      "proton": 1196,
      "latter": 1197,
      "##um": 1198,
      "activity": 1199,
      "dirac": 1200,
      "##as": 1201,
      "decomposition": 1202,
      "objective": 1203,
      "radial": 1204,
      "##ities": 1205,
      "agents": 1206,
      "element": 1207,
      "systematic": 1208,
      "exponential": 1209,
      "charged": 1210,
      "importance": 1211,
      "fe": 1212,
      "particularly": 1213,
      "regression": 1214,
      "interface": 1215,
      "integrated": 1216,
      "observe": 1217,
      "outperforms": 1218,
      "alternative": 1219,
      "##it": 1220,
      "flows": 1221,
      "continuum": 1222,
      "##ial": 1223,
      "square": 1224,
      "peak": 1225,
      "access": 1226,
      "telescope": 1227,
      "detect": 1228,
      "decays": 1229,
      "##less": 1230,
      "policy": 1231,
      "stage": 1232,
      "capture": 1233,
      "varying": 1234,
      "indicate": 1235,
      "rich": 1236,
      "testing": 1237,
      "thin": 1238,
      "effectively": 1239,
      "localization": 1240,
      "intermediate": 1241,
      "another": 1242,
      "##el": 1243,
      "connection": 1244,
      "constrained": 1245,
      "polynomials": 1246,
      "namely": 1247,
      "formalism": 1248,
      "sequences": 1249,
      "correlated": 1250,
      "calculation": 1251,
      "synthetic": 1252,
      "weighted": 1253,
      "mapping": 1254,
      "despite": 1255,
      "ones": 1256,
      "additionally": 1257,
      "llms": 1258,
      "speech": 1259,
      "behaviour": 1260,
      "privacy": 1261,
      "established": 1262,
      "goal": 1263,
      "##ms": 1264,
      "vertex": 1265,
      "module": 1266,
      "risk": 1267,
      "15": 1268,
      "fractional": 1269,
      "instead": 1270,
      "transverse": 1271,
      "half": 1272,
      "overall": 1273,
      "essential": 1274,
      "constraint": 1275,
      "shift": 1276,
      "rho": 1277,
      "realistic": 1278,
      "epsilon": 1279,
      "pattern": 1280,
      "leq": 1281,
      "##tion": 1282,
      "reveal": 1283,
      "##os": 1284,
      "variation": 1285,
      "configuration": 1286,
      "aim": 1287,
      "help": 1288,
      "degrees": 1289,
      "security": 1290,
      "makes": 1291,
      "explicitly": 1292,
      "showing": 1293,
      "##ize": 1294,
      "variations": 1295,
      "major": 1296,
      "vision": 1297,
      "sqrt": 1298,
      "joint": 1299,
      "intrinsic": 1300,
      "widely": 1301,
      "differences": 1302,
      "##ns": 1303,
      "becomes": 1304,
      "ell": 1305,
      "subset": 1306,
      "typical": 1307,
      "perturbations": 1308,
      "contains": 1309,
      "assumptions": 1310,
      "electromagnetic": 1311,
      "weight": 1312,
      "dispersion": 1313,
      "generic": 1314,
      "relaxation": 1315,
      "homogeneous": 1316,
      "boson": 1317,
      "exist": 1318,
      "water": 1319,
      "transformation": 1320,
      "cm": 1321,
      "upon": 1322,
      "quadratic": 1323,
      "typically": 1324,
      "embedding": 1325,
      "identification": 1326,
      "frame": 1327,
      "probe": 1328,
      "phenomena": 1329,
      "topology": 1330,
      "color": 1331,
      "##izing": 1332,
      "section": 1333,
      "conformal": 1334,
      "basic": 1335,
      "involving": 1336,
      "interesting": 1337,
      "super": 1338,
      "oscillations": 1339,
      "efficiently": 1340,
      "improvement": 1341,
      "possibility": 1342,
      "likely": 1343,
      "##ps": 1344,
      "reported": 1345,
      "device": 1346,
      "instability": 1347,
      "##ted": 1348,
      "crystal": 1349,
      "resource": 1350,
      "characterized": 1351,
      "experimentally": 1352,
      "exists": 1353,
      "fit": 1354,
      "harmonic": 1355,
      "characterization": 1356,
      "issues": 1357,
      "notion": 1358,
      "simultaneously": 1359,
      "having": 1360,
      "estimated": 1361,
      "##ies": 1362,
      "array": 1363,
      "comprehensive": 1364,
      "implications": 1365,
      "unit": 1366,
      "characterize": 1367,
      "variational": 1368,
      "convolutional": 1369,
      "kernel": 1370,
      "contact": 1371,
      "internal": 1372,
      "nuclei": 1373,
      "illustrate": 1374,
      "issue": 1375,
      "treatment": 1376,
      "generative": 1377,
      "stationary": 1378,
      "re": 1379,
      "analyzed": 1380,
      "capacity": 1381,
      "understand": 1382,
      "halo": 1383,
      "suggests": 1384,
      "five": 1385,
      "hence": 1386,
      "mechanical": 1387,
      "taking": 1388,
      "singular": 1389,
      "amount": 1390,
      "broad": 1391,
      "interpretation": 1392,
      "configurations": 1393,
      "modules": 1394,
      "excitation": 1395,
      "assumption": 1396,
      "mathematical": 1397,
      "seen": 1398,
      "inner": 1399,
      "yields": 1400,
      "includes": 1401,
      "examine": 1402,
      "##ance": 1403,
      "relationship": 1404,
      "https": 1405,
      "depending": 1406,
      "intensity": 1407,
      "profile": 1408,
      "##ry": 1409,
      "interference": 1410,
      "##ling": 1411,
      "abelian": 1412,
      "trivial": 1413,
      "take": 1414,
      "applying": 1415,
      "attacks": 1416,
      "reaction": 1417,
      "wind": 1418,
      "separation": 1419,
      "##ter": 1420,
      "integer": 1421,
      "category": 1422,
      "forward": 1423,
      "computed": 1424,
      "github": 1425,
      "orders": 1426,
      "science": 1427,
      "pure": 1428,
      "potentials": 1429,
      "##q": 1430,
      "diverse": 1431,
      "30": 1432,
      "driving": 1433,
      "densities": 1434,
      "reinforcement": 1435,
      "taken": 1436,
      "11": 1437,
      "unknown": 1438,
      "eta": 1439,
      "lhc": 1440,
      "hall": 1441,
      "##ia": 1442,
      "aspects": 1443,
      "tests": 1444,
      "kinetic": 1445,
      "diagram": 1446,
      "relatively": 1447,
      "appropriate": 1448,
      "mechanics": 1449,
      "technology": 1450,
      "photons": 1451,
      "quantitative": 1452,
      "operations": 1453,
      "generally": 1454,
      "sense": 1455,
      "markov": 1456,
      "canonical": 1457,
      "locally": 1458,
      "##ce": 1459,
      "difficult": 1460,
      "hot": 1461,
      "consists": 1462,
      "robot": 1463,
      "equal": 1464,
      "coefficient": 1465,
      "##nce": 1466,
      "according": 1467,
      "precise": 1468,
      "proved": 1469,
      "spacetime": 1470,
      "game": 1471,
      "13": 1472,
      "expression": 1473,
      "tev": 1474,
      "allowing": 1475,
      "50": 1476,
      "evaluated": 1477,
      "moment": 1478,
      "discovery": 1479,
      "selected": 1480,
      "integration": 1481,
      "before": 1482,
      "post": 1483,
      "choice": 1484,
      "qubit": 1485,
      "ensemble": 1486,
      "might": 1487,
      "rules": 1488,
      "anomalous": 1489,
      "width": 1490,
      "ideal": 1491,
      "numerically": 1492,
      "molecules": 1493,
      "aims": 1494,
      "sensing": 1495,
      "reference": 1496,
      "program": 1497,
      "fusion": 1498,
      "maximal": 1499,
      "node": 1500,
      "combining": 1501,
      "building": 1502,
      "insights": 1503,
      "##ge": 1504,
      "improves": 1505,
      "lack": 1506,
      "programming": 1507,
      "enhance": 1508,
      "##ds": 1509,
      "third": 1510,
      "shot": 1511,
      "simulated": 1512,
      "transform": 1513,
      "frequencies": 1514,
      "agn": 1515,
      "dwarf": 1516,
      "assuming": 1517,
      "controlled": 1518,
      "geq": 1519,
      "implemented": 1520,
      "shell": 1521,
      "##am": 1522,
      "latent": 1523,
      "tracking": 1524,
      "##ions": 1525,
      "profiles": 1526,
      "motivated": 1527,
      "ratios": 1528,
      "vertices": 1529,
      "settings": 1530,
      "correction": 1531,
      "forming": 1532,
      "base": 1533,
      "rise": 1534,
      "embedded": 1535,
      "cp": 1536,
      "elastic": 1537,
      "phenomenon": 1538,
      "psi": 1539,
      "enhancement": 1540,
      "improving": 1541,
      "age": 1542,
      "face": 1543,
      "comparable": 1544,
      "usually": 1545,
      "symmetries": 1546,
      "cavity": 1547,
      "exhibits": 1548,
      "weakly": 1549,
      "anti": 1550,
      "##id": 1551,
      "anisotropic": 1552,
      "protocol": 1553,
      "appear": 1554,
      "com": 1555,
      "earth": 1556,
      "questions": 1557,
      "primary": 1558,
      "proper": 1559,
      "artificial": 1560,
      "similarity": 1561,
      "digital": 1562,
      "iii": 1563,
      "pseudo": 1564,
      "perturbative": 1565,
      "traffic": 1566,
      "mev": 1567,
      "rule": 1568,
      "spherical": 1569,
      "supersymmetric": 1570,
      "##th": 1571,
      "observational": 1572,
      "neutral": 1573,
      "argue": 1574,
      "note": 1575,
      "principles": 1576,
      "subject": 1577,
      "hyperbolic": 1578,
      "consistency": 1579,
      "actions": 1580,
      "vortex": 1581,
      "planet": 1582,
      "host": 1583,
      "edges": 1584,
      "acceleration": 1585,
      "variability": 1586,
      "elliptic": 1587,
      "##man": 1588,
      "resources": 1589,
      "enable": 1590,
      "play": 1591,
      "link": 1592,
      "19": 1593,
      "hilbert": 1594,
      "detectors": 1595,
      "horizon": 1596,
      "operation": 1597,
      "prime": 1598,
      "probabilistic": 1599,
      "atom": 1600,
      "fermions": 1601,
      "freedom": 1602,
      "capabilities": 1603,
      "##ivity": 1604,
      "hierarchical": 1605,
      "side": 1606,
      "needed": 1607,
      "perspective": 1608,
      "popular": 1609,
      "formed": 1610,
      "aware": 1611,
      "always": 1612,
      "resolved": 1613,
      "implies": 1614,
      "train": 1615,
      "block": 1616,
      "candidate": 1617,
      "couplings": 1618,
      "##at": 1619,
      "detail": 1620,
      "axis": 1621,
      "yield": 1622,
      "km": 1623,
      "powerful": 1624,
      "inequality": 1625,
      "inside": 1626,
      "media": 1627,
      "causal": 1628,
      "cycle": 1629,
      "true": 1630,
      "uv": 1631,
      "##ot": 1632,
      "baseline": 1633,
      "##ical": 1634,
      "bands": 1635,
      "##cs": 1636,
      "synthesis": 1637,
      "community": 1638,
      "radiative": 1639,
      "requirements": 1640,
      "phonon": 1641,
      "purpose": 1642,
      "transformer": 1643,
      "solid": 1644,
      "##ary": 1645,
      "expressions": 1646,
      "containing": 1647,
      "alignment": 1648,
      "location": 1649,
      "dominated": 1650,
      "fourier": 1651,
      "wavelength": 1652,
      "depend": 1653,
      "rational": 1654,
      "rotating": 1655,
      "naturally": 1656,
      "anisotropy": 1657,
      "comparing": 1658,
      "logic": 1659,
      "moving": 1660,
      "sensor": 1661,
      "planets": 1662,
      "localized": 1663,
      "##de": 1664,
      "renormalization": 1665,
      "last": 1666,
      "categories": 1667,
      "completely": 1668,
      "limitations": 1669,
      "polarized": 1670,
      "methodology": 1671,
      "medical": 1672,
      "moments": 1673,
      "instance": 1674,
      "##ised": 1675,
      "hydrogen": 1676,
      "amplitudes": 1677,
      "##isation": 1678,
      "learned": 1679,
      "observables": 1680,
      "shock": 1681,
      "represent": 1682,
      "faster": 1683,
      "giant": 1684,
      "weights": 1685,
      "deformation": 1686,
      "unified": 1687,
      "translation": 1688,
      "turbulence": 1689,
      "species": 1690,
      "##ov": 1691,
      "engineering": 1692,
      "lagrangian": 1693,
      "pulse": 1694,
      "mobile": 1695,
      "extract": 1696,
      "reasoning": 1697,
      "nucleon": 1698,
      "disorder": 1699,
      "##il": 1700,
      "nearly": 1701,
      "directions": 1702,
      "products": 1703,
      "extraction": 1704,
      "dipole": 1705,
      "employed": 1706,
      "duality": 1707,
      "##ve": 1708,
      "clouds": 1709,
      "anomaly": 1710,
      "16": 1711,
      "ultra": 1712,
      "##ls": 1713,
      "architectures": 1714,
      "planar": 1715,
      "preserving": 1716,
      "cold": 1717,
      "distances": 1718,
      "##sing": 1719,
      "orthogonal": 1720,
      "automatic": 1721,
      "planning": 1722,
      "public": 1723,
      "variance": 1724,
      "enough": 1725,
      "extreme": 1726,
      "poisson": 1727,
      "confirm": 1728,
      "norm": 1729,
      "increased": 1730,
      "composition": 1731,
      "whole": 1732,
      "wireless": 1733,
      "hypothesis": 1734,
      "gain": 1735,
      "au": 1736,
      "autonomous": 1737,
      "modelling": 1738,
      "white": 1739,
      "resonant": 1740,
      "##tic": 1741,
      "delay": 1742,
      "accurately": 1743,
      "conclude": 1744,
      "quantities": 1745,
      "abundance": 1746,
      "shear": 1747,
      "##ft": 1748,
      "grid": 1749,
      "slow": 1750,
      "investigation": 1751,
      "cooling": 1752,
      "ir": 1753,
      "14": 1754,
      "equivalence": 1755,
      "orbits": 1756,
      "easily": 1757,
      "exactly": 1758,
      "##net": 1759,
      "generalize": 1760,
      "past": 1761,
      "transformations": 1762,
      "parametric": 1763,
      "analyses": 1764,
      "sphere": 1765,
      "inspired": 1766,
      "parts": 1767,
      "appears": 1768,
      "hardware": 1769,
      "sizes": 1770,
      "cells": 1771,
      "collapse": 1772,
      "thermodynamic": 1773,
      "follow": 1774,
      "occurs": 1775,
      "labels": 1776,
      "fermion": 1777,
      "quantization": 1778,
      "rays": 1779,
      "occur": 1780,
      "likelihood": 1781,
      "virtual": 1782,
      "reveals": 1783,
      "conditional": 1784,
      "sections": 1785,
      "caused": 1786,
      "reduces": 1787,
      "hidden": 1788,
      "correct": 1789,
      "odot": 1790,
      "carbon": 1791,
      "idea": 1792,
      "retrieval": 1793,
      "young": 1794,
      "candidates": 1795,
      "uncertainties": 1796,
      "##est": 1797,
      "metallicity": 1798,
      "##ping": 1799,
      "earlier": 1800,
      "excitations": 1801,
      "describing": 1802,
      "splitting": 1803,
      "stress": 1804,
      "##om": 1805,
      "spectroscopic": 1806,
      "consequence": 1807,
      "deterministic": 1808,
      "25": 1809,
      "##st": 1810,
      "platform": 1811,
      "films": 1812,
      "##gs": 1813,
      "takes": 1814,
      "whereas": 1815,
      "tested": 1816,
      "studying": 1817,
      "trajectories": 1818,
      "modern": 1819,
      "manner": 1820,
      "approximately": 1821,
      "place": 1822,
      "##ss": 1823,
      "##pe": 1824,
      "excited": 1825,
      "collective": 1826,
      "##ent": 1827,
      "sky": 1828,
      "conducted": 1829,
      "query": 1830,
      "sector": 1831,
      "definition": 1832,
      "ngc": 1833,
      "families": 1834,
      "spatially": 1835,
      "violation": 1836,
      "conductivity": 1837,
      "attack": 1838,
      "advantage": 1839,
      "six": 1840,
      "neutrinos": 1841,
      "##ring": 1842,
      "entire": 1843,
      "sharp": 1844,
      "sufficiently": 1845,
      "ads": 1846,
      "build": 1847,
      "inflation": 1848,
      "vectors": 1849,
      "describes": 1850,
      "coherence": 1851,
      "arise": 1852,
      "projective": 1853,
      "concentration": 1854,
      "collected": 1855,
      "big": 1856,
      "reliable": 1857,
      "estimator": 1858,
      "label": 1859,
      "great": 1860,
      "currently": 1861,
      "disc": 1862,
      "red": 1863,
      "##ning": 1864,
      "mainly": 1865,
      "affine": 1866,
      "areas": 1867,
      "meson": 1868,
      "superconductivity": 1869,
      "achieving": 1870,
      "##ons": 1871,
      "chi": 1872,
      "extra": 1873,
      "commonly": 1874,
      "compression": 1875,
      "introduces": 1876,
      "acoustic": 1877,
      "odd": 1878,
      "now": 1879,
      "automated": 1880,
      "carried": 1881,
      "steps": 1882,
      "wall": 1883,
      "trees": 1884,
      "collision": 1885,
      "heterogeneous": 1886,
      "steady": 1887,
      "clear": 1888,
      "thereby": 1889,
      "invariants": 1890,
      "trajectory": 1891,
      "chains": 1892,
      "##tive": 1893,
      "project": 1894,
      "bose": 1895,
      "arising": 1896,
      "word": 1897,
      "reducing": 1898,
      "flavor": 1899,
      "##ch": 1900,
      "disks": 1901,
      "degenerate": 1902,
      "noisy": 1903,
      "asymmetry": 1904,
      "box": 1905,
      "unitary": 1906,
      "rely": 1907,
      "concepts": 1908,
      "valued": 1909,
      "kev": 1910,
      "monitoring": 1911,
      "modulation": 1912,
      "theoretically": 1913,
      "potentially": 1914,
      "jets": 1915,
      "regularization": 1916,
      "extremely": 1917,
      "progress": 1918,
      "magnetization": 1919,
      "scientific": 1920,
      "##ra": 1921,
      "predictive": 1922,
      "extensions": 1923,
      "lattices": 1924,
      "solved": 1925,
      "brain": 1926,
      "##ors": 1927,
      "capable": 1928,
      "interval": 1929,
      "confidence": 1930,
      "sun": 1931,
      "starting": 1932,
      "##me": 1933,
      "##ide": 1934,
      "forces": 1935,
      "perfect": 1936,
      "management": 1937,
      "success": 1938,
      "turn": 1939,
      "games": 1940,
      "improvements": 1941,
      "absence": 1942,
      "embeddings": 1943,
      "40": 1944,
      "coulomb": 1945,
      "site": 1946,
      "consisting": 1947,
      "pose": 1948,
      "##ct": 1949,
      "inequalities": 1950,
      "nm": 1951,
      "employ": 1952,
      "tunneling": 1953,
      "populations": 1954,
      "combinatorial": 1955,
      "extracted": 1956,
      "gluon": 1957,
      "euclidean": 1958,
      "storage": 1959,
      "score": 1960,
      "fitting": 1961,
      "asymptotically": 1962,
      "##ma": 1963,
      "criterion": 1964,
      "identifying": 1965,
      "already": 1966,
      "calibration": 1967,
      "unsupervised": 1968,
      "he": 1969,
      "##ad": 1970,
      "demonstrates": 1971,
      "introducing": 1972,
      "contain": 1973,
      "just": 1974,
      "moduli": 1975,
      "rapid": 1976,
      "showed": 1977,
      "cite": 1978,
      "reach": 1979,
      "microwave": 1980,
      "regimes": 1981,
      "invariance": 1982,
      "safety": 1983,
      "measuring": 1984,
      "surveys": 1985,
      "languages": 1986,
      "enabling": 1987,
      "dominant": 1988,
      "projection": 1989,
      "analyzing": 1990,
      "paradigm": 1991,
      "##ty": 1992,
      "inter": 1993,
      "offers": 1994,
      "approximations": 1995,
      "narrow": 1996,
      "paths": 1997,
      "brane": 1998,
      "filter": 1999,
      "net": 2000,
      "advanced": 2001,
      "evolutionary": 2002,
      "##ll": 2003,
      "cohomology": 2004,
      "involves": 2005,
      "structured": 2006,
      "ordered": 2007,
      "practice": 2008,
      "relativity": 2009,
      "constants": 2010,
      "ferromagnetic": 2011,
      "determination": 2012,
      "correspondence": 2013,
      "greater": 2014,
      "adaptation": 2015,
      "excess": 2016,
      "supernova": 2017,
      "successfully": 2018,
      "proposes": 2019,
      "microscopic": 2020,
      "camera": 2021,
      "collection": 2022,
      "benchmarks": 2023,
      "parity": 2024,
      "holds": 2025,
      "partition": 2026,
      "outer": 2027,
      "call": 2028,
      "detecting": 2029,
      "diagrams": 2030,
      "assumed": 2031,
      "validate": 2032,
      "discovered": 2033,
      "strain": 2034,
      "implement": 2035,
      "ml": 2036,
      "binaries": 2037,
      "xi": 2038,
      "answer": 2039,
      "##ging": 2040,
      "##ism": 2041,
      "crystals": 2042,
      "modular": 2043,
      "indicates": 2044,
      "offer": 2045,
      "create": 2046,
      "exploration": 2047,
      "cnn": 2048,
      "asymmetric": 2049,
      "hadron": 2050,
      "sign": 2051,
      "circuit": 2052,
      "resonances": 2053,
      "service": 2054,
      "sequential": 2055,
      "though": 2056,
      "technologies": 2057,
      "toward": 2058,
      "partially": 2059,
      "emph": 2060,
      "baryon": 2061,
      "performing": 2062,
      "suggested": 2063,
      "satisfy": 2064,
      "cosmology": 2065,
      "singularities": 2066,
      "##ine": 2067,
      "rightarrow": 2068,
      "itself": 2069,
      "photometric": 2070,
      "dissipation": 2071,
      "absolute": 2072,
      "scene": 2073,
      "explained": 2074,
      "sn": 2075,
      "velocities": 2076,
      "dot": 2077,
      "web": 2078,
      "history": 2079,
      "iterative": 2080,
      "allowed": 2081,
      "unlike": 2082,
      "run": 2083,
      "flexible": 2084,
      "ghz": 2085,
      "formulas": 2086,
      "built": 2087,
      "landau": 2088,
      "insulator": 2089,
      "voltage": 2090,
      "##ium": 2091,
      "weyl": 2092,
      "focusing": 2093,
      "##ue": 2094,
      "regularity": 2095,
      "##les": 2096,
      "exponent": 2097,
      "derivative": 2098,
      "usual": 2099,
      "ions": 2100,
      "mathbf": 2101,
      "textit": 2102,
      "bi": 2103,
      "connections": 2104,
      "criteria": 2105,
      "satellite": 2106,
      "advantages": 2107,
      "restricted": 2108,
      "qubits": 2109,
      "##ke": 2110,
      "determining": 2111,
      "estimating": 2112,
      "automatically": 2113,
      "si": 2114,
      "##ner": 2115,
      "back": 2116,
      "turbulent": 2117,
      "ge": 2118,
      "coding": 2119,
      "leveraging": 2120,
      "assess": 2121,
      "employing": 2122,
      "rings": 2123,
      "##da": 2124,
      "kappa": 2125,
      "utilizing": 2126,
      "decrease": 2127,
      "sensors": 2128,
      "##tor": 2129,
      "words": 2130,
      "##ified": 2131,
      "affect": 2132,
      "developing": 2133,
      "missing": 2134,
      "##ual": 2135,
      "eigenvalues": 2136,
      "bright": 2137,
      "details": 2138,
      "modal": 2139,
      "laws": 2140,
      "life": 2141,
      "circular": 2142,
      "market": 2143,
      "signatures": 2144,
      "##line": 2145,
      "compatible": 2146,
      "superior": 2147,
      "##nd": 2148,
      "##ble": 2149,
      "le": 2150,
      "done": 2151,
      "transient": 2152,
      "schr": 2153,
      "explored": 2154,
      "mixture": 2155,
      "##bility": 2156,
      "remain": 2157,
      "revealed": 2158,
      "relies": 2159,
      "unstable": 2160,
      "diversity": 2161,
      "assume": 2162,
      "##fs": 2163,
      "green": 2164,
      "planetary": 2165,
      "##up": 2166,
      "inputs": 2167,
      "trace": 2168,
      "##ck": 2169,
      "optimized": 2170,
      "planck": 2171,
      "defects": 2172,
      "yang": 2173,
      "onto": 2174,
      "analytically": 2175,
      "##ite": 2176,
      "behaviors": 2177,
      "constrain": 2178,
      "18": 2179,
      "fidelity": 2180,
      "character": 2181,
      "oriented": 2182,
      "reflection": 2183,
      "boundaries": 2184,
      "possibly": 2185,
      "substantial": 2186,
      "get": 2187,
      "nucleus": 2188,
      "##ise": 2189,
      "capability": 2190,
      "picture": 2191,
      "oscillation": 2192,
      "gate": 2193,
      "quarks": 2194,
      "lepton": 2195,
      "lensing": 2196,
      "ab": 2197,
      "computationally": 2198,
      "atmospheric": 2199,
      "observable": 2200,
      "nearby": 2201,
      "competitive": 2202,
      "tight": 2203,
      "entangled": 2204,
      "largest": 2205,
      "little": 2206,
      "approx": 2207,
      "branching": 2208,
      "growing": 2209,
      "rotational": 2210,
      "##ard": 2211,
      "plays": 2212,
      "changing": 2213,
      "theorems": 2214,
      "valid": 2215,
      "predicting": 2216,
      "researchers": 2217,
      "em": 2218,
      "limiting": 2219,
      "late": 2220,
      "vanishing": 2221,
      "precisely": 2222,
      "integrable": 2223,
      "formal": 2224,
      "##ur": 2225,
      "isotropic": 2226,
      "utility": 2227,
      "understood": 2228,
      "verify": 2229,
      "superconductors": 2230,
      "binding": 2231,
      "##istic": 2232,
      "infinity": 2233,
      "##berg": 2234,
      "theoretic": 2235,
      "lorentz": 2236,
      "residual": 2237,
      "integrals": 2238,
      "intelligence": 2239,
      "bf": 2240,
      "photonic": 2241,
      "needs": 2242,
      "ising": 2243,
      "protocols": 2244,
      "extends": 2245,
      "applicable": 2246,
      "varieties": 2247,
      "ev": 2248,
      "branch": 2249,
      "##ure": 2250,
      "cubic": 2251,
      "heating": 2252,
      "represented": 2253,
      "probabilities": 2254,
      "switching": 2255,
      "principal": 2256,
      "bosons": 2257,
      "simultaneous": 2258,
      "demand": 2259,
      "ordering": 2260,
      "located": 2261,
      "clinical": 2262,
      "isolated": 2263,
      "pulsar": 2264,
      "audio": 2265,
      "decreases": 2266,
      "##ile": 2267,
      "##ification": 2268,
      "database": 2269,
      "rapidly": 2270,
      "mathfrak": 2271,
      "directed": 2272,
      "##ro": 2273,
      "singularity": 2274,
      "##ler": 2275,
      "hierarchy": 2276,
      "phys": 2277,
      "##j": 2278,
      "emerging": 2279,
      "kind": 2280,
      "ordinary": 2281,
      "orientation": 2282,
      "##ration": 2283,
      "cycles": 2284,
      "riemannian": 2285,
      "llm": 2286,
      "##age": 2287,
      "##ative": 2288,
      "##ably": 2289,
      "coverage": 2290,
      "kpc": 2291,
      "dm": 2292,
      "shared": 2293,
      "relationships": 2294,
      "composite": 2295,
      "running": 2296,
      "ways": 2297,
      "links": 2298,
      "overcome": 2299,
      "vehicle": 2300,
      "condensate": 2301,
      "costs": 2302,
      "quantify": 2303,
      "circuits": 2304,
      "doped": 2305,
      "follows": 2306,
      "instances": 2307,
      "stokes": 2308,
      "identity": 2309,
      "regarding": 2310,
      "mid": 2311,
      "twisted": 2312,
      "quite": 2313,
      "film": 2314,
      "cmb": 2315,
      "electrical": 2316,
      "##00": 2317,
      "logarithmic": 2318,
      "highlight": 2319,
      "explanation": 2320,
      "corresponds": 2321,
      "extending": 2322,
      "cal": 2323,
      "abundances": 2324,
      "assessment": 2325,
      "excellent": 2326,
      "collider": 2327,
      "created": 2328,
      "suggesting": 2329,
      "signature": 2330,
      "cover": 2331,
      "policies": 2332,
      "##sion": 2333,
      "coordinate": 2334,
      "##one": 2335,
      "silicon": 2336,
      "##ible": 2337,
      "chosen": 2338,
      "reproduce": 2339,
      "shifts": 2340,
      "longitudinal": 2341,
      "multimodal": 2342,
      "scalable": 2343,
      "too": 2344,
      "longer": 2345,
      "sites": 2346,
      "encoder": 2347,
      "euler": 2348,
      "conduct": 2349,
      "secondary": 2350,
      "guarantees": 2351,
      "desired": 2352,
      "17": 2353,
      "21": 2354,
      "biological": 2355,
      "easy": 2356,
      "verification": 2357,
      "cause": 2358,
      "astrophysical": 2359,
      "rl": 2360,
      "realized": 2361,
      "##pt": 2362,
      "barrier": 2363,
      "allocation": 2364,
      "symplectic": 2365,
      "##ening": 2366,
      "currents": 2367,
      "supported": 2368,
      "included": 2369,
      "mobility": 2370,
      "produces": 2371,
      "coordinates": 2372,
      "represents": 2373,
      "proportional": 2374,
      "consequences": 2375,
      "programs": 2376,
      "##atic": 2377,
      "confirmed": 2378,
      "meta": 2379,
      "counting": 2380,
      "expressed": 2381,
      "varepsilon": 2382,
      "##ld": 2383,
      "cone": 2384,
      "pion": 2385,
      "conversion": 2386,
      "focused": 2387,
      "pc": 2388,
      "hi": 2389,
      "searches": 2390,
      "constructing": 2391,
      "involved": 2392,
      "balance": 2393,
      "health": 2394,
      "covering": 2395,
      "##rt": 2396,
      "##bs": 2397,
      "highest": 2398,
      "metallic": 2399,
      "hermitian": 2400,
      "elementary": 2401,
      "others": 2402,
      "responsible": 2403,
      "indeed": 2404,
      "qualitative": 2405,
      "newton": 2406,
      "24": 2407,
      "dielectric": 2408,
      "pairing": 2409,
      "exploit": 2410,
      "benefits": 2411,
      "etc": 2412,
      "##ological": 2413,
      "hadronic": 2414,
      "technical": 2415,
      "robots": 2416,
      "spins": 2417,
      "rare": 2418,
      "pulses": 2419,
      "ensure": 2420,
      "poor": 2421,
      "##ates": 2422,
      "dynamically": 2423,
      "##ral": 2424,
      "##ncy": 2425,
      "trade": 2426,
      "interplay": 2427,
      "##nts": 2428,
      "200": 2429,
      "indicating": 2430,
      "antiferromagnetic": 2431,
      "wise": 2432,
      "loops": 2433,
      "ionization": 2434,
      "setup": 2435,
      "superconductor": 2436,
      "encoding": 2437,
      "estimators": 2438,
      "polar": 2439,
      "hydrodynamic": 2440,
      "sound": 2441,
      "arises": 2442,
      "who": 2443,
      "oscillator": 2444,
      "queries": 2445,
      "conservation": 2446,
      "covariance": 2447,
      "chaotic": 2448,
      "disease": 2449,
      "spiral": 2450,
      "pixel": 2451,
      "hubble": 2452,
      "frames": 2453,
      "emergence": 2454,
      "torus": 2455,
      "##ular": 2456,
      "consumption": 2457,
      "published": 2458,
      "named": 2459,
      "null": 2460,
      "##ta": 2461,
      "60": 2462,
      "doping": 2463,
      "labeled": 2464,
      "adiabatic": 2465,
      "bursts": 2466,
      "advances": 2467,
      "root": 2468,
      "irreducible": 2469,
      "composed": 2470,
      "broken": 2471,
      "sharing": 2472,
      "1d": 2473,
      "heisenberg": 2474,
      "90": 2475,
      "##ding": 2476,
      "spontaneous": 2477,
      "bit": 2478,
      "##ron": 2479,
      "vehicles": 2480,
      "evaluating": 2481,
      "reactions": 2482,
      "classify": 2483,
      "ranging": 2484,
      "dwarfs": 2485,
      "reliability": 2486,
      "##ri": 2487,
      "classifier": 2488,
      "air": 2489,
      "exploiting": 2490,
      "shapes": 2491,
      "targets": 2492,
      "appearance": 2493,
      "contribute": 2494,
      "decoding": 2495,
      "leverage": 2496,
      "viscosity": 2497,
      "max": 2498,
      "prompt": 2499,
      "dots": 2500,
      "generates": 2501,
      "diffraction": 2502,
      "zeta": 2503,
      "pipeline": 2504,
      "recovery": 2505,
      "realization": 2506,
      "interpreted": 2507,
      "tidal": 2508,
      "glass": 2509,
      "##ain": 2510,
      "remarkable": 2511,
      "computations": 2512,
      "incorporating": 2513,
      "units": 2514,
      "enhancing": 2515,
      "expectation": 2516,
      "fiber": 2517,
      "inversion": 2518,
      "videos": 2519,
      "nearest": 2520,
      "combine": 2521,
      "systematically": 2522,
      "consistently": 2523,
      "operating": 2524,
      "factorization": 2525,
      "##ics": 2526,
      "additive": 2527,
      "separate": 2528,
      "implicit": 2529,
      "increasingly": 2530,
      "radii": 2531,
      "##ulation": 2532,
      "designs": 2533,
      "homology": 2534,
      "day": 2535,
      "linearly": 2536,
      "closely": 2537,
      "successful": 2538,
      "cut": 2539,
      "positions": 2540,
      "insight": 2541,
      "services": 2542,
      "introduction": 2543,
      "sl": 2544,
      "grained": 2545,
      "##co": 2546,
      "supersymmetry": 2547,
      "motions": 2548,
      "interstellar": 2549,
      "##ence": 2550,
      "besides": 2551,
      "satisfies": 2552,
      "modeled": 2553,
      "people": 2554,
      "days": 2555,
      "brownian": 2556,
      "connectivity": 2557,
      "stronger": 2558,
      "authors": 2559,
      "##king": 2560,
      "publicly": 2561,
      "uniqueness": 2562,
      "##izable": 2563,
      "merger": 2564,
      "experience": 2565,
      "separated": 2566,
      "##ki": 2567,
      "drift": 2568,
      "macroscopic": 2569,
      "manipulation": 2570,
      "##he": 2571,
      "deviation": 2572,
      "formulate": 2573,
      "identical": 2574,
      "##ger": 2575,
      "exploring": 2576,
      "chern": 2577,
      "##ev": 2578,
      "gradients": 2579,
      "see": 2580,
      "thickness": 2581,
      "blocks": 2582,
      "hold": 2583,
      "##cing": 2584,
      "guided": 2585,
      "match": 2586,
      "split": 2587,
      "spread": 2588,
      "concerning": 2589,
      "eigenvalue": 2590,
      "utilize": 2591,
      "defect": 2592,
      "uniformly": 2593,
      "lowest": 2594,
      "cyclic": 2595,
      "validation": 2596,
      "affected": 2597,
      "pb": 2598,
      "periods": 2599,
      "angles": 2600,
      "mesons": 2601,
      "handle": 2602,
      "fluctuation": 2603,
      "##ulate": 2604,
      "turns": 2605,
      "satisfying": 2606,
      "ideas": 2607,
      "thermodynamics": 2608,
      "mpc": 2609,
      "muon": 2610,
      "##oid": 2611,
      "protein": 2612,
      "derivatives": 2613,
      "##ze": 2614,
      "optimize": 2615,
      "bandwidth": 2616,
      "primordial": 2617,
      "redshifts": 2618,
      "predicts": 2619,
      "##dm": 2620,
      "year": 2621,
      "confined": 2622,
      "atmosphere": 2623,
      "generator": 2624,
      "intersection": 2625,
      "##ned": 2626,
      "brightness": 2627,
      "validity": 2628,
      "recover": 2629,
      "followed": 2630,
      "outcomes": 2631,
      "consequently": 2632,
      "##ifies": 2633,
      "electroweak": 2634,
      "bundle": 2635,
      "combines": 2636,
      "inhomogeneous": 2637,
      "modification": 2638,
      "formulated": 2639,
      "derivation": 2640,
      "holographic": 2641,
      "discussion": 2642,
      "massless": 2643,
      "room": 2644,
      "##ibility": 2645,
      "responses": 2646,
      "purely": 2647,
      "visible": 2648,
      "demonstrating": 2649,
      "riemann": 2650,
      "##ings": 2651,
      "commutative": 2652,
      "##ful": 2653,
      "extent": 2654,
      "facilitate": 2655,
      "topic": 2656,
      "front": 2657,
      "oxygen": 2658,
      "##ist": 2659,
      "slightly": 2660,
      "divergence": 2661,
      "arguments": 2662,
      "variant": 2663,
      "##bed": 2664,
      "molecule": 2665,
      "recurrent": 2666,
      "semantics": 2667,
      "serve": 2668,
      "performs": 2669,
      "odinger": 2670,
      "accelerated": 2671,
      "inherent": 2672,
      "away": 2673,
      "environmental": 2674,
      "analogous": 2675,
      "mm": 2676,
      "##ology": 2677,
      "photometry": 2678,
      "disordered": 2679,
      "subspace": 2680,
      "smart": 2681,
      "zone": 2682,
      "requiring": 2683,
      "significance": 2684,
      "internet": 2685,
      "numerous": 2686,
      "22": 2687,
      "np": 2688,
      "branes": 2689,
      "filtering": 2690,
      "update": 2691,
      "individuals": 2692,
      "downstream": 2693,
      "000": 2694,
      "nonlocal": 2695,
      "briefly": 2696,
      "covid": 2697,
      "release": 2698,
      "descent": 2699,
      "fermionic": 2700,
      "collaboration": 2701,
      "ia": 2702,
      "latency": 2703,
      "parabolic": 2704,
      "largely": 2705,
      "situation": 2706,
      "beams": 2707,
      "tuned": 2708,
      "cores": 2709,
      "##ric": 2710,
      "supernovae": 2711,
      "cdot": 2712,
      "examined": 2713,
      "interfaces": 2714,
      "complementary": 2715,
      "exponentially": 2716,
      "trapped": 2717,
      "avoid": 2718,
      "##od": 2719,
      "dirichlet": 2720,
      "designing": 2721,
      "mills": 2722,
      "microscopy": 2723,
      "augmentation": 2724,
      "independently": 2725,
      "simulate": 2726,
      "multivariate": 2727,
      "suppression": 2728,
      "outside": 2729,
      "geometries": 2730,
      "obtaining": 2731,
      "th": 2732,
      "tail": 2733,
      "locations": 2734,
      "morphology": 2735,
      "secure": 2736,
      "strings": 2737,
      "representing": 2738,
      "conductance": 2739,
      "##to": 2740,
      "confinement": 2741,
      "essentially": 2742,
      "once": 2743,
      "vertical": 2744,
      "stages": 2745,
      "coarse": 2746,
      "diagonal": 2747,
      "correspond": 2748,
      "pt": 2749,
      "situations": 2750,
      "deviations": 2751,
      "##10": 2752,
      "simply": 2753,
      "##ute": 2754,
      "substantially": 2755,
      "arrays": 2756,
      "creation": 2757,
      "students": 2758,
      "mirror": 2759,
      "overview": 2760,
      "augmented": 2761,
      "federated": 2762,
      "##ng": 2763,
      "load": 2764,
      "relevance": 2765,
      "sr": 2766,
      "why": 2767,
      "applicability": 2768,
      "platforms": 2769,
      "proofs": 2770,
      "abstract": 2771,
      "##na": 2772,
      "slope": 2773,
      "damping": 2774,
      "preliminary": 2775,
      "cellular": 2776,
      "attractive": 2777,
      "decisions": 2778,
      "##use": 2779,
      "forecasting": 2780,
      "walk": 2781,
      "lens": 2782,
      "bundles": 2783,
      "mutual": 2784,
      "execution": 2785,
      "timing": 2786,
      "nontrivial": 2787,
      "blue": 2788,
      "hubbard": 2789,
      "height": 2790,
      "controller": 2791,
      "sitter": 2792,
      "micro": 2793,
      "feasible": 2794,
      "calculus": 2795,
      "##ff": 2796,
      "distortion": 2797,
      "genus": 2798,
      "column": 2799,
      "iron": 2800,
      "##son": 2801,
      "charges": 2802,
      "assisted": 2803,
      "##der": 2804,
      "diffuse": 2805,
      "majority": 2806,
      "dissipative": 2807,
      "gaps": 2808,
      "giving": 2809,
      "mostly": 2810,
      "minimization": 2811,
      "recommendation": 2812,
      "association": 2813,
      "companion": 2814,
      "iot": 2815,
      "own": 2816,
      "soliton": 2817,
      "23": 2818,
      "baselines": 2819,
      "convolution": 2820,
      "##ol": 2821,
      "semiconductor": 2822,
      "bosonic": 2823,
      "adding": 2824,
      "exponents": 2825,
      "maxwell": 2826,
      "circ": 2827,
      "violating": 2828,
      "price": 2829,
      "##im": 2830,
      "inelastic": 2831,
      "throughput": 2832,
      "optics": 2833,
      "argument": 2834,
      "stream": 2835,
      "efforts": 2836,
      "peaks": 2837,
      "observatory": 2838,
      "tackle": 2839,
      "list": 2840,
      "95": 2841,
      "li": 2842,
      "variants": 2843,
      "subsequent": 2844,
      "decoder": 2845,
      "##ino": 2846,
      "had": 2847,
      "clearly": 2848,
      "generators": 2849,
      "style": 2850,
      "adopted": 2851,
      "reward": 2852,
      "rest": 2853,
      "sm": 2854,
      "carrier": 2855,
      "papers": 2856,
      "suppressed": 2857,
      "scheduling": 2858,
      "communications": 2859,
      "kinematic": 2860,
      "tension": 2861,
      "milky": 2862,
      "deal": 2863,
      "boltzmann": 2864,
      "jointly": 2865,
      "evaluations": 2866,
      "impurity": 2867,
      "evolving": 2868,
      "rigid": 2869,
      "kerr": 2870,
      "posterior": 2871,
      "laplacian": 2872,
      "deployment": 2873,
      "failure": 2874,
      "supports": 2875,
      "fairness": 2876,
      "pp": 2877,
      "##ick": 2878,
      "substrate": 2879,
      "incorporate": 2880,
      "accessible": 2881,
      "document": 2882,
      "contrastive": 2883,
      "analyse": 2884,
      "subgroup": 2885,
      "duration": 2886,
      "feasibility": 2887,
      "counterparts": 2888,
      "lifetime": 2889,
      "maintaining": 2890,
      "quasars": 2891,
      "majorana": 2892,
      "exotic": 2893,
      "date": 2894,
      "cr": 2895,
      "kinematics": 2896,
      "##ward": 2897,
      "parton": 2898,
      "working": 2899,
      "break": 2900,
      "distinguish": 2901,
      "##op": 2902,
      "aspect": 2903,
      "former": 2904,
      "phenomenological": 2905,
      "singlet": 2906,
      "diameter": 2907,
      "integrating": 2908,
      "##ore": 2909,
      "mesh": 2910,
      "decreasing": 2911,
      "expensive": 2912,
      "inferred": 2913,
      "##ming": 2914,
      "##ations": 2915,
      "geometrical": 2916,
      "fluxes": 2917,
      "initially": 2918,
      "focuses": 2919,
      "solitons": 2920,
      "status": 2921,
      "##ries": 2922,
      "burst": 2923,
      "rigorous": 2924,
      "optimizing": 2925,
      "effort": 2926,
      "aligned": 2927,
      "versions": 2928,
      "losses": 2929,
      "surrounding": 2930,
      "representative": 2931,
      "opposite": 2932,
      "financial": 2933,
      "fail": 2934,
      "proven": 2935,
      "deformations": 2936,
      "resistance": 2937,
      "projected": 2938,
      "noncommutative": 2939,
      "private": 2940,
      "arithmetic": 2941,
      "primarily": 2942,
      "infer": 2943,
      "aggregation": 2944,
      "valuable": 2945,
      "torsion": 2946,
      "strengths": 2947,
      "iteration": 2948,
      "van": 2949,
      "universality": 2950,
      "auxiliary": 2951,
      "crossing": 2952,
      "deg": 2953,
      "perception": 2954,
      "newly": 2955,
      "polymer": 2956,
      "inclusion": 2957,
      "window": 2958,
      "actual": 2959,
      "false": 2960,
      "select": 2961,
      "vs": 2962,
      "averaged": 2963,
      "arxiv": 2964,
      "##ii": 2965,
      "80": 2966,
      "guide": 2967,
      "quantized": 2968,
      "screening": 2969,
      "proposal": 2970,
      "outputs": 2971,
      "##la": 2972,
      "plus": 2973,
      "activation": 2974,
      "vortices": 2975,
      "##ell": 2976,
      "generalizes": 2977,
      "##linear": 2978,
      "laboratory": 2979,
      "thick": 2980,
      "outperform": 2981,
      "cu": 2982,
      "old": 2983,
      "holomorphic": 2984,
      "analogue": 2985,
      "supergravity": 2986,
      "empirically": 2987,
      "admits": 2988,
      "author": 2989,
      "filling": 2990,
      "necessarily": 2991,
      "wavelengths": 2992,
      "la": 2993,
      "reasonable": 2994,
      "anomalies": 2995,
      "grb": 2996,
      "ca": 2997,
      "written": 2998,
      "nn": 2999,
      "minimizing": 3000
    }
  }
}
