{
  "version": "1.0",
  "truncation": null,
  "padding": null,
  "added_tokens": [
    {
      "id": 0,
      "content": "<s>",
      "single_word": false,
      "lstrip": false,
      "rstrip": false,
      "normalized": false,
      "special": true
    },
    {
      "id": 1,
      "content": "<pad>",
      "single_word": false,
      "lstrip": false,
      "rstrip": false,
      "normalized": false,
      "special": true
    },
    {
      "id": 2,
      "content": "</s>",
      "single_word": false,
      "lstrip": false,
      "rstrip": false,
      "normalized": false,
      "special": true
    },
    {
      "id": 3,
      "content": "<unk>",
      "single_word": false,
      "lstrip": false,
      "rstrip": false,
      "normalized": false,
      "special": true
    },
    {
      "id": 4,
      "content": "<mask>",
      "single_word": false,
      "lstrip": false,
      "rstrip": false,
      "normalized": false,
      "special": true
    },
    {
      "id": 5,
      "content": "<|startoftext|>",
      "single_word": false,
      "lstrip": false,
      "rstrip": false,
      "normalized": false,
      "special": true
    },
    {
      "id": 6,
      "content": "<|endoftext|>",
      "single_word": false,
      "lstrip": false,
      "rstrip": false,
      "normalized": false,
      "special": true
    }
  ],
  "normalizer": {
    "type": "NFKC"
  },
  "pre_tokenizer": {
    "type": "ByteLevel",
    "add_prefix_space": true,
    "trim_offsets": true,
    "use_regex": true
  },
  "post_processor": {
    "type": "TemplateProcessing",
    "single": [
      {
        "SpecialToken": {
          "id": "<|startoftext|>",
          "type_id": 0
        }
      },
      {
        "Sequence": {
          "id": "A",
          "type_id": 0
        }
      },
      {
        "SpecialToken": {
          "id": "<|endoftext|>",
          "type_id": 0
        }
      }
    ],
    "pair": [
      {
        "Sequence": {
          "id": "A",
          "type_id": 0
        }
      },
      {
        "Sequence": {
          "id": "B",
          "type_id": 1
        }
      }
    ],
    "special_tokens": {
      "<|endoftext|>": {
        "id": "<|endoftext|>",
        "ids": [
          6
        ],
        "tokens": [
          "<|endoftext|>"
        ]
      },
      "<|startoftext|>": {
        "id": "<|startoftext|>",
        "ids": [
          5
        ],
        "tokens": [
          "<|startoftext|>"
        ]
      }
    }
  },
  "decoder": {
    "type": "ByteLevel",
    "add_prefix_space": true,
    "trim_offsets": true,
    "use_regex": true
  },
  "model": {
    "type": "BPE",
    "dropout": null,
    "unk_token": "<unk>",
    "continuing_subword_prefix": null,
    "end_of_word_suffix": null,
    "fuse_unk": false,
    "byte_fallback": false,
    "ignore_merges": false,
    "vocab": {
      "<s>": 0,
      "<pad>": 1,
      "</s>": 2,
      "<unk>": 3,
      "<mask>": 4,
      "<|startoftext|>": 5,
      "<|endoftext|>": 6,
      "!": 7,
      "\"": 8,
      "#": 9,
      "$": 10,
      "%": 11,
      "&": 12,
      "'": 13,
      "*": 14,
      "+": 15,
      ",": 16,
      "-": 17,
      ".": 18,
      "/": 19,
      "0": 20,
      "1": 21,
      "2": 22,
      "3": 23,
      "4": 24,
      "5": 25,
      "6": 26,
      "7": 27,
      "8": 28,
      "9": 29,
      ":": 30,
      ";": 31,
      "<": 32,
      "=": 33,
      ">": 34,
      "?": 35,
      "@": 36,
      "A": 37,
      "B": 38,
      "C": 39,
      "D": 40,
      "E": 41,
      "F": 42,
      "G": 43,
      "H": 44,
      "I": 45,
      "J": 46,
      "K": 47,
      "L": 48,
      "M": 49,
      "N": 50,
      "O": 51,
      "P": 52,
      "Q": 53,
      "R": 54,
      "S": 55,
      "T": 56,
      "U": 57,
      "V": 58,
      "W": 59,
      "X": 60,
      "Y": 61,
      "Z": 62,
      "[": 63,
      "\\": 64,
      "]": 65,
      "^": 66,
      "_": 67,
      "`": 68,
      "a": 69,
      "b": 70,
      "c": 71,
      "d": 72,
      "e": 73,
      "f": 74,
      "g": 75,
      "h": 76,
      "i": 77,
      "j": 78,
      "k": 79,
      "l": 80,
      "m": 81,
      "n": 82,
      "o": 83,
      "p": 84,
      "q": 85,
      "r": 86,
      "s": 87,
      "t": 88,
      "u": 89,
      "v": 90,
      "w": 91,
      "x": 92,
      "y": 93,
      "z": 94,
      "{": 95,
      "|": 96,
      "}": 97,
      "~": 98,
      "¢": 99,
      "©": 100,
      "¶": 101,
      "¼": 102,
      "Â": 103,
      "Ã": 104,
      "Å": 105,
      "Ġ": 106,
      "Ģ": 107,
      "ģ": 108,
      "ľ": 109,
      "Ŀ": 110,
      "Ġt": 111,
      "Ġa": 112,
      "in": 113,
      "on": 114,
      "ti": 115,
      "er": 116,
      "Ġth": 117,
      "re": 118,
      "en": 119,
      "or": 120,
      "Ġs": 121,
      "al": 122,
      "Ġthe": 123,
      "ing": 124,
      "at": 125,
      "Ġo": 126,
      "Ġc": 127,
      "Ġp": 128,
      "tion": 129,
      "es": 130,
      "ar": 131,
      "ed": 132,
      "it": 133,
      "is": 134,
      "le": 135,
      "Ġd": 136,
      "ro": 137,
      "Ġm": 138,
      "Ġf": 139,
      "an": 140,
      "Ġan": 141,
      "Ġw": 142,
      "Ġof": 143,
      "Ġin": 144,
      "ic": 145,
      "et": 146,
      "Ġb": 147,
      "as": 148,
      "ation": 149,
      "Ġand": 150,
      "ent": 151,
      "ac": 152,
      "el": 153,
      "Ġto": 154,
      "Ġre": 155,
      "st": 156,
      "Ġe": 157,
      "Ġn": 158,
      "od": 159,
      "im": 160,
      "ur": 161,
      "ec": 162,
      "om": 163,
      "Ġpro": 164,
      "ly": 165,
      "ra": 166,
      "us": 167,
      "ve": 168,
      "ul": 169,
      "ith": 170,
      "Ġfor": 171,
      "ce": 172,
      "Ġl": 173,
      "Ġh": 174,
      "un": 175,
      "Ġon": 176,
      "ut": 177,
      "Ġg": 178,
      "ĠT": 179,
      "ow": 180,
      "ver": 181,
      "Ġis": 182,
      "si": 183,
      "Ġcon": 184,
      "ch": 185,
      "arn": 186,
      "Ġthat": 187,
      "res": 188,
      "Ġle": 189,
      "Ġst": 190,
      "ate": 191,
      "per": 192,
      "ab": 193,
      "Ġmod": 194,
      "ork": 195,
      "Ġex": 196,
      "ig": 197,
      "os": 198,
      "Ġwith": 199,
      "ol": 200,
      "Ġcom": 201,
      "Ġwe": 202,
      "for": 203,
      "str": 204,
      "em": 205,
      "Ġmodel": 206,
      "tic": 207,
      "Ġal": 208,
      "arning": 209,
      "am": 210,
      "pl": 211,
      "act": 212,
      "Ġdat": 213,
      "iz": 214,
      "il": 215,
      "ĠW": 216,
      "Ġwh": 217,
      "id": 218,
      "th": 219,
      "ff": 220,
      "ĠA": 221,
      "ĠI": 222,
      "qu": 223,
      "form": 224,
      "ĠTh": 225,
      "ity": 226,
      "work": 227,
      "ge": 228,
      "ĠS": 229,
      "Ġus": 230,
      "Ġas": 231,
      "Ġv": 232,
      "ri": 233,
      "ĠM": 234,
      "pro": 235,
      "Ġab": 236,
      "ach": 237,
      "Ġap": 238,
      "Ġcomp": 239,
      "ts": 240,
      "Ġsu": 241,
      "ĠC": 242,
      "ĠWe": 243,
      "Ġim": 244,
      "Ġlearning": 245,
      "Ġmet": 246,
      "ment": 247,
      "ĠD": 248,
      "tive": 249,
      "ter": 250,
      "Ġbe": 251,
      "Ġde": 252,
      "ess": 253,
      "ir": 254,
      "Ġne": 255,
      "etwork": 256,
      "Ġthis": 257,
      "rain": 258,
      "Ġdata": 259,
      "Ġare": 260,
      "ine": 261,
      "ĠIn": 262,
      "ure": 263,
      "hod": 264,
      "ations": 265,
      "Ġabstr": 266,
      "ain": 267,
      "Ġabstract": 268,
      "Ġcl": 269,
      "Ġmethod": 270,
      "Ġtit": 271,
      "Ġtitle": 272,
      "uc": 273,
      "tim": 274,
      "IN": 275,
      "ari": 276,
      "pos": 277,
      "Ġby": 278,
      "ore": 279,
      "ist": 280,
      "ep": 281,
      "ally": 282,
      "ect": 283,
      "ĠR": 284,
      "Ġres": 285,
      "Ġac": 286,
      "Ġper": 287,
      "di": 288,
      "um": 289,
      "fic": 290,
      "Ġun": 291,
      "Ġsh": 292,
      "ance": 293,
      "red": 294,
      "ble": 295,
      "Ġpropos": 296,
      "Ġcan": 297,
      "ĠL": 298,
      "vel": 299,
      "ĠF": 300,
      "ener": 301,
      "rom": 302,
      "ot": 303,
      "Ġnetwork": 304,
      "Ġad": 305,
      "ers": 306,
      "ased": 307,
      "ĠN": 308,
      "Ġsp": 309,
      "gor": 310,
      "Ġfrom": 311,
      "ĠThe": 312,
      "Ġdi": 313,
      "ĠP": 314,
      "igh": 315,
      "se": 316,
      "ithm": 317,
      "Ġappro": 318,
      "ich": 319,
      "ural": 320,
      "tions": 321,
      "gorithm": 322,
      "able": 323,
      "der": 324,
      "ran": 325,
      "ence": 326,
      "ĠE": 327,
      "Ġit": 328,
      "Ġen": 329,
      "ant": 330,
      "ated": 331,
      "ĠG": 332,
      "Ġwhich": 333,
      "Ġalgorithm": 334,
      "Ġtrain": 335,
      "ap": 336,
      "ĠO": 337,
      "ay": 338,
      "Ġse": 339,
      "ding": 340,
      "Ġgener": 341,
      "Ġat": 342,
      "Ġperform": 343,
      "age": 344,
      "Ġclas": 345,
      "ous": 346,
      "resent": 347,
      "oc": 348,
      "ag": 349,
      "ple": 350,
      "Ġshow": 351,
      "ization": 352,
      "Ġor": 353,
      "ign": 354,
      "ĠB": 355,
      "Ġmodels": 356,
      "Ġint": 357,
      "ical": 358,
      "og": 359,
      "Ġour": 360,
      "ting": 361,
      "blem": 362,
      "Ġpar": 363,
      "Ġch": 364,
      "ask": 365,
      "Ġproblem": 366,
      "ĠH": 367,
      "Ġapproach": 368,
      "Ġop": 369,
      "Ġcont": 370,
      "ution": 371,
      "Ġeff": 372,
      "Ġsy": 373,
      "Ġpa": 374,
      "ph": 375,
      "ere": 376,
      "all": 377,
      "Ġfe": 378,
      "Ġrec": 379,
      "sion": 380,
      "enti": 381,
      "Ġresul": 382,
      "op": 383,
      "rib": 384,
      "redic": 385,
      "Ġacc": 386,
      "ust": 387,
      "por": 388,
      "Ġob": 389,
      "ds": 390,
      "ulti": 391,
      "AT": 392,
      "Ġdiff": 393,
      "Ġbo": 394,
      "Ġtask": 395,
      "est": 396,
      "ents": 397,
      "ion": 398,
      "ack": 399,
      "INE": 400,
      "Ġmethods": 401,
      "MAT": 402,
      "LINE": 403,
      "MATH": 404,
      "INLINE": 405,
      "ten": 406,
      "ven": 407,
      "Ġno": 408,
      "ies": 409,
      "Ġk": 410,
      "Ġ[": 411,
      "Ġperformance": 412,
      "Ġgra": 413,
      "Ġusing": 414,
      "Ġtraining": 415,
      "ures": 416,
      "aset": 417,
      "ost": 418,
      "ie": 419,
      "Ġpredic": 420,
      "ram": 421,
      "ech": 422,
      "Ġdataset": 423,
      "Ġar": 424,
      "Ġvari": 425,
      "Ġoptim": 426,
      "ility": 427,
      "vid": 428,
      "Ġstr": 429,
      "Ġneural": 430,
      "uct": 431,
      "Ġset": 432,
      "alu": 433,
      "cess": 434,
      "Ġsim": 435,
      "ave": 436,
      "Ġqu": 437,
      "Ġpaper": 438,
      "plic": 439,
      "Ġclassi": 440,
      "ific": 441,
      "stem": 442,
      "ad": 443,
      "Ġdist": 444,
      "ction": 445,
      "ak": 446,
      "Ġsc": 447,
      "ular": 448,
      "ative": 449,
      "Ġpropose": 450,
      "Ġbet": 451,
      "enc": 452,
      "and": 453,
      "aly": 454,
      "ud": 455,
      "Ġr": 456,
      "Ġinter": 457,
      "ther": 458,
      "Ġdiffer": 459,
      "Ġinc": 460,
      "Ġsam": 461,
      "ici": 462,
      "ual": 463,
      "fer": 464,
      "ug": 465,
      "Ġproposed": 466,
      "Ġem": 467,
      "Ġresults": 468,
      "Ġsuch": 469,
      "Ġmulti": 470,
      "Ġhigh": 471,
      "onstr": 472,
      "Ġdis": 473,
      "ves": 474,
      "Ġfun": 475,
      "Ġdes": 476,
      "up": 477,
      "Ġfeat": 478,
      "rans": 479,
      "Ġsystem": 480,
      "Ġnetworks": 481,
      "ni": 482,
      "ĠLe": 483,
      "Ġwork": 484,
      "Ġhave": 485,
      "Ġout": 486,
      "fication": 487,
      "Ġover": 488,
      "perim": 489,
      "Ġbased": 490,
      "Ġdeep": 491,
      "Ġhas": 492,
      "ell": 493,
      "ime": 494,
      "Ġrep": 495,
      "NN": 496,
      "Ġreg": 497,
      "Ġro": 498,
      "ĠThis": 499,
      "vers": 500,
      "Ġdem": 501,
      "acy": 502,
      "Ġcomput": 503,
      "Ġimpro": 504,
      "duc": 505,
      "Ġev": 506,
      "Ġpre": 507,
      "Ġdet": 508,
      "so": 509,
      "ard": 510,
      "ĠLearning": 511,
      "tical": 512,
      "put": 513,
      "Ġrepresent": 514,
      "ati": 515,
      "Ġaccur": 516,
      "of": 517,
      "arch": 518,
      "ary": 519,
      "amet": 520,
      "achine": 521,
      "Ġlearn": 522,
      "based": 523,
      "ial": 524,
      "Ġnot": 525,
      "ex": 526,
      "Ġanaly": 527,
      "ors": 528,
      "end": 529,
      "ates": 530,
      "tain": 531,
      "formation": 532,
      "rame": 533,
      "now": 534,
      "Ġprovid": 535,
      "ating": 536,
      "Ġnew": 537,
      "Ġman": 538,
      "Ġdemonstr": 539,
      "Ġes": 540,
      "und": 541,
      "olution": 542,
      "Ġtime": 543,
      "ability": 544,
      "Ġtw": 545,
      "the": 546,
      "Ġthese": 547,
      "Ġstate": 548,
      "Ġall": 549,
      "vi": 550,
      "Ġsign": 551,
      "ramework": 552,
      "ace": 553,
      "if": 554,
      "ĠU": 555,
      "our": 556,
      "ric": 557,
      "ct": 558,
      "Ġunder": 559,
      "we": 560,
      "ĠOur": 561,
      "Ġalgorithms": 562,
      "xim": 563,
      "port": 564,
      "dition": 565,
      "Ġalso": 566,
      "Ġtwo": 567,
      "Ġdistrib": 568,
      "Ġdifferent": 569,
      "ever": 570,
      "ong": 571,
      "ties": 572,
      "are": 573,
      "vis": 574,
      "ile": 575,
      "Ġco": 576,
      "Ġreal": 577,
      "ase": 578,
      "Ġframework": 579,
      "Ġexpl": 580,
      "Ġrel": 581,
      "Ġexperim": 582,
      "ving": 583,
      "Ġpo": 584,
      "Ġtrans": 585,
      "icient": 586,
      "chie": 587,
      "Ġgeneral": 588,
      "ized": 589,
      "art": 590,
      "Ġachie": 591,
      "Ġuse": 592,
      "Ġcomple": 593,
      "ize": 594,
      "Ġnum": 595,
      "Ġgraph": 596,
      "Ġused": 597,
      "ely": 598,
      "Ġlar": 599,
      "ween": 600,
      "ved": 601,
      "Ġdec": 602,
      "Ġinformation": 603,
      "Ġtasks": 604,
      "out": 605,
      "owever": 606,
      "ugh": 607,
      "Ġbetween": 608,
      "Ġsub": 609,
      "Ġmore": 610,
      "ection": 611,
      "sis": 612,
      "Ġestim": 613,
      "abel": 614,
      "Ġapplic": 615,
      "Ġag": 616,
      "Ġtech": 617,
      "Ġnon": 618,
      "Ġtheir": 619,
      "su": 620,
      "Ġpresent": 621,
      "du": 622,
      "pec": 623,
      "Ġclassification": 624,
      "ail": 625,
      "Ġboth": 626,
      "ages": 627,
      "Ġmachine": 628,
      "Ġprocess": 629,
      "pervis": 630,
      "qui": 631,
      "Ġme": 632,
      "Ġdatasets": 633,
      "ast": 634,
      "ens": 635,
      "aus": 636,
      "Ġits": 637,
      "ang": 638,
      "Ġevalu": 639,
      "Ġran": 640,
      "ise": 641,
      "Ġdisc": 642,
      "Ġpr": 643,
      "ational": 644,
      "ark": 645,
      "ĠV": 646,
      "yp": 647,
      "Ġfin": 648,
      "Ġwhere": 649,
      "ber": 650,
      "ory": 651,
      "inear": 652,
      "ments": 653,
      "ide": 654,
      "Ġbeen": 655,
      "Ġeffec": 656,
      "Ġrob": 657,
      "anc": 658,
      "ext": 659,
      "Ġatt": 660,
      "omain": 661,
      "Ġaccuracy": 662,
      "ser": 663,
      "sive": 664,
      "Ġnovel": 665,
      "ĠHowever": 666,
      "ĠNe": 667,
      "Ġparamet": 668,
      "ĠTo": 669,
      "ĠNetwork": 670,
      "erm": 671,
      "ree": 672,
      "ĠCon": 673,
      "niqu": 674,
      "Ġstruct": 675,
      "Ġknow": 676,
      "ĠEx": 677,
      "istic": 678,
      "yn": 679,
      "Ġdemonstrate": 680,
      "ret": 681,
      "ision": 682,
      "ples": 683,
      "ip": 684,
      "Ġlarge": 685,
      "Ġass": 686,
      "Ġfunction": 687,
      "allen": 688,
      "Ġmat": 689,
      "pervised": 690,
      "Ġclass": 691,
      "chit": 692,
      "Ġ2": 693,
      "Ġtechniqu": 694,
      "isting": 695,
      "duce": 696,
      "Ġcomm": 697,
      "ĠDe": 698,
      "Ġcor": 699,
      "Ġfeatures": 700,
      "led": 701,
      "ome": 702,
      "ren": 703,
      "ness": 704,
      "versari": 705,
      "Ġwhen": 706,
      "irst": 707,
      "ension": 708,
      "ight": 709,
      "Ġthan": 710,
      "olic": 711,
      "ied": 712,
      "ential": 713,
      "Ġchallen": 714,
      "Ġwell": 715,
      "Ġaut": 716,
      "chitect": 717,
      "imension": 718,
      "ob": 719,
      "Ġcomplex": 720,
      "Ġstud": 721,
      "velop": 722,
      "ality": 723,
      "ress": 724,
      "tr": 725,
      "Ġeach": 726,
      "Ġsol": 727,
      "Ġimprove": 728,
      "vely": 729,
      "Ġ1": 730,
      "Ġup": 731,
      "Ġdesign": 732,
      "til": 733,
      "versarial": 734,
      "Ġdevelop": 735,
      "Ġnumber": 736,
      "Ġlow": 737,
      "Ġintro": 738,
      "Ġpri": 739,
      "over": 740,
      "Ġone": 741,
      "ill": 742,
      "Ġtra": 743,
      "Ġonly": 744,
      "les": 745,
      "ful": 746,
      "Ġinto": 747,
      "Ġdomain": 748,
      "ue": 749,
      "Ġimage": 750,
      "int": 751,
      "Ġarchitect": 752,
      "ency": 753,
      "olog": 754,
      "get": 755,
      "Ġanalysis": 756,
      "Ġobj": 757,
      "ty": 758,
      "ĠRe": 759,
      "ia": 760,
      "ĠDeep": 761,
      "Ġproblems": 762,
      "Ġsignific": 763,
      "Ġlabel": 764,
      "ynam": 765,
      "Ġrequi": 766,
      "Ġmin": 767,
      "Ġoptimization": 768,
      "urther": 769,
      "ros": 770,
      "Ġother": 771,
      "Ġcap": 772,
      "Ġprediction": 773,
      "Ġform": 774,
      "Ġstudy": 775,
      "Ġsignificant": 776,
      "ier": 777,
      "to": 778,
      "Ġinput": 779,
      "Ġpl": 780,
      "oss": 781,
      "Ġexp": 782,
      "Ġexisting": 783,
      "Ġben": 784,
      "bed": 785,
      "ference": 786,
      "Ġexperiments": 787,
      "Ġrobust": 788,
      "ĠNeural": 789,
      "ression": 790,
      "dient": 791,
      "'s": 792,
      "Ġfirst": 793,
      "ik": 794,
      "Ġbut": 795,
      "ix": 796,
      "Ġefficient": 797,
      "ared": 798,
      "Ġsystems": 799,
      "Ġloc": 800,
      "rough": 801,
      "Ġapproaches": 802,
      "rol": 803,
      "ern": 804,
      "Ġsm": 805,
      "Ġconsi": 806,
      "earch": 807,
      "urren": 808,
      "Ġprovide": 809,
      "ib": 810,
      "fy": 811,
      "Ġph": 812,
      "Ġwhile": 813,
      "utions": 814,
      "Ġver": 815,
      "ynamic": 816,
      "Ġspace": 817,
      "ite": 818,
      "Ġav": 819,
      "ledge": 820,
      "Ġdistribution": 821,
      "ering": 822,
      "tern": 823,
      "atic": 824,
      "volution": 825,
      "ld": 826,
      "Ġconsider": 827,
      "Ġapproxim": 828,
      "Ġapplications": 829,
      "Ġmany": 830,
      "ode": 831,
      "force": 832,
      "ross": 833,
      "low": 834,
      "Ġloss": 835,
      "Ġid": 836,
      "urrent": 837,
      "Ġmak": 838,
      "Ġgi": 839,
      "Ġfeature": 840,
      "Ġsetting": 841,
      "Ġsimul": 842,
      "tiv": 843,
      "Ġobser": 844,
      "Ġrecent": 845,
      "ctions": 846,
      "perform": 847,
      "Ġexam": 848,
      "orld": 849,
      "anti": 850,
      "imit": 851,
      "her": 852,
      "Ġi": 853,
      "Ġstructure": 854,
      "Ġmost": 855,
      "raph": 856,
      "inforce": 857,
      "Ġpolic": 858,
      "ditional": 859,
      "Ġdetection": 860,
      "inforcement": 861,
      "mentation": 862,
      "lu": 863,
      "line": 864,
      "Ġcomb": 865,
      "verg": 866,
      "Ġimport": 867,
      "Ġchalleng": 868,
      "ĠAd": 869,
      "uman": 870,
      "Ġspec": 871,
      "Ġidenti": 872,
      "iel": 873,
      "Ġhow": 874,
      "par": 875,
      "ose": 876,
      "ĠK": 877,
      "Ġtyp": 878,
      "Ġer": 879,
      "Ġlimit": 880,
      "Ġsever": 881,
      "Ġincre": 882,
      "mark": 883,
      "Ġtechniques": 884,
      "Ġadap": 885,
      "oun": 886,
      "Ġmeas": 887,
      "atis": 888,
      "Ġimages": 889,
      "Ġadversarial": 890,
      "Ġdo": 891,
      "Ġspe": 892,
      "Ġresearch": 893,
      "Ġtrained": 894,
      "Ġexten": 895,
      "Ġoutperform": 896,
      "Ġclust": 897,
      "udi": 898,
      "Net": 899,
      "Ġtr": 900,
      "astic": 901,
      "Ġam": 902,
      "ental": 903,
      "Ġpartic": 904,
      "ĠAn": 905,
      "Ġbetter": 906,
      "Ġknowledge": 907,
      "its": 908,
      "ĠRec": 909,
      "cep": 910,
      "angu": 911,
      "ator": 912,
      "Ġcol": 913,
      "Ġser": 914,
      "sing": 915,
      "ĠNetworks": 916,
      "Ġthrough": 917,
      "ood": 918,
      "Ġmultiple": 919,
      "Ġerr": 920,
      "rect": 921,
      "Ġembed": 922,
      "Ġy": 923,
      "supervised": 924,
      "Ġcontrol": 925,
      "ale": 926,
      "Ġlat": 927,
      "Ġcons": 928,
      "Ġsele": 929,
      "Ġconst": 930,
      "con": 931,
      "ases": 932,
      "Ġallow": 933,
      "Ġgradient": 934,
      "arget": 935,
      "Ġgro": 936,
      "Ġsequ": 937,
      "Ġ3": 938,
      "Ġind": 939,
      "Ġattack": 940,
      "Ġdynamic": 941,
      "Ġadd": 942,
      "Ġwithout": 943,
      "Ġobjec": 944,
      ".,": 945,
      "NNs": 946,
      "ĠCom": 947,
      "Ġlay": 948,
      "ĠMod": 949,
      "ian": 950,
      "Ġbi": 951,
      "Ġrepresentation": 952,
      "Ġdep": 953,
      "Ġproper": 954,
      "ĠPro": 955,
      "Ġma": 956,
      "Ġlinear": 957,
      "Ġobtain": 958,
      "Ġminim": 959,
      "Ġparameters": 960,
      "ertain": 961,
      "vir": 962,
      "gy": 963,
      "pir": 964,
      "ines": 965,
      "Ġvia": 966,
      "ub": 967,
      "Ġclassif": 968,
      "ilar": 969,
      "iew": 970,
      "izing": 971,
      "Ġseveral": 972,
      "Ġhuman": 973,
      "Ġpat": 974,
      "ically": 975,
      "ish": 976,
      "dom": 977,
      "Ġavail": 978,
      "Ġsyn": 979,
      "Ġdesc": 980,
      "oy": 981,
      "ature": 982,
      "viron": 983,
      "ted": 984,
      "eri": 985,
      "orm": 986,
      "tention": 987,
      "Ġprob": 988,
      "Ġtest": 989,
      "pon": 990,
      "Ġreduc": 991,
      "Ġmo": 992,
      "vious": 993,
      "eg": 994,
      "chmark": 995,
      "ware": 996,
      "Ġtarget": 997,
      "Ġvalu": 998,
      "ĠOn": 999,
      "Ġthey": 1000,
      "Ġterm": 1001,
      "volutional": 1002,
      "uring": 1003,
      "Ġbas": 1004,
      "vergence": 1005,
      "chastic": 1006,
      "ĠIm": 1007,
      "Ġtheore": 1008,
      "Ġenc": 1009,
      "anguage": 1010,
      "Ġlocal": 1011,
      "Ġrandom": 1012,
      "Ġinference": 1013,
      "Ġprac": 1014,
      "Ġoptimal": 1015,
      "Ġgu": 1016,
      "Ġra": 1017,
      "Ġthere": 1018,
      "Ġintroduce": 1019,
      "Ġcost": 1020,
      "ities": 1021,
      "Ġcompared": 1022,
      "Ġvarious": 1023,
      "Ġsome": 1024,
      "Ġenviron": 1025,
      "Ġsamples": 1026,
      "avi": 1027,
      "tively": 1028,
      "tig": 1029,
      "Ġfact": 1030,
      "ables": 1031,
      "las": 1032,
      "Ġfunctions": 1033,
      "imensional": 1034,
      "Ġadv": 1035,
      "Ġavailable": 1036,
      "Ġbenchmark": 1037,
      "Ġaddress": 1038,
      "Ġbeh": 1039,
      "Ġhe": 1040,
      "ĠModel": 1041,
      "Ġrepresentations": 1042,
      "ances": 1043,
      "ward": 1044,
      "AN": 1045,
      "vari": 1046,
      "ann": 1047,
      "Ġdef": 1048,
      "Ġdecision": 1049,
      "Ġsing": 1050,
      "ject": 1051,
      "ĠUn": 1052,
      "Ġany": 1053,
      "Ġembedding": 1054,
      "Ġarchitecture": 1055,
      "Ġinst": 1056,
      "Ġthen": 1057,
      "rained": 1058,
      "ower": 1059,
      "Ġapp": 1060,
      "rel": 1061,
      "ĠAl": 1062,
      "Ġsem": 1063,
      "Ġinterp": 1064,
      "ploy": 1065,
      "uld": 1066,
      "pling": 1067,
      "Ġstrate": 1068,
      "ism": 1069,
      "Ġj": 1070,
      "Ġparticular": 1071,
      "ogni": 1072,
      "als": 1073,
      "Ġsimilar": 1074,
      "Ġsmall": 1075,
      "Ġspar": 1076,
      "elf": 1077,
      "ences": 1078,
      "Ġoften": 1079,
      "Ġautom": 1080,
      "ource": 1081,
      "ayes": 1082,
      "Ġmay": 1083,
      "Ġachieve": 1084,
      "action": 1085,
      "Ġsuc": 1086,
      "Ġcommun": 1087,
      "world": 1088,
      "Ġerror": 1089,
      "sp": 1090,
      "Ġimportant": 1091,
      "oth": 1092,
      "ĠWh": 1093,
      "Ġbec": 1094,
      "ĠFor": 1095,
      "Ġprevious": 1096,
      "Ġpolicy": 1097,
      "Ġsingle": 1098,
      "Ġu": 1099,
      "Ġsur": 1100,
      "Ġgiven": 1101,
      "ral": 1102,
      "ernel": 1103,
      "fficient": 1104,
      "Ġneed": 1105,
      "Ġbound": 1106,
      "Ġextr": 1107,
      "ys": 1108,
      "ond": 1109,
      "Ġoper": 1110,
      "ocus": 1111,
      "Ġmain": 1112,
      "ĠQ": 1113,
      "Ġcombin": 1114,
      "Ġfurther": 1115,
      "Ġquanti": 1116,
      "ĠBayes": 1117,
      "Ġorder": 1118,
      "Ġcomputational": 1119,
      "aract": 1120,
      "oint": 1121,
      "rix": 1122,
      "Ġcomplexity": 1123,
      "Ġcompar": 1124,
      "reat": 1125,
      "Ġimple": 1126,
      "abil": 1127,
      "ently": 1128,
      "Ġempir": 1129,
      "ene": 1130,
      "Ġstand": 1131,
      "Ġassum": 1132,
      "Ġbehavi": 1133,
      "ising": 1134,
      "empor": 1135,
      "vic": 1136,
      "Ġmeasure": 1137,
      "Ġutil": 1138,
      "de": 1139,
      "Ġthem": 1140,
      "Ġdue": 1141,
      "Ġpos": 1142,
      "lying": 1143,
      "Ġsimple": 1144,
      "ord": 1145,
      "Ġfocus": 1146,
      "Ġhy": 1147,
      "ĠMulti": 1148,
      "luding": 1149,
      "ike": 1150,
      "Ġsuccess": 1151,
      "uil": 1152,
      "Ġregular": 1153,
      "epend": 1154,
      "Ġsignificantly": 1155,
      "aracter": 1156,
      "Ġsch": 1157,
      "isual": 1158,
      "ognition": 1159,
      "Ġtop": 1160,
      "Ġmem": 1161,
      "Ġso": 1162,
      "val": 1163,
      "Ġstatis": 1164,
      "sc": 1165,
      "Ġincluding": 1166,
      "Ġsample": 1167,
      "te": 1168,
      "Ġappl": 1169,
      "Ġthree": 1170,
      "ey": 1171,
      "Ġconf": 1172,
      "Ġstandard": 1173,
      "agn": 1174,
      "oder": 1175,
      "Ġpower": 1176,
      "Ġpop": 1177,
      "Ġlanguage": 1178,
      "ture": 1179,
      "Ġunc": 1180,
      "Ġsto": 1181,
      "Ġcall": 1182,
      "Ġpriv": 1183,
      "Ġstudi": 1184,
      "Ġmetric": 1185,
      "verage": 1186,
      "Ġacross": 1187,
      "ulation": 1188,
      "Ġconvergence": 1189,
      "ĠAs": 1190,
      "Ġmean": 1191,
      "ling": 1192,
      "vex": 1193,
      "ĠIt": 1194,
      "omm": 1195,
      "Ġbest": 1196,
      "Ġcommon": 1197,
      "Ġstochastic": 1198,
      "ology": 1199,
      "Ġspecific": 1200,
      "Ġinterpret": 1201,
      "sition": 1202,
      "Ġlatent": 1203,
      "sian": 1204,
      "Ġsame": 1205,
      "pecific": 1206,
      "Ġcharacter": 1207,
      "ST": 1208,
      "Ġful": 1209,
      "Ġ\"": 1210,
      "Ġreinforcement": 1211,
      "Ġprog": 1212,
      "lect": 1213,
      "Ġcontext": 1214,
      "Ġoutperforms": 1215,
      "emporal": 1216,
      "ĠEn": 1217,
      "sible": 1218,
      "Ġcontin": 1219,
      "Ġfind": 1220,
      "Ġsearch": 1221,
      "Ġeven": 1222,
      "Ġrequire": 1223,
      "Ġestimation": 1224,
      "air": 1225,
      "Ġnat": 1226,
      "rop": 1227,
      "00": 1228,
      "inal": 1229,
      "ected": 1230,
      "Ġpot": 1231,
      "dimensional": 1232,
      "ata": 1233,
      "Ġlearned": 1234,
      "Ġtext": 1235,
      "Ġclustering": 1236,
      "Ġgeneralization": 1237,
      "Ġmap": 1238,
      "Ġhand": 1239,
      "Ġstep": 1240,
      "ĠBayesian": 1241,
      "Ġbuil": 1242,
      "Ġprior": 1243,
      "tial": 1244,
      "veness": 1245,
      "Ġattention": 1246,
      "Ġnoise": 1247,
      "echan": 1248,
      "Ġconstrain": 1249,
      "ield": 1250,
      "ards": 1251,
      "iter": 1252,
      "Ġrate": 1253,
      "atch": 1254,
      "Ġcomputation": 1255,
      "Ġunderst": 1256,
      "aging": 1257,
      "Ġtransfer": 1258,
      "Ġmatrix": 1259,
      "Ġend": 1260,
      "Ġeffective": 1261,
      "Ġuser": 1262,
      "Ġterms": 1263,
      "Ġbl": 1264,
      "ĠOp": 1265,
      "ĠGraph": 1266,
      "Ġregression": 1267,
      "not": 1268,
      "vestig": 1269,
      "Ġrem": 1270,
      "ort": 1271,
      "Ġcaus": 1272,
      "ĠTrans": 1273,
      "ĠML": 1274,
      "uted": 1275,
      "uch": 1276,
      "imin": 1277,
      "ĠGener": 1278,
      "Ġscal": 1279,
      "ĠSt": 1280,
      "Ġquality": 1281,
      "Ġsec": 1282,
      "Ġsup": 1283,
      "arant": 1284,
      "Ġinf": 1285,
      "Ġcase": 1286,
      "Ġens": 1287,
      "AR": 1288,
      "arante": 1289,
      "Ġchallenging": 1290,
      "Ġkernel": 1291,
      "ĠFin": 1292,
      "plicit": 1293,
      "Ġapplied": 1294,
      "Ġtheoretical": 1295,
      "Ġoutput": 1296,
      "Ġbasel": 1297,
      "Ġevaluate": 1298,
      "Ġseg": 1299,
      "Ġpredict": 1300,
      "ector": 1301,
      "ety": 1302,
      "Ġcurrent": 1303,
      "Ġevaluation": 1304,
      "Ġproperties": 1305,
      "Ġway": 1306,
      "Ġonline": 1307,
      "Ġinvestig": 1308,
      "duct": 1309,
      "iciency": 1310,
      "odes": 1311,
      "Ġsolution": 1312,
      "paramet": 1313,
      "alid": 1314,
      "lic": 1315,
      "antic": 1316,
      "Ġscen": 1317,
      "Ġmechan": 1318,
      "Ġdimension": 1319,
      "Ġachieves": 1320,
      "Ġobserv": 1321,
      "Ġderi": 1322,
      "uous": 1323,
      "verse": 1324,
      "ĠFurther": 1325,
      "ough": 1326,
      "ĠMore": 1327,
      "aussian": 1328,
      "ually": 1329,
      "ately": 1330,
      "Ġdirect": 1331,
      "ound": 1332,
      "sig": 1333,
      "lob": 1334,
      "Ġguarante": 1335,
      "Ġexamples": 1336,
      "ĠExperim": 1337,
      "izes": 1338,
      "linear": 1339,
      "Ġfew": 1340,
      "till": 1341,
      "Ġidentify": 1342,
      "Ġmaxim": 1343,
      "Ġprom": 1344,
      "reg": 1345,
      "Ġvisual": 1346,
      "tiveness": 1347,
      "old": 1348,
      "Ġvalid": 1349,
      "fore": 1350,
      "raining": 1351,
      "Ġlevel": 1352,
      "one": 1353,
      "Ġcr": 1354,
      "Ġmodeling": 1355,
      "Ġanalyz": 1356,
      "Ġprovides": 1357,
      "Ġallows": 1358,
      "Ġparameter": 1359,
      "uning": 1360,
      "anding": 1361,
      "Ġschem": 1362,
      "Ġuncertain": 1363,
      "iers": 1364,
      "Ġintroduc": 1365,
      "Ġimp": 1366,
      "Ġexper": 1367,
      "Ġexplo": 1368,
      "ax": 1369,
      "Ġissu": 1370,
      "ear": 1371,
      "Ġconvolutional": 1372,
      "ese": 1373,
      "Ġrobustness": 1374,
      "Ġconstr": 1375,
      "lish": 1376,
      "Ġtak": 1377,
      "Ġlea": 1378,
      "Ġtechnique": 1379,
      "Ġkey": 1380,
      "Ġgenerative": 1381,
      "ints": 1382,
      "Ġsize": 1383,
      "tur": 1384,
      "Ġconc": 1385,
      "Ġknown": 1386,
      "ĠAut": 1387,
      "usion": 1388,
      "Ġeffectiveness": 1389,
      "Ġ20": 1390,
      "unds": 1391,
      "Ġlong": 1392,
      "Ġmed": 1393,
      "ĠRL": 1394,
      "asing": 1395,
      "Ġpers": 1396,
      "Ġvery": 1397,
      "ced": 1398,
      "thetic": 1399,
      "ĠGaussian": 1400,
      "ult": 1401,
      "Ġresult": 1402,
      "Ġaim": 1403,
      "Ġefficiency": 1404,
      "Ġmemory": 1405,
      "ensor": 1406,
      "Ġduring": 1407,
      "level": 1408,
      "uction": 1409,
      "ics": 1410,
      "Ġrecognition": 1411,
      "Ġmechanism": 1412,
      "Ġscenari": 1413,
      "ner": 1414,
      "Ġextract": 1415,
      "erated": 1416,
      "Ġlabels": 1417,
      "ators": 1418,
      "Ġshown": 1419,
      "Ġarchitectures": 1420,
      "ping": 1421,
      "Ġtool": 1422,
      "Ġsampling": 1423,
      "ead": 1424,
      "Ġattacks": 1425,
      "Ġpoint": 1426,
      "Ġable": 1427,
      "ces": 1428,
      "time": 1429,
      "ĠData": 1430,
      "Ġnatural": 1431,
      "ĠFinally": 1432,
      "rid": 1433,
      "lobal": 1434,
      "ĠSp": 1435,
      "ount": 1436,
      "ream": 1437,
      "ĠMachine": 1438,
      "view": 1439,
      "ĠAp": 1440,
      "Ġsparse": 1441,
      "ensive": 1442,
      "Ġnorm": 1443,
      "Ġwas": 1444,
      "Ġiter": 1445,
      "Ġfore": 1446,
      "ov": 1447,
      "Ġselection": 1448,
      "Ġconn": 1449,
      "ĠRes": 1450,
      "Ġwid": 1451,
      "Ġabout": 1452,
      "king": 1453,
      "ainst": 1454,
      "Ġindi": 1455,
      "ĠUsing": 1456,
      "Ġdistributions": 1457,
      "Ġpattern": 1458,
      "Ġlimited": 1459,
      "aces": 1460,
      "Ġobjective": 1461,
      "isk": 1462,
      "Ġpopular": 1463,
      "Ġdepend": 1464,
      "ependent": 1465,
      "Ġgo": 1466,
      "Ġprivacy": 1467,
      "Ġenvironment": 1468,
      "mm": 1469,
      "esting": 1470,
      "ĠAt": 1471,
      "Ġequ": 1472,
      "Ġhyper": 1473,
      "ĠThese": 1474,
      "Ġinteg": 1475,
      "Ġstrong": 1476,
      "know": 1477,
      "Ġcompon": 1478,
      "Ġuni": 1479,
      "scale": 1480,
      "Ġcommunic": 1481,
      "Ġcalled": 1482,
      "Ġpotential": 1483,
      "Ġclassifier": 1484,
      "Ġconsist": 1485,
      "lo": 1486,
      "Ġrelations": 1487,
      "Ġphys": 1488,
      "Ġtransform": 1489,
      "Ġdiffic": 1490,
      "Ġapplication": 1491,
      "omet": 1492,
      "ily": 1493,
      "]-": 1494,
      "Ġsemantic": 1495,
      "cc": 1496,
      "Ġsets": 1497,
      "ensi": 1498,
      "Ġdynamics": 1499,
      "Ġlog": 1500,
      "ible": 1501,
      "ined": 1502,
      "Ġagainst": 1503,
      "Ġbehavior": 1504,
      "Ġautomatic": 1505,
      "Ġpres": 1506,
      "ense": 1507,
      "Ġpredictions": 1508,
      "Ġseries": 1509,
      "Ġbounds": 1510,
      "Ġmake": 1511,
      "ock": 1512,
      "Ġwill": 1513,
      "Ġsynthetic": 1514,
      "known": 1515,
      "ains": 1516,
      "Ġindivid": 1517,
      "Ġnumer": 1518,
      "Ġoff": 1519,
      "Ġsource": 1520,
      "Ġstudies": 1521,
      "inc": 1522,
      "Ġrele": 1523,
      "tivity": 1524,
      "vol": 1525,
      "Ġsuper": 1526,
      "ption": 1527,
      "Ġhard": 1528,
      "oring": 1529,
      "Ġhel": 1530,
      "ind": 1531,
      "lassi": 1532,
      "Ġusers": 1533,
      "gg": 1534,
      "Ġlower": 1535,
      "po": 1536,
      "ĠDi": 1537,
      "ired": 1538,
      "Ġself": 1539,
      "Ġlayer": 1540,
      "ably": 1541,
      "Ġback": 1542,
      "cept": 1543,
      "Ġwithin": 1544,
      "Ġempirical": 1545,
      "Ġrecomm": 1546,
      "oci": 1547,
      "Ġpub": 1548,
      "Ġdomains": 1549,
      "more": 1550,
      "tically": 1551,
      "Ġgraphs": 1552,
      "Ġpossible": 1553,
      "Ġglobal": 1554,
      "Ġspati": 1555,
      "Ġcontinuous": 1556,
      "hip": 1557,
      "Ġgenerate": 1558,
      "ER": 1559,
      "ĠOptim": 1560,
      "Ġexperimental": 1561,
      "Ġchallenges": 1562,
      "wise": 1563,
      "Ġimplement": 1564,
      "Ġdetect": 1565,
      "ights": 1566,
      "ffer": 1567,
      "Ġuncertainty": 1568,
      "Ġdeterm": 1569,
      "Ġapproximation": 1570,
      "Ġsettings": 1571,
      "Ġgenerated": 1572,
      "Ġaccurate": 1573,
      "Ġques": 1574,
      "Ġsupervised": 1575,
      "Ġproduc": 1576,
      "ified": 1577,
      "ĠMoreover": 1578,
      "ould": 1579,
      "Ġvariables": 1580,
      "sh": 1581,
      "Ġed": 1582,
      "oding": 1583,
      "Ġaddition": 1584,
      "av": 1585,
      "ason": 1586,
      "Ġmis": 1587,
      "Ġindividual": 1588,
      "Ġagent": 1589,
      "Ġcontr": 1590,
      "vices": 1591,
      "Ġstatistical": 1592,
      "Ġstrategy": 1593,
      "Ġgroup": 1594,
      "lud": 1595,
      "ule": 1596,
      "respon": 1597,
      "Ġincor": 1598,
      "Ġcode": 1599,
      "ditions": 1600,
      "ierarch": 1601,
      "Ġprobability": 1602,
      "wards": 1603,
      "ĠFurthermore": 1604,
      "Ġorig": 1605,
      "Ġadapt": 1606,
      "lec": 1607,
      "ribut": 1608,
      "eti": 1609,
      "ef": 1610,
      "ison": 1611,
      "Ġsegmentation": 1612,
      "Ġemploy": 1613,
      "Ġchallenge": 1614,
      "ĠCh": 1615,
      "Ġprocessing": 1616,
      "rimin": 1617,
      "Ġvalue": 1618,
      "ixed": 1619,
      "uture": 1620,
      "eli": 1621,
      "Ġpoints": 1622,
      "Ġlayers": 1623,
      "Ġupd": 1624,
      "Ġspeech": 1625,
      "Ġreconstr": 1626,
      "Ġunsupervised": 1627,
      "Ġpost": 1628,
      "Ġsequence": 1629,
      "Ġgeneration": 1630,
      "epar": 1631,
      "ID": 1632,
      "Ġability": 1633,
      "ĠMet": 1634,
      "ets": 1635,
      "Ġagents": 1636,
      "ederated": 1637,
      "Ġini": 1638,
      "Ġrisk": 1639,
      "Ġcorrel": 1640,
      "Ġamong": 1641,
      "ron": 1642,
      "Ġjoint": 1643,
      "],": 1644,
      "ĠWhile": 1645,
      "Ġthus": 1646,
      "Ġge": 1647,
      "hood": 1648,
      "ially": 1649,
      "Ġconditions": 1650,
      "ane": 1651,
      "ĠCNN": 1652,
      "ooth": 1653,
      "Ġcorrespon": 1654,
      "Ġincreasing": 1655,
      "inary": 1656,
      "ĠReinforcement": 1657,
      "Ġuses": 1658,
      "Ġexplore": 1659,
      "ĠGAN": 1660,
      "Ġobject": 1661,
      "Ġhelp": 1662,
      "ry": 1663,
      "Ġvide": 1664,
      "ilter": 1665,
      "Ġsolve": 1666,
      "Ġcases": 1667,
      "Ġaug": 1668,
      "Ġsolutions": 1669,
      "ficial": 1670,
      "Ġfuture": 1671,
      "Ġdiscus": 1672,
      "com": 1673,
      "Ġwere": 1674,
      "Ġnam": 1675,
      "Ġcoun": 1676,
      "ĠEm": 1677,
      "Ġdri": 1678,
      "label": 1679,
      "Ġhigher": 1680,
      "Ġintegr": 1681,
      "Ġcre": 1682,
      "Ġcho": 1683,
      "tics": 1684,
      "Ġdoes": 1685,
      "Ġclasses": 1686,
      "ĠDet": 1687,
      "Ġeas": 1688,
      "Ġif": 1689,
      "oration": 1690,
      "Ġdistributed": 1691,
      "Ġrequires": 1692,
      "Ġ0": 1693,
      "ological": 1694,
      "Ġpractical": 1695,
      "emble": 1696,
      "Ġspeed": 1697,
      "Ġreduce": 1698,
      "Ġprove": 1699,
      "Ġconstraints": 1700,
      "anced": 1701,
      "Ġadvant": 1702,
      "ive": 1703,
      "ogene": 1704,
      "Ġcapture": 1705,
      "Ġachieved": 1706,
      "].": 1707,
      "ribution": 1708,
      "Ġworks": 1709,
      "agnos": 1710,
      "Ġfas": 1711,
      "entially": 1712,
      "Ġprobabil": 1713,
      "ibr": 1714,
      "Ġener": 1715,
      "Ġmatch": 1716,
      "Ġobtained": 1717,
      "Ġext": 1718,
      "Ġincorpor": 1719,
      "ĠPredic": 1720,
      "oft": 1721,
      "Ġtheory": 1722,
      "Ġet": 1723,
      "ollow": 1724,
      "ules": 1725,
      "Ġcommunication": 1726,
      "Ġ-": 1727,
      "Ġfair": 1728,
      "Ġexploit": 1729,
      "ĠDes": 1730,
      "Ġweight": 1731,
      "Ġdescrib": 1732,
      "Ġrange": 1733,
      "Ġgam": 1734,
      "Ġsupport": 1735,
      "eter": 1736,
      "alth": 1737,
      "Ġmuch": 1738,
      "Ġunderlying": 1739,
      "ources": 1740,
      "Ġsignal": 1741,
      "Ġenti": 1742,
      "bo": 1743,
      "Ġweights": 1744,
      "Ġtemporal": 1745,
      "cas": 1746,
      "ĠCont": 1747,
      "af": 1748,
      "Ġpublic": 1749,
      "ĠAdversarial": 1750,
      "Ġ9": 1751,
      "Ġcompeti": 1752,
      "Ġtypes": 1753,
      "ice": 1754,
      "Ġfield": 1755,
      "Ġenergy": 1756,
      "back": 1757,
      "Ġopen": 1758,
      "Ġpair": 1759,
      "learning": 1760,
      "ously": 1761,
      "ĠAI": 1762,
      "atively": 1763,
      "Ġdirectly": 1764,
      "tional": 1765,
      "Ġspect": 1766,
      "ays": 1767,
      "Ġsugg": 1768,
      "trained": 1769,
      "Ġimproves": 1770,
      "ields": 1771,
      "vant": 1772,
      "Ġproced": 1773,
      "Ġprogram": 1774,
      "ink": 1775,
      "Ġnode": 1776,
      "ĠClassi": 1777,
      "Ġimproved": 1778,
      "Ġthose": 1779,
      "ablish": 1780,
      "ĠWith": 1781,
      "ĠBy": 1782,
      "Ġpracti": 1783,
      "Ġrecently": 1784,
      "Ġaltern": 1785,
      "ade": 1786,
      "Ġhighly": 1787,
      "Ġpredictive": 1788,
      "Ġefficiently": 1789,
      "Ġclassifiers": 1790,
      "Ġdiscover": 1791,
      "Ġinterest": 1792,
      "ience": 1793,
      "establish": 1794,
      "Ġconvex": 1795,
      "Ġgood": 1796,
      "ellig": 1797,
      "Ġinitial": 1798,
      "antum": 1799,
      "Ġbeing": 1800,
      "pect": 1801,
      "Ġstill": 1802,
      "Ġpati": 1803,
      "Ġconduct": 1804,
      "jec": 1805,
      "Ġtraditional": 1806,
      "Ġsepar": 1807,
      "Ġdeveloped": 1808,
      "19": 1809,
      "Ġfinding": 1810,
      "requ": 1811,
      "Ġpertur": 1812,
      "own": 1813,
      "Ġcri": 1814,
      "onal": 1815,
      "Ġview": 1816,
      "Ġdiscrimin": 1817,
      "Ġoriginal": 1818,
      "ince": 1819,
      "Ġquer": 1820,
      "entral": 1821,
      "ify": 1822,
      "Ġnodes": 1823,
      "Ġregret": 1824,
      "ĠSpecific": 1825,
      "GD": 1826,
      "Ġscenarios": 1827,
      "Ġapply": 1828,
      "ions": 1829,
      "gies": 1830,
      "ement": 1831,
      "den": 1832,
      "Ġreason": 1833,
      "Ġscheme": 1834,
      "Ġnois": 1835,
      "ĠGP": 1836,
      "Ġrun": 1837,
      "Ġassoci": 1838,
      "annel": 1839,
      "Ġlike": 1840,
      "Ġcould": 1841,
      "Ġuseful": 1842,
      "Ġcal": 1843,
      "ior": 1844,
      "Ġbias": 1845,
      "Ġvalues": 1846,
      "Ġpatterns": 1847,
      "Ġvariety": 1848,
      "Ġmon": 1849,
      "Ġvector": 1850,
      "Ġmaking": 1851,
      "Ġsuccessful": 1852,
      "Ġgreat": 1853,
      "Ġimprovement": 1854,
      "Ġwidely": 1855,
      "Ġide": 1856,
      "Ġless": 1857,
      "Ġreward": 1858,
      "Ġdistance": 1859,
      "Ġfully": 1860,
      "Ġenvironments": 1861,
      "ears": 1862,
      "AE": 1863,
      "Ġembeddings": 1864,
      "Ġchang": 1865,
      "Ġgoal": 1866,
      "Ġestablish": 1867,
      "Ġregularization": 1868,
      "ĠSpecifically": 1869,
      "ĠCO": 1870,
      "ass": 1871,
      "ighb": 1872,
      "oenc": 1873,
      "Ġcompare": 1874,
      "Ġfeed": 1875,
      "ded": 1876,
      "Ġinvol": 1877,
      "Ġliter": 1878,
      "Ġunderstanding": 1879,
      "Ġexample": 1880,
      "Ġfactor": 1881,
      "ants": 1882,
      "ange": 1883,
      "ĠImage": 1884,
      "ging": 1885,
      "ym": 1886,
      "ĠFe": 1887,
      "Ġestimate": 1888,
      "bit": 1889,
      "Ġresulting": 1890,
      "Ġprec": 1891,
      "Ġimpact": 1892,
      "Ġannot": 1893,
      "Ġbaseline": 1894,
      "Ġflow": 1895,
      "Ġshows": 1896,
      "Ġrelated": 1897,
      "Ġdeploy": 1898,
      "Ġinvestigate": 1899,
      "lass": 1900,
      "Ġ5": 1901,
      "ause": 1902,
      "ategor": 1903,
      "Ġfollow": 1904,
      "Ġrecommend": 1905,
      "Ġdeg": 1906,
      "Ġmetrics": 1907,
      "Ġanalyze": 1908,
      "sigh": 1909,
      "Ġwor": 1910,
      "Ġcross": 1911,
      "ither": 1912,
      "Ġexplicit": 1913,
      "Ġinterac": 1914,
      "Ġill": 1915,
      "oid": 1916,
      "Ġliterature": 1917,
      "ierarchical": 1918,
      "Ġfail": 1919,
      "Ġindic": 1920,
      "off": 1921,
      "Ġaccel": 1922,
      "Ġdiscuss": 1923,
      "alle": 1924,
      "Ġenh": 1925,
      "Ġprot": 1926,
      "Ġagg": 1927,
      "onom": 1928,
      "esis": 1929,
      "Ġlarg": 1930,
      "ocial": 1931,
      "Ġscale": 1932,
      "Ġfilter": 1933,
      "Ġfac": 1934,
      "Ġsubs": 1935,
      "ensity": 1936,
      "Ġdescent": 1937,
      "Ġent": 1938,
      "riven": 1939,
      "Ġ4": 1940,
      "ĠThere": 1941,
      "ĠModels": 1942,
      "CA": 1943,
      "Ġdesigned": 1944,
      "pecially": 1945,
      "tificial": 1946,
      "Ġband": 1947,
      "rete": 1948,
      "pag": 1949,
      "valu": 1950,
      "ffic": 1951,
      "Ġsecond": 1952,
      "lex": 1953,
      "Ġbenef": 1954,
      "Ġlever": 1955,
      "Ġaverage": 1956,
      "ayer": 1957,
      "eterogene": 1958,
      "arly": 1959,
      "Ġlearns": 1960,
      "Ġdevices": 1961,
      "ressive": 1962,
      "Ġguarantees": 1963,
      "jor": 1964,
      "Ġret": 1965,
      "odal": 1966,
      "Ġenables": 1967,
      "ans": 1968,
      "Ġperturb": 1969,
      "allel": 1970,
      "Ġapproximate": 1971,
      "Ġfast": 1972,
      "ĠReg": 1973,
      "ĠDis": 1974,
      "Ġstrategies": 1975,
      "Ġpolicies": 1976,
      "Ġfound": 1977,
      "pled": 1978,
      "Ġrelationship": 1979,
      "Ġsuperior": 1980,
      "rection": 1981,
      "sequ": 1982,
      "Ġexplan": 1983,
      "Ġwide": 1984,
      "Ġexplain": 1985,
      "Ġobserved": 1986,
      "arg": 1987,
      "ĠMark": 1988,
      "Ġinclud": 1989,
      "Ġprinc": 1990,
      "Ġshort": 1991,
      "ĠConvolutional": 1992,
      "Ġadaptive": 1993,
      "Ġpromising": 1994,
      "Ġreduction": 1995,
      "Ġnumerical": 1996,
      "istics": 1997,
      "Ġfine": 1998,
      "ĠTransform": 1999,
      "Ġdifficult": 2000,
      "Ġaff": 2001,
      "Ġsignals": 2002,
      "fact": 2003,
      "Ġlik": 2004,
      "Ġnormal": 2005,
      "DP": 2006,
      "AS": 2007,
      "Ġmajor": 2008,
      "Ġformul": 2009,
      "Ġtim": 2010,
      "ĠDNN": 2011,
      "Ġsimilarity": 2012,
      "gth": 2013,
      "Ġunknown": 2014,
      "Ġadditional": 2015,
      "Ġsoft": 2016,
      "Ġespecially": 2017,
      "Ġnoisy": 2018,
      "ptions": 2019,
      "med": 2020,
      "Ġspatial": 2021,
      "ĠAr": 2022,
      "Ġpath": 2023,
      "Ġcategor": 2024,
      "RL": 2025,
      "order": 2026,
      "Ġmeta": 2027,
      "Ġassess": 2028,
      "casting": 2029,
      "Ġcomputing": 2030,
      "Ġaggreg": 2031,
      "Ġlabeled": 2032,
      "Ġcomparison": 2033,
      "Ġgeomet": 2034,
      "ient": 2035,
      "Ġstructures": 2036,
      "Ġsk": 2037,
      "Ġrespon": 2038,
      "ĠSh": 2039,
      "Ġlo": 2040,
      "ĠAnaly": 2041,
      "fied": 2042,
      "ĠQu": 2043,
      "Ġmedical": 2044,
      "Ġeffectively": 2045,
      "Ġdown": 2046,
      "Ġquantum": 2047,
      "Ġconstruct": 2048,
      "Ġobjects": 2049,
      "Ġsens": 2050,
      "Ġinsigh": 2051,
      "lation": 2052,
      "Ġaction": 2053,
      "Ġextensive": 2054,
      "Ġanom": 2055,
      "STM": 2056,
      "Ġeither": 2057,
      "ĠSc": 2058,
      "Ġvariational": 2059,
      "Ġhealth": 2060,
      "Ġvision": 2061,
      "Ġrespec": 2062,
      "Ġcritical": 2063,
      "ĠRob": 2064,
      "ather": 2065,
      "tane": 2066,
      "Ġactiv": 2067,
      "Ġensemble": 2068,
      "Ġyears": 2069,
      "Ġworld": 2070,
      "ĠAppro": 2071,
      "itting": 2072,
      "ucture": 2073,
      "Ġequi": 2074,
      "Ġinputs": 2075,
      "idden": 2076,
      "ins": 2077,
      "ĠInter": 2078,
      "Ġvideo": 2079,
      "ystem": 2080,
      "round": 2081,
      "Ġmix": 2082,
      "elihood": 2083,
      "Ġissue": 2084,
      "Ġimportance": 2085,
      "Ġclassical": 2086,
      "rem": 2087,
      "Ġobservations": 2088,
      "Ġprobabilistic": 2089,
      "lection": 2090,
      "cent": 2091,
      "Ġclin": 2092,
      "Ġleads": 2093,
      "driven": 2094,
      "ring": 2095,
      "Ġdevelopment": 2096,
      "ventional": 2097,
      "ape": 2098,
      "Ġexperiment": 2099,
      "Ġnonlinear": 2100,
      "Ġbecause": 2101,
      "hib": 2102,
      "Ġpractice": 2103,
      "Ġcertain": 2104,
      "Ġsimulation": 2105,
      "Ġbinary": 2106,
      "Ġquestion": 2107,
      "ests": 2108,
      "ĠSe": 2109,
      "ĠJ": 2110,
      "ĠBased": 2111,
      "Ġcomputer": 2112,
      "DE": 2113,
      "Ġlack": 2114,
      "ĠDetection": 2115,
      "Ġselect": 2116,
      "ecess": 2117,
      "Ġreli": 2118,
      "Ġsmooth": 2119,
      "ĠGra": 2120,
      "Ġsimultane": 2121,
      "Ġneg": 2122,
      "Ġeffect": 2123,
      "Ġ8": 2124,
      "Ġsolving": 2125,
      "Ġrecover": 2126,
      "Ġsensi": 2127,
      "Ġcausal": 2128,
      "ograph": 2129,
      "ons": 2130,
      "ero": 2131,
      "Ġfaster": 2132,
      "Ġeng": 2133,
      "ĠVari": 2134,
      "Ġtraject": 2135,
      "Ġsaf": 2136,
      "pite": 2137,
      "specific": 2138,
      "Ġsocial": 2139,
      "Ġposi": 2140,
      "sw": 2141,
      "Ġte": 2142,
      "Ġcomponents": 2143,
      "Ġtechn": 2144,
      "Ġattribut": 2145,
      "ĠMarkov": 2146,
      "fter": 2147,
      "ĠExperiments": 2148,
      "ĠSim": 2149,
      "ĠClassification": 2150,
      "ĠComp": 2151,
      "Ġacceler": 2152,
      "shot": 2153,
      "Ġtrade": 2154,
      "Ġcoll": 2155,
      "Ġcorresponding": 2156,
      "Ġamount": 2157,
      "Ġgrow": 2158,
      "Ġprocedure": 2159,
      "Ġgap": 2160,
      "ording": 2161,
      "Ġprocesses": 2162,
      "Ġfull": 2163,
      "Ġref": 2164,
      "Ġcur": 2165,
      "Ġsuit": 2166,
      "Ġadop": 2167,
      "ĠPar": 2168,
      "ĠCI": 2169,
      "Ġneighb": 2170,
      "Ġcondition": 2171,
      "10": 2172,
      "udio": 2173,
      "Ġfactors": 2174,
      "Ġderive": 2175,
      "Ġflex": 2176,
      "Ġexploration": 2177,
      "Ġdiagnos": 2178,
      "Ġrequired": 2179,
      "ĠHere": 2180,
      "ands": 2181,
      "Ġpoly": 2182,
      "Ġfrequ": 2183,
      "Ġemer": 2184,
      "Ġheterogene": 2185,
      "Ġreconstruction": 2186,
      "Ġmakes": 2187,
      "Ġcompetitive": 2188,
      "Ġintellig": 2189,
      "ĠDec": 2190,
      "ok": 2191,
      "vice": 2192,
      "Ġconcept": 2193,
      "Ġevaluated": 2194,
      "like": 2195,
      "dam": 2196,
      "Ġbecome": 2197,
      "ectors": 2198,
      "Ġtypically": 2199,
      "Ġfixed": 2200,
      "box": 2201,
      "Ġscore": 2202,
      "Ġrelevant": 2203,
      "ĠRep": 2204,
      "Ġtowards": 2205,
      "come": 2206,
      "abor": 2207,
      "Ġtesting": 2208,
      "Ġchannel": 2209,
      "pr": 2210,
      "Ġsemi": 2211,
      "ether": 2212,
      "Ġdecom": 2213,
      "ĠDist": 2214,
      "anning": 2215,
      "ĠSV": 2216,
      "Ġlead": 2217,
      "Ġempirically": 2218,
      "Ġtraffic": 2219,
      "ustr": 2220,
      "Ġparallel": 2221,
      "task": 2222,
      "reh": 2223,
      "ĠMan": 2224,
      "Ġhowever": 2225,
      "ĠCl": 2226,
      "Ġtype": 2227,
      "Ġfairness": 2228,
      "Ġparti": 2229,
      "Ġdise": 2230,
      "tives": 2231,
      "Ġautomatically": 2232,
      "erior": 2233,
      "Ġrespect": 2234,
      "ocu": 2235,
      "Ġbenchmarks": 2236,
      "position": 2237,
      "Ġdiverse": 2238,
      "ĠOne": 2239,
      "pose": 2240,
      "ĠDNNs": 2241,
      "Ġfundam": 2242,
      "Ġcar": 2243,
      "ĠFirst": 2244,
      "bitr": 2245,
      "ĠOptimization": 2246,
      "hic": 2247,
      "Ġreve": 2248,
      "optim": 2249,
      "training": 2250,
      "Ġact": 2251,
      "ĠExperimental": 2252,
      "VID": 2253,
      "though": 2254,
      "Ġassociated": 2255,
      "pt": 2256,
      "pective": 2257,
      "GAN": 2258,
      "ming": 2259,
      "ĠProcess": 2260,
      "ning": 2261,
      "Ġstates": 2262,
      "Ġintr": 2263,
      "Ġrespectively": 2264,
      "Ġpart": 2265,
      "Ġusually": 2266,
      "Ġrecurrent": 2267,
      "ML": 2268,
      "Ġinteractions": 2269,
      "Ġii": 2270,
      "variant": 2271,
      "Ġblock": 2272,
      "ĠFL": 2273,
      "Ġincrease": 2274,
      "pagation": 2275,
      "Ġcollect": 2276,
      "Ġcounter": 2277,
      "Ġnecess": 2278,
      "Ġword": 2279,
      "Ġitem": 2280,
      "Ġsynth": 2281,
      "Ġillustr": 2282,
      "Ġdemonstrated": 2283,
      "igm": 2284,
      "Ġdiscrete": 2285,
      "Ġbaselines": 2286,
      "Ġprinci": 2287,
      "riv": 2288,
      "Ġyet": 2289,
      "ĠSystem": 2290,
      "Ġaccess": 2291,
      "Ġimplementation": 2292,
      "Ġassumptions": 2293,
      "Ġpresents": 2294,
      "Ġrates": 2295,
      "ick": 2296,
      "Ġchanges": 2297,
      "Ġhidden": 2298,
      "ĠAnalysis": 2299,
      "tensive": 2300,
      "Ġphysical": 2301,
      "fying": 2302,
      "ropy": 2303,
      "ĠX": 2304,
      "free": 2305,
      "Ġissues": 2306,
      "Ġreview": 2307,
      "Ġmeasures": 2308,
      "Ġarbitr": 2309,
      "Ġsimultaneously": 2310,
      "Ġconventional": 2311,
      "Ġvariable": 2312,
      "20": 2313,
      "Ġadaptation": 2314,
      "Ġhierarchical": 2315,
      "spired": 2316,
      "rices": 2317,
      "Ġpreser": 2318,
      "Ġmarg": 2319,
      "parameter": 2320,
      "variance": 2321,
      "Ġ6": 2322,
      "Ġindependent": 2323,
      "Ġmade": 2324,
      "ĠAc": 2325,
      "Ms": 2326,
      "ĠAdap": 2327,
      "Ġbel": 2328,
      "Ġocc": 2329,
      "dients": 2330,
      "labeled": 2331,
      "ibility": 2332,
      "Ġcomputationally": 2333,
      "Ġz": 2334,
      "Ġconditional": 2335,
      "Ġess": 2336,
      "Ġimprovements": 2337,
      "Ġavoid": 2338,
      "Ġclos": 2339,
      "ĠRecent": 2340,
      "Ġfam": 2341,
      "Ġinstance": 2342,
      "Ġvariance": 2343,
      "Ġshould": 2344,
      "Ġmanif": 2345,
      "ores": 2346,
      "ĠGenerative": 2347,
      "Ġclinical": 2348,
      "ĠExpl": 2349,
      "Ġinfer": 2350,
      "Ġcompression": 2351,
      "Ġsatis": 2352,
      "Ġfour": 2353,
      "Ġestimates": 2354,
      "rog": 2355,
      "Ġaims": 2356,
      "row": 2357,
      "ining": 2358,
      "Ġconsidered": 2359,
      "sity": 2360,
      "Ġprovided": 2361,
      "Ġtree": 2362,
      "Ġcontain": 2363,
      "Ġintroduced": 2364,
      "brid": 2365,
      "raw": 2366,
      "ĠLSTM": 2367,
      "ĠNon": 2368,
      "FAR": 2369,
      "Ġfinite": 2370,
      "ĠCOVID": 2371,
      "Ġtack": 2372,
      "Ġproduce": 2373,
      "stream": 2374,
      "ĠRobust": 2375,
      "ories": 2376,
      "Ġimproving": 2377,
      "Ġweak": 2378,
      "Ġedge": 2379,
      "AC": 2380,
      "Ġcorrect": 2381,
      "convex": 2382,
      "ĠAlgorithm": 2383,
      "Ġinduc": 2384,
      "Ġtreat": 2385,
      "oders": 2386,
      "Ġpredicting": 2387,
      "Ġtools": 2388,
      "Ġleverage": 2389,
      "Ġwhether": 2390,
      "ĠRepresent": 2391,
      "Ġalign": 2392,
      "Ġsufficient": 2393,
      "Ġsequential": 2394,
      "Ġfundamental": 2395,
      "ffor": 2396,
      "Ġcannot": 2397,
      "zation": 2398,
      "Ġinstances": 2399,
      "ĠSec": 2400,
      "ification": 2401,
      "Ġpur": 2402,
      "Ġartificial": 2403,
      "Ġdensity": 2404,
      "Ġautoenc": 2405,
      "Ġcruc": 2406,
      "Ġcontrast": 2407,
      "ĠCIFAR": 2408,
      "Ġinflu": 2409,
      "Ġsince": 2410,
      "Ġalong": 2411,
      "efficient": 2412,
      "ses": 2413,
      "Ġever": 2414,
      "Ġspecial": 2415,
      "Ġforecasting": 2416,
      "atform": 2417,
      "Ġrank": 2418,
      "alog": 2419,
      "Ġpresented": 2420,
      "Ġ201": 2421,
      "ored": 2422,
      "Ġactions": 2423,
      "Ġactive": 2424,
      "NI": 2425,
      "ges": 2426,
      "ĠEs": 2427,
      "RI": 2428,
      "Ġhist": 2429,
      "ders": 2430,
      "bal": 2431,
      "Ġbrain": 2432,
      "rie": 2433,
      "ĠCo": 2434,
      "Ġexact": 2435,
      "Ġshif": 2436,
      "Ġlink": 2437,
      "Ġsuggest": 2438,
      "ultim": 2439,
      "Ġexpected": 2440,
      "Ġmanner": 2441,
      "Ġtake": 2442,
      "Ġproposes": 2443,
      "Ġaudio": 2444,
      "ERT": 2445,
      "Ġtimes": 2446,
      "pri": 2447,
      "ition": 2448,
      "eck": 2449,
      "Ġprim": 2450,
      "ender": 2451,
      "obile": 2452,
      "ĠGradient": 2453,
      "Ġversion": 2454,
      "DA": 2455,
      "Ġcompute": 2456,
      "Ġproviding": 2457,
      "Ġsequences": 2458,
      "Ġcombination": 2459,
      "Ġfeedback": 2460,
      "Ġhardware": 2461,
      "Ġansw": 2462,
      "omial": 2463,
      "Ġconver": 2464,
      "adigm": 2465,
      "idence": 2466,
      "Ġdocu": 2467,
      "Ġwho": 2468,
      "ypoth": 2469,
      "Ġgive": 2470,
      "itud": 2471,
      "ĠTraining": 2472,
      "Ġbuild": 2473,
      "Ġpowerful": 2474,
      "ĠCNNs": 2475,
      "Ġmaintain": 2476,
      "ital": 2477,
      "Ġcle": 2478,
      "olicy": 2479,
      "Ġground": 2480,
      "aling": 2481,
      "Ġperforms": 2482,
      "rees": 2483,
      "light": 2484,
      "Ġalternative": 2485,
      "Ġposterior": 2486,
      "ĠPre": 2487,
      "ath": 2488,
      "term": 2489,
      "Ġrely": 2490,
      "Ġstream": 2491,
      "encies": 2492,
      "Ġcrucial": 2493,
      "Ġele": 2494,
      "Ġspaces": 2495,
      "Ġcompreh": 2496,
      "Ġrobo": 2497,
      "space": 2498,
      "Ġeffects": 2499,
      "ĠMo": 2500,
      "Ġ7": 2501,
      "onomous": 2502,
      "Ġchange": 2503,
      "Ġsubst": 2504,
      "ĠThen": 2505,
      "Ġlikelihood": 2506,
      "Ġrole": 2507,
      "Ġel": 2508,
      "ĠWhen": 2509,
      "Ġparadigm": 2510,
      "Ġtri": 2511,
      "isation": 2512,
      "Ġnature": 2513,
      "Ġve": 2514,
      "Ġengine": 2515,
      "ĠStr": 2516,
      "Ġperformed": 2517,
      "Ġblack": 2518,
      "Ġtensor": 2519,
      "ipel": 2520,
      "ĠMethod": 2521,
      "Ġadvantage": 2522,
      "read": 2523,
      "ampling": 2524,
      "ĠInt": 2525,
      "Ġexpensive": 2526,
      "variate": 2527,
      "Ġconnec": 2528,
      "ĠPrediction": 2529,
      "Ġcommunity": 2530,
      "Ġbuilding": 2531,
      "Ġaugmentation": 2532,
      "ft": 2533,
      "Ġgain": 2534,
      "Ġgenerating": 2535,
      "Ġcharacteristics": 2536,
      "Ġcomparable": 2537,
      "Ġdifferential": 2538,
      "Ġplay": 2539,
      "Ġproperty": 2540,
      "Ġsumm": 2541,
      "Ġenable": 2542,
      "Ġplatform": 2543,
      "Ġdescribe": 2544,
      "Ġdetail": 2545,
      "Ġstructured": 2546,
      "ĠDiffer": 2547,
      "Ġextend": 2548,
      "itig": 2549,
      "Ġsubstanti": 2550,
      "CN": 2551,
      "ĠAcc": 2552,
      "Ġinstead": 2553,
      "aking": 2554,
      "ĠFederated": 2555,
      "astive": 2556,
      "Ġmotiv": 2557,
      "Ġvectors": 2558,
      "Ġcomponent": 2559,
      "Ġexhib": 2560,
      "Ġgeneralize": 2561,
      "Ġconsum": 2562,
      "Ġphase": 2563,
      "Ġbatch": 2564,
      "Ġvalidate": 2565,
      "Ġfederated": 2566,
      "Ġquery": 2567,
      "Ġmapping": 2568,
      "Ġrecommendation": 2569,
      "ĠSGD": 2570,
      "Ġinterpretable": 2571,
      "ĠExtensive": 2572,
      "acking": 2573,
      "Ġart": 2574,
      "layer": 2575,
      "ute": 2576,
      "Ġcontent": 2577,
      "ditionally": 2578,
      "cri": 2579,
      "Ġassumption": 2580,
      "urity": 2581,
      "Ġcriter": 2582,
      "Ġsparsity": 2583,
      "mmet": 2584,
      "Ġidentification": 2585,
      "Ġwhat": 2586,
      "Ġarg": 2587,
      "Ġpatients": 2588,
      "vey": 2589,
      "Ġmissing": 2590,
      "ixel": 2591,
      "cei": 2592,
      "Ġmagn": 2593,
      "LP": 2594,
      "dustr": 2595,
      "Ġdraw": 2596,
      "irc": 2597,
      "Ġeasily": 2598,
      "Ġgame": 2599,
      "Ġhypoth": 2600,
      "Ġregions": 2601,
      "Ġunderstand": 2602,
      "bers": 2603,
      "ler": 2604,
      "sign": 2605,
      "ĠUnder": 2606,
      "Ġvehic": 2607,
      "Ġpipel": 2608,
      "ne": 2609,
      "Ġencoder": 2610,
      "ĠAlthough": 2611,
      "Ġtran": 2612,
      "Ġarea": 2613,
      "Ġstudied": 2614,
      "other": 2615,
      "Ġpositive": 2616,
      "tal": 2617,
      "Ġdr": 2618,
      "Ġspectral": 2619,
      "Ġimplicit": 2620,
      "aware": 2621,
      "ends": 2622,
      "iting": 2623,
      "Ġfacil": 2624,
      "ou": 2625,
      "ĠEstim": 2626,
      "seen": 2627,
      "entralized": 2628,
      "Ġmolec": 2629,
      "vent": 2630,
      "arm": 2631,
      "Ġcommonly": 2632,
      "ĠMon": 2633,
      "Ġtrue": 2634,
      "Ġresi": 2635,
      "ĠSem": 2636,
      "erial": 2637,
      "Ġafter": 2638,
      "Ġenhance": 2639,
      "enom": 2640,
      "Ġpreviously": 2641,
      "Ġextrem": 2642,
      "Ġsent": 2643,
      "Ġelect": 2644,
      "Ġboost": 2645,
      "ĠRecently": 2646,
      "Ġreport": 2647,
      "face": 2648,
      "Ġerrors": 2649,
      "Ġsimulations": 2650,
      "Ġextraction": 2651,
      "Ġresources": 2652,
      "Ġrepl": 2653,
      "itation": 2654,
      "Ġestimator": 2655,
      "Ġgradients": 2656,
      "Ġexpon": 2657,
      "Ġmaps": 2658,
      "yc": 2659,
      "Ġactivation": 2660,
      "stric": 2661,
      "Ġstructural": 2662,
      "Ġmaximum": 2663,
      "Ġachieving": 2664,
      "ĠTransformer": 2665,
      "Ġeffor": 2666,
      "ĠGeneral": 2667,
      "que": 2668,
      "Ġarbitrary": 2669,
      "Ġformulation": 2670,
      "optimal": 2671,
      "Ġapplying": 2672,
      "versity": 2673,
      "ĠSto": 2674,
      "Ġmark": 2675,
      "Ġidea": 2676,
      "Ġsuccessfully": 2677,
      "ĠDL": 2678,
      "Ġcluster": 2679,
      "Ġsteps": 2680,
      "ymp": 2681,
      "Ġvol": 2682,
      "Ġsuitable": 2683,
      "Ġinteraction": 2684,
      "ĠTherefore": 2685,
      "ĠEfficient": 2686,
      "Ġremains": 2687,
      "Ġsit": 2688,
      "Ġdecisions": 2689,
      "alities": 2690,
      "Ġheterogeneous": 2691,
      "Ġwould": 2692,
      "Ġartic": 2693,
      "nomial": 2694,
      "ympto": 2695,
      "by": 2696,
      "Ġdifferenti": 2697,
      "Ġrelative": 2698,
      "Ġunlabeled": 2699,
      "Ġcapable": 2700,
      "Ġmeaning": 2701,
      "NIST": 2702,
      "Ġmitig": 2703,
      "Ġimaging": 2704,
      "Ġshowing": 2705,
      "andom": 2706,
      "Ġupper": 2707,
      "tle": 2708,
      "pid": 2709,
      "ĠPer": 2710,
      "Ġmatrices": 2711,
      "resh": 2712,
      "aker": 2713,
      "Ġneur": 2714,
      "Ġleast": 2715,
      "Ġmatching": 2716,
      "Ġunseen": 2717,
      "aving": 2718,
      "Ġpe": 2719,
      "Ġreach": 2720,
      "ĠStochastic": 2721,
      "Ġmethodology": 2722,
      "Ġresource": 2723,
      "Ġretrie": 2724,
      "Ġinsights": 2725,
      "Ġfacilit": 2726,
      "Ġperspective": 2727,
      "Ġnamely": 2728,
      "Ġsimpl": 2729,
      "Ġzero": 2730,
      "ĠSecond": 2731,
      "Ġoverall": 2732,
      "Ġlimitations": 2733,
      "rank": 2734,
      "Ġsimulated": 2735,
      "ĠAutom": 2736,
      "Ġreduced": 2737,
      "Ġones": 2738,
      "Ġbecom": 2739,
      "Ġexist": 2740,
      "ĠGANs": 2741,
      "Ġbro": 2742,
      "Ġfields": 2743,
      "Ġdepth": 2744,
      "Ġnear": 2745,
      "ength": 2746,
      "class": 2747,
      "Ġcollected": 2748,
      "igur": 2749,
      "ided": 2750,
      "izations": 2751,
      "Ġstability": 2752,
      "mod": 2753,
      "Ġclusters": 2754,
      "Ġdisease": 2755,
      "LU": 2756,
      "ĠMe": 2757,
      "Ġperturbations": 2758,
      "Ġexpert": 2759,
      "ĠDespite": 2760,
      "sib": 2761,
      "process": 2762,
      "Ġheur": 2763,
      "Ġpast": 2764,
      "Ġevents": 2765,
      "Ġevery": 2766,
      "ĠRandom": 2767,
      "ologies": 2768,
      "Ġattributes": 2769,
      "Ġlevels": 2770,
      "sists": 2771,
      "Ġessential": 2772,
      "Ġcare": 2773,
      "Ġwhose": 2774,
      "oper": 2775,
      "ocal": 2776,
      "Ġrestric": 2777,
      "jection": 2778,
      "ove": 2779,
      "abilities": 2780,
      "Ġphysics": 2781,
      "ĠGNNs": 2782,
      "AP": 2783,
      "Ġaccount": 2784,
      "Ġconstraint": 2785,
      "Ġaccurately": 2786,
      "Ġsubset": 2787,
      "Ġexec": 2788,
      "Ġlarger": 2789,
      "Ġinterpretability": 2790,
      "Ġaugment": 2791,
      "Ġcapt": 2792,
      "Ġjointly": 2793,
      "tun": 2794,
      "emb": 2795,
      "Ġmonit": 2796,
      "Ġ\\": 2797,
      "Ġanomaly": 2798,
      "ĠTra": 2799,
      "pervision": 2800,
      "Ġreducing": 2801,
      "Ġoptimize": 2802,
      "Ġleading": 2803,
      "gan": 2804,
      "ĠApproach": 2805,
      "ĠY": 2806,
      "Ġappropri": 2807,
      "Ġillustrate": 2808,
      "Ġsci": 2809,
      "Ġdownstream": 2810,
      "Ġ10": 2811,
      "ustom": 2812,
      "ingu": 2813,
      "Ġadvantages": 2814,
      "Ġutility": 2815,
      "Ġconsistent": 2816,
      "man": 2817,
      "Ġinform": 2818,
      "Ġhybrid": 2819,
      "Ġrobot": 2820,
      "Ġautomated": 2821,
      "Ġbenefits": 2822,
      "Ġsafety": 2823,
      "eff": 2824,
      "Ġevid": 2825,
      "Ġdescri": 2826,
      "Ġplanning": 2827,
      "Ġindustr": 2828,
      "Ġtranslation": 2829,
      "ordin": 2830,
      "uth": 2831,
      "Ġdimensionality": 2832,
      "Ġdefined": 2833,
      "Ġlight": 2834,
      "ĠDisc": 2835,
      "Ġconcern": 2836,
      "Ġmeasurements": 2837,
      "Ġnegative": 2838,
      "Ġmal": 2839,
      "Ġpresence": 2840,
      "Ġcorrelation": 2841,
      "Ġcalc": 2842,
      "Ġselec": 2843,
      "acity": 2844,
      "Ġshar": 2845,
      "ĠDynamic": 2846,
      "Ġexplanations": 2847,
      "Ġprecision": 2848,
      "Ġteach": 2849,
      "Ġconsists": 2850,
      "Ġmotion": 2851,
      "Ġmodern": 2852,
      "Ġinher": 2853,
      "EG": 2854,
      "Ġranking": 2855,
      "Ġtackle": 2856,
      "Ġconstant": 2857,
      "Ġcombined": 2858,
      "Ġoutputs": 2859,
      "Ġpairs": 2860,
      "Ġsources": 2861,
      "ĠPo": 2862,
      "Ġtopic": 2863,
      "Ġmic": 2864,
      "Ġrealistic": 2865,
      "Ġevent": 2866,
      "arying": 2867,
      "Ġbal": 2868,
      "Ġmust": 2869,
      "Ġreduces": 2870,
      "ĠTime": 2871,
      "Ġscores": 2872,
      "Ġradi": 2873,
      "Ġchoice": 2874,
      "Ġexplicitly": 2875,
      "Ġattem": 2876,
      "head": 2877,
      "MM": 2878,
      "ulner": 2879,
      "Ġguarantee": 2880,
      "Ġadj": 2881,
      "Ġrather": 2882,
      "Ġresearchers": 2883,
      "Ġbandit": 2884,
      "ĠNo": 2885,
      "Ġschemes": 2886,
      "ings": 2887,
      "Ġscalable": 2888,
      "Ġhandle": 2889,
      "less": 2890,
      "ĠMI": 2891,
      "Ġoperations": 2892,
      "Ġextension": 2893,
      "ults": 2894,
      "ĠSuch": 2895,
      "Ġconducted": 2896,
      "ists": 2897,
      "achines": 2898,
      "Ġperforming": 2899,
      "Ġpruning": 2900,
      "Ġrules": 2901,
      "Ġrequ": 2902,
      "rup": 2903,
      "dependent": 2904,
      "Ġpolynomial": 2905,
      "Ġmath": 2906,
      "Ġmixture": 2907,
      "Ġupdate": 2908,
      "Ġpersonal": 2909,
      "Ġmodule": 2910,
      "ĠCT": 2911,
      "Ġcell": 2912,
      "Ġaccording": 2913,
      "ationary": 2914,
      "ĠTw": 2915,
      "Ġparticularly": 2916,
      "Ġfamily": 2917,
      "ope": 2918,
      "ks": 2919,
      "Ġsystematic": 2920,
      "ĠOb": 2921,
      "ormal": 2922,
      "ious": 2923,
      "Ġrecei": 2924,
      "Ġupon": 2925,
      "Ġdiagnosis": 2926,
      "itude": 2927,
      "Ġrelationships": 2928,
      "Ġsoftware": 2929,
      "Ġderived": 2930,
      "rad": 2931,
      "tillation": 2932,
      "Ġgroups": 2933,
      "Ġmanifold": 2934,
      "Ġshared": 2935,
      "Ġfindings": 2936,
      "Ġcalibr": 2937,
      "ake": 2938,
      "me": 2939,
      "Ġpartial": 2940,
      "tit": 2941,
      "SL": 2942,
      "Ġcustom": 2943,
      "Ġconfidence": 2944,
      "Ġfl": 2945,
      "Ġdrop": 2946,
      "ĠComput": 2947,
      "ĠImageNet": 2948,
      "ĠClust": 2949,
      "ĠSelf": 2950,
      "ributed": 2951,
      "ĠSpar": 2952,
      "Ġequival": 2953,
      "Ġcomprehensive": 2954,
      "Ġautonomous": 2955,
      "iring": 2956,
      "Ġprogress": 2957,
      "ception": 2958,
      "Ġadvances": 2959,
      "Ġpublicly": 2960,
      "ised": 2961,
      "Ġassign": 2962,
      "Ġface": 2963,
      "ĠMost": 2964,
      "ĠEmbed": 2965,
      "Ġmathem": 2966,
      "Ġdetermin": 2967,
      "Ġenab": 2968,
      "cepts": 2969,
      "Ġconfigur": 2970,
      "Ġcirc": 2971,
      "Ġovercome": 2972,
      "Ġstatistics": 2973,
      "Ġrati": 2974,
      "Ġobservation": 2975,
      "arily": 2976,
      "Ġevolution": 2977,
      "versal": 2978,
      "Ġwords": 2979,
      "Ġdatab": 2980,
      "Ġvulner": 2981,
      "ĠNN": 2982,
      "uctured": 2983,
      "Ġnecessary": 2984,
      "ultimodal": 2985,
      "Ġfar": 2986,
      "Ġdiscovery": 2987,
      "Ġtested": 2988,
      "Ġgames": 2989,
      "Ġtur": 2990,
      "parameters": 2991,
      "Ġprivate": 2992,
      "ides": 2993,
      "Ġestimating": 2994,
      "Ġpatient": 2995,
      "pects": 2996,
      "Ġfinal": 2997,
      "Ġscenario": 2998,
      "Ġinclude": 2999,
      "Ġintelligence": 3000,
      "ission": 3001,
      "Ġsecurity": 3002,
      "enomen": 3003,
      "Ġvariants": 3004,
      "Ġoffer": 3005,
      "Ġimplemented": 3006,
      "Ġpixel": 3007,
      "sively": 3008,
      "Ġdimensional": 3009,
      "agement": 3010,
      "ĠAdditionally": 3011,
      "ynamical": 3012,
      "Ġsitu": 3013,
      "Ġcombining": 3014,
      "Ġitems": 3015,
      "dual": 3016,
      "ott": 3017,
      "Ġmanip": 3018,
      "Ġyields": 3019,
      "Ġquantit": 3020,
      "Ġnamed": 3021,
      "Ġentire": 3022,
      "Ġpoor": 3023,
      "ĠFeature": 3024,
      "entang": 3025,
      "Ġtotal": 3026,
      "olds": 3027,
      "ĠPh": 3028,
      "Ġsensitive": 3029,
      "aw": 3030,
      "ĠCar": 3031,
      "ĠOnline": 3032,
      "ĠAS": 3033,
      "ĠHy": 3034,
      "ises": 3035,
      "ĠMNIST": 3036,
      "Ġmechanisms": 3037,
      "Ġcollection": 3038,
      "Ġallowing": 3039,
      "posed": 3040,
      "ressed": 3041,
      "Ġincreasingly": 3042,
      "Ġreveal": 3043,
      "Ġevidence": 3044,
      "idel": 3045,
      "ĠVariational": 3046,
      "MC": 3047,
      "Ġtoget": 3048,
      "Ġphenomen": 3049,
      "Ġtogether": 3050,
      "Ġmobile": 3051,
      "Ġprof": 3052,
      "ĠAtt": 3053,
      "ĠMC": 3054,
      "Ġbefore": 3055,
      "aries": 3056,
      "inite": 3057,
      "Ġequations": 3058,
      "Ġleveraging": 3059,
      "Ġmeans": 3060,
      "Ġflexible": 3061,
      "ĠMany": 3062,
      "ĠPr": 3063,
      "oT": 3064,
      "Ġresponse": 3065,
      "Ġtheoretically": 3066,
      "Ġquestions": 3067,
      "Ġreasoning": 3068,
      "Ġearly": 3069,
      "Ġfeas": 3070,
      "Ġidentifying": 3071,
      "Ġrapid": 3072,
      "Ġtreatment": 3073,
      "Ġsuffer": 3074,
      "eech": 3075,
      "orph": 3076,
      "quality": 3077,
      "Le": 3078,
      "Ġdirection": 3079,
      "Ġinverse": 3080,
      "Ġexc": 3081,
      "Ġsmaller": 3082,
      "Ġextracted": 3083,
      "ading": 3084,
      "Ġstage": 3085,
      "Ġarm": 3086,
      "ĠImpro": 3087,
      "enal": 3088,
      "agent": 3089,
      "ĠLanguage": 3090,
      "Ġupdates": 3091,
      "ĠThus": 3092,
      "otyp": 3093,
      "AD": 3094,
      "ancy": 3095,
      "ĠKnow": 3096,
      "Ġiterative": 3097,
      "ĠThrough": 3098,
      "Ġshape": 3099,
      "Ġappropriate": 3100,
      "ped": 3101,
      "unction": 3102,
      "AM": 3103,
      "Ġsqu": 3104,
      "Ġcombines": 3105,
      "Ġscienti": 3106,
      "forward": 3107,
      "izer": 3108,
      "Ġrich": 3109,
      "TS": 3110,
      "plications": 3111,
      "Ġobserve": 3112,
      "ild": 3113,
      "Ġdriving": 3114,
      "Ġareas": 3115,
      "Ġminimization": 3116,
      "chron": 3117,
      "ĠFore": 3118,
      "ĠExisting": 3119,
      "Based": 3120,
      "rections": 3121,
      "sum": 3122,
      "Ġinfluence": 3123,
      "ares": 3124,
      "Ġfunctional": 3125,
      "ĠSur": 3126,
      "Ġencoding": 3127,
      "Ġcand": 3128,
      "ĠSub": 3129,
      "Ġproduct": 3130,
      "ĠGPU": 3131,
      "Ġsensor": 3132,
      "Ġanother": 3133,
      "Ġkernels": 3134,
      "olation": 3135,
      "bolic": 3136,
      "Ġbase": 3137,
      "Ġdecomposition": 3138,
      "Ġtherefore": 3139,
      "Ġcandid": 3140,
      "arge": 3141,
      "ries": 3142,
      "Ġow": 3143,
      "dist": 3144,
      "Ġconstrained": 3145,
      "ged": 3146,
      "Ġcreate": 3147,
      "ife": 3148,
      "Ġsurrog": 3149,
      "ĠGNN": 3150,
      "Ġgeneralized": 3151,
      "Ġaspects": 3152,
      "jective": 3153,
      "ending": 3154,
      "parametric": 3155,
      "Ġcent": 3156,
      "Ġthresh": 3157,
      "reed": 3158,
      "ĠBi": 3159,
      "Ġcontribution": 3160,
      "ns": 3161,
      "Ġdel": 3162,
      "Ġoutl": 3163,
      "Ġneighbor": 3164,
      "ton": 3165,
      "processing": 3166,
      "ĠEmbedding": 3167,
      "ze": 3168,
      "atory": 3169,
      "Ġclose": 3170,
      "Ġoffline": 3171,
      "Ġbelie": 3172,
      "Ġcontextual": 3173,
      "ĠRNN": 3174,
      "Ġcapacity": 3175,
      "Ġcosts": 3176,
      "Ġrequirements": 3177,
      "Ġmight": 3178,
      "Ġentropy": 3179,
      "ittle": 3180,
      "most": 3181,
      "Ġformal": 3182,
      "%,": 3183,
      "Ġtuning": 3184,
      "ili": 3185,
      "Ġconcepts": 3186,
      "ĠInformation": 3187,
      "Ġutilize": 3188,
      "ample": 3189,
      "Ġasympto": 3190,
      "Ġremain": 3191,
      "Ġmus": 3192,
      "UC": 3193,
      "ĠSu": 3194,
      "Ġattr": 3195,
      "ways": 3196,
      "Ġrule": 3197,
      "Ġgenerally": 3198,
      "standing": 3199,
      "Ġdiversity": 3200,
      "ĠVAE": 3201,
      "Ġpipeline": 3202,
      "Ġspecifically": 3203,
      "ĠBERT": 3204,
      "Ġcombine": 3205,
      "ĠLinear": 3206,
      "Ġweighted": 3207,
      "Ġunified": 3208,
      "Ġdefine": 3209,
      "ĠInference": 3210,
      "Ġden": 3211,
      "ĠTow": 3212,
      "fitting": 3213,
      "atical": 3214,
      "Ġintroduces": 3215,
      "exts": 3216,
      "Ġcoordin": 3217,
      "Ġoptimized": 3218,
      "Ġlength": 3219,
      "ĠAD": 3220,
      "graph": 3221,
      "ĠRecognition": 3222,
      "ĠEmpir": 3223,
      "Ġgeometric": 3224,
      "ash": 3225,
      "active": 3226,
      "Ġyield": 3227,
      "Ġindepend": 3228,
      "tuning": 3229,
      "urally": 3230,
      "Ġdecre": 3231,
      "Ġtrajectory": 3232,
      "Ġbroad": 3233,
      "Ġdig": 3234,
      "otion": 3235,
      "ĠZ": 3236,
      "Ġconverg": 3237,
      "Ġalgorithmic": 3238,
      "Ġbasis": 3239,
      "cer": 3240,
      "Ġqueries": 3241,
      "ĠMat": 3242,
      "Ġconsidering": 3243,
      "strained": 3244,
      "Ġclo": 3245,
      "Ġpossib": 3246,
      "comes": 3247,
      "ĠNLP": 3248,
      "Ġprogramming": 3249,
      "ĠAdaptive": 3250,
      "Ġmom": 3251,
      "Ġimbal": 3252,
      "Ġconvolution": 3253,
      "Ġvolum": 3254,
      "ĠAuto": 3255,
      "ration": 3256,
      "Ġdetermine": 3257,
      "ĠKnowledge": 3258,
      "ĠRecurrent": 3259,
      "Ġcapability": 3260,
      "ĠSearch": 3261,
      "Ġvariant": 3262,
      "Ġbenefit": 3263,
      "ste": 3264,
      "Ġabs": 3265,
      "Ġsee": 3266,
      "Ġforward": 3267,
      "avig": 3268,
      "Ġrewards": 3269,
      "Ġpotentially": 3270,
      "mental": 3271,
      "ogn": 3272,
      "Ġobjectives": 3273,
      "Ġconfir": 3274,
      "Ġregion": 3275,
      "Ġindicate": 3276,
      "Ġseen": 3277,
      "Ġselected": 3278,
      "Ġcloud": 3279,
      "Ġneeds": 3280,
      "Ġcollabor": 3281,
      "tein": 3282,
      "Ġshift": 3283,
      "anguages": 3284,
      "medi": 3285,
      "Ġretrieval": 3286,
      "Ġmask": 3287,
      "Ġincorporate": 3288,
      "oriz": 3289,
      "zed": 3290,
      "Ġmut": 3291,
      "emic": 3292,
      "Ġincreases": 3293,
      "ĠMonte": 3294,
      "Ġsupervision": 3295,
      "Ġactivity": 3296,
      "ributions": 3297,
      "Ġuniform": 3298,
      "Ġconsistency": 3299,
      "Ġdemonstrates": 3300,
      "Ġtakes": 3301,
      "ĠMin": 3302,
      "Ġpopulation": 3303,
      "Ġunique": 3304,
      "Ġmill": 3305,
      "len": 3306,
      "ĠGi": 3307,
      "Ġdesired": 3308,
      "Ġestimated": 3309,
      "Ġeasy": 3310,
      "Ġmagnitude": 3311,
      "Ġaggregation": 3312,
      "yond": 3313,
      "iction": 3314,
      "Ġbeyond": 3315,
      "Ġiteration": 3316,
      "ĠSystems": 3317,
      "Ġpredicted": 3318,
      "Ġautoencoder": 3319,
      "Ġneeded": 3320,
      "ĠCP": 3321,
      "ĠHigh": 3322,
      "Ġevaluations": 3323,
      "Ġtrajectories": 3324,
      "ople": 3325,
      "Ġsty": 3326,
      "Ġreliable": 3327,
      "Ġsym": 3328,
      "Ġdetecting": 3329,
      "Ġdimensions": 3330,
      "Ġmonitoring": 3331,
      "AI": 3332,
      "Ġrepro": 3333,
      "ĠDP": 3334,
      "rec": 3335,
      "Ġdynamical": 3336,
      "insic": 3337,
      "Ġvalidation": 3338,
      "Ġcalcul": 3339,
      "ank": 3340,
      "assive": 3341,
      "ĠControl": 3342,
      "SE": 3343,
      "ords": 3344,
      "OC": 3345,
      "Ġfollowing": 3346,
      "ĠClustering": 3347,
      "Ġverify": 3348,
      "ĠEstimation": 3349,
      "ote": 3350,
      "tation": 3351,
      "Ġspeaker": 3352,
      "bi": 3353,
      "ĠEEG": 3354,
      "Ġbuilt": 3355,
      "ĠGiven": 3356,
      "Ġemployed": 3357,
      "Ġmargin": 3358,
      "des": 3359,
      "Ġcentral": 3360,
      "%.": 3361,
      "Ġaround": 3362,
      "Ġquad": 3363,
      "Ġdeveloping": 3364,
      "Ġengineering": 3365,
      "Ġcli": 3366,
      "Ġquantization": 3367,
      "ĠTransfer": 3368,
      "ounts": 3369,
      "Ġpenal": 3370,
      "ĠDomain": 3371,
      "Ġcompo": 3372,
      "Ġneu": 3373,
      "weight": 3374,
      "Ġdrug": 3375,
      "stein": 3376,
      "ody": 3377,
      "ocation": 3378,
      "ux": 3379,
      "Ġdiscre": 3380,
      "jects": 3381,
      "Ġfrequency": 3382,
      "Ġprov": 3383,
      "ĠInst": 3384,
      "ening": 3385,
      "Ġcontrastive": 3386,
      "domain": 3387,
      "Ġarticle": 3388,
      "Ġintern": 3389,
      "Ġcomplement": 3390,
      "Ġparticip": 3391,
      "Ġratio": 3392,
      "omp": 3393,
      "ery": 3394,
      "Ġsensing": 3395,
      "resolution": 3396,
      "Ġcapabilities": 3397,
      "Ġsubject": 3398,
      "ĠKernel": 3399,
      "ĠResults": 3400,
      "eep": 3401,
      "Ġscales": 3402,
      "Ġdirections": 3403,
      "Ġgenerator": 3404,
      "Ġoptimizing": 3405,
      "Ġorgan": 3406,
      "ĠOver": 3407,
      "Ġetc": 3408,
      "Ġrefer": 3409,
      "Ġrelies": 3410,
      "ground": 3411,
      "Ġtransport": 3412,
      "Ġdependencies": 3413,
      "Ġexperts": 3414,
      "arities": 3415,
      "ĠSparse": 3416,
      "Ġsynthesis": 3417,
      "rap": 3418,
      "umer": 3419,
      "Ġprefer": 3420,
      "Ġminimum": 3421,
      "Ġhypothesis": 3422,
      "oling": 3423,
      "Ġsummar": 3424,
      "ĠCor": 3425,
      "ĠBo": 3426,
      "ĠMa": 3427,
      "ĠFramework": 3428,
      "pus": 3429,
      "Ġsizes": 3430,
      "Ġcore": 3431,
      "Ġlanguages": 3432,
      "Ġcomplete": 3433,
      "Ġmaterial": 3434,
      "ĠRepresentation": 3435,
      "Ġsurrogate": 3436,
      "emory": 3437,
      "point": 3438,
      "Ġlittle": 3439,
      "Ġbehaviors": 3440,
      "ĠTowards": 3441,
      "Ġaffect": 3442,
      "Ġbott": 3443,
      "ĠAttention": 3444,
      "Ġhumans": 3445,
      "Ġmeaningful": 3446,
      "lusion": 3447,
      "Ġtransformation": 3448,
      "Ġbounded": 3449,
      "etic": 3450,
      "Ġapplicable": 3451,
      "Ġstable": 3452,
      "Ġtrees": 3453,
      "Ġclassify": 3454,
      "Ġconsistently": 3455,
      "actable": 3456,
      "Ġraw": 3457,
      "Ġvi": 3458,
      "Ġpartition": 3459,
      "Ġfusion": 3460,
      "Ġalmost": 3461,
      "ĠRegression": 3462,
      "Ġcam": 3463,
      "Ġfit": 3464,
      "Ġtransition": 3465,
      "Ġresolution": 3466,
      "Ġscience": 3467,
      "ighting": 3468,
      "ulty": 3469,
      "side": 3470,
      "fies": 3471,
      "plex": 3472,
      "Ġnotion": 3473,
      "sour": 3474,
      "Ġsurvey": 3475,
      "ĠComm": 3476,
      "ĠSince": 3477,
      "atives": 3478,
      "Ġdual": 3479,
      "Ġexpression": 3480,
      "SI": 3481,
      "Ġep": 3482,
      "Ġhighlight": 3483,
      "Ġinterpretation": 3484,
      "Ġdeployment": 3485,
      "Ġmining": 3486,
      "rosc": 3487,
      "ĠResNet": 3488,
      "Ġframeworks": 3489,
      "leneck": 3490,
      "Ġstudent": 3491,
      "ull": 3492,
      "Ġdeterministic": 3493,
      "Ġrequiring": 3494,
      "Ġcou": 3495,
      "Ġvis": 3496,
      "ĠFast": 3497,
      "ocol": 3498,
      "Ġexhibit": 3499,
      "ratic": 3500,
      "Ġbecomes": 3501,
      "Ġleverages": 3502,
      "Ġfa": 3503,
      "Ġgeneric": 3504,
      "Ġmove": 3505,
      "sequently": 3506,
      "Ġdifference": 3507,
      "Ġproject": 3508,
      "Ġdeal": 3509,
      "ĠIoT": 3510,
      "Ġconnections": 3511,
      "Ġdemand": 3512,
      "iod": 3513,
      "Ġencour": 3514,
      "wh": 3515,
      "Ġcompos": 3516,
      "Ġsymmet": 3517,
      "Ġextended": 3518,
      "ror": 3519,
      "ĠUnsupervised": 3520,
      "Ġhaving": 3521,
      "Ġrelation": 3522,
      "Ġgeometry": 3523,
      "Ġdiscriminative": 3524,
      "Ġconstruc": 3525,
      "ects": 3526,
      "Ġscene": 3527,
      "Ġalle": 3528,
      "Ġrelax": 3529,
      "mission": 3530,
      "ĠNew": 3531,
      "Ġir": 3532,
      "mooth": 3533,
      "irel": 3534,
      "Ġpeople": 3535,
      "ĠBl": 3536,
      "Ġwhole": 3537,
      "ireless": 3538,
      "SP": 3539,
      "he": 3540,
      "inct": 3541,
      "Ġlast": 3542,
      "Ġcomputed": 3543,
      "Ġexplanation": 3544,
      "sts": 3545,
      "rength": 3546,
      "Ġoccur": 3547,
      "veraging": 3548,
      "Ġexperience": 3549,
      "xt": 3550,
      "Ġunits": 3551,
      "Ġrelatively": 3552,
      "Ġestimators": 3553,
      "Ġsmart": 3554,
      "Ġmathematical": 3555,
      "Ġfocused": 3556,
      "Ġrecogn": 3557,
      "Ġminimize": 3558,
      "Ġdisentang": 3559,
      "Ġdepends": 3560,
      "Ġsensors": 3561,
      "Ġensure": 3562,
      "asser": 3563,
      "case": 3564,
      "Ġcomparing": 3565,
      "000": 3566,
      "ĠPriv": 3567,
      "Ġcharacterize": 3568,
      "Ġformulate": 3569,
      "ĠSVM": 3570,
      "Ġpose": 3571,
      "Ġallevi": 3572,
      "Ġbre": 3573,
      "Ġnaturally": 3574,
      "Ġscaling": 3575,
      "Ġalignment": 3576,
      "Ġtests": 3577,
      "Ġclients": 3578,
      "SC": 3579,
      "Ġeffic": 3580,
      "quis": 3581,
      "step": 3582,
      "ray": 3583,
      "Ġproof": 3584,
      "ĠDecision": 3585,
      "ography": 3586,
      "seud": 3587,
      "Ġslow": 3588,
      "Ġperformances": 3589,
      "modal": 3590,
      "Ġprotocol": 3591,
      "Ġintroducing": 3592,
      "ĠPl": 3593,
      "Ġsched": 3594,
      "Ġconnected": 3595,
      "ĠCarlo": 3596,
      "orizon": 3597,
      "Ġparts": 3598,
      "Ġdifferences": 3599,
      "ĠMDP": 3600,
      "iliary": 3601,
      "entiment": 3602,
      "Ġargue": 3603,
      "Ġentities": 3604,
      "asserstein": 3605,
      "Ġnext": 3606,
      "ĠEvalu": 3607,
      "Ġoperator": 3608,
      "Ġresidual": 3609,
      "oll": 3610,
      "uxiliary": 3611,
      "Ġpropagation": 3612,
      "Ġdense": 3613,
      "Ġassume": 3614,
      "Ġincludes": 3615,
      "Ġteacher": 3616,
      "Ġgenerates": 3617,
      "Ġdifferentiable": 3618,
      "Ġabove": 3619,
      "Ġgrowing": 3620,
      "Ġcomposition": 3621,
      "Ġcareful": 3622,
      "Ġspl": 3623,
      "Ġmultimodal": 3624,
      "acle": 3625,
      "Ġvir": 3626,
      "arest": 3627,
      "ĠVisual": 3628,
      "Ġminimal": 3629,
      "Ġminimizing": 3630,
      "En": 3631,
      "itive": 3632,
      "Ġdegree": 3633,
      "Ġefficacy": 3634,
      "Ġtem": 3635,
      "Ġrecovery": 3636,
      "Ġfive": 3637,
      "Ġintu": 3638,
      "Ġstrongly": 3639,
      "Ġcancer": 3640,
      "OD": 3641,
      "Ġmess": 3642,
      "Ġlearner": 3643,
      "let": 3644,
      "Ġalways": 3645,
      "ancing": 3646,
      "Ġconsumption": 3647,
      "Ġexpect": 3648,
      "itch": 3649,
      "Ġsensitivity": 3650,
      "Ġinitialization": 3651,
      "Ġsynthes": 3652,
      "Ġfacilitate": 3653,
      "Ġhom": 3654,
      "Ġmodelling": 3655,
      "ĠPy": 3656,
      "lide": 3657,
      "acc": 3658,
      "Ġcontribut": 3659,
      "udget": 3660,
      "Ġpurpose": 3661,
      "Ġexponential": 3662,
      "Ġgrid": 3663,
      "Ġperiod": 3664,
      "Ġlosses": 3665,
      "Ġcontains": 3666,
      "Ġown": 3667,
      "Ġadjust": 3668,
      "Ġwave": 3669,
      "ĠHuman": 3670,
      "Ġvideos": 3671,
      "related": 3672,
      "Ġinspired": 3673,
      "Ġanomal": 3674,
      "In": 3675,
      "Ġneurons": 3676,
      "Ġretur": 3677,
      "Ġstrength": 3678,
      "ĠReLU": 3679,
      "Ġfr": 3680,
      "ĠAm": 3681,
      "way": 3682,
      "igen": 3683,
      "Ġdeployed": 3684,
      "Ġcorrelations": 3685,
      "Ġcause": 3686,
      "ĠUni": 3687,
      "Ġposition": 3688,
      "Ġnavig": 3689,
      "Ġoutcomes": 3690,
      "ply": 3691,
      "ĠText": 3692,
      "ĠSequ": 3693,
      "Ġdocument": 3694,
      "mediate": 3695,
      "alse": 3696,
      "Ġincreased": 3697,
      "Ġvarying": 3698,
      "plication": 3699,
      "Ġembedded": 3700,
      "ips": 3701,
      "Ġdistingu": 3702,
      "Ġoperation": 3703,
      "Ġign": 3704,
      "nos": 3705,
      "ĠTensor": 3706,
      "Ġdistinguish": 3707,
      "Ġmachines": 3708,
      "ceed": 3709,
      "ĠSyn": 3710,
      "idelity": 3711,
      "pret": 3712,
      "ĠSP": 3713,
      "oor": 3714,
      "Ġmodalities": 3715,
      "oising": 3716,
      "oustic": 3717,
      "atures": 3718,
      "Ġevaluating": 3719,
      "care": 3720,
      "ĠLarge": 3721,
      "Ġenabling": 3722,
      "Ġhere": 3723,
      "ports": 3724,
      "OT": 3725,
      "Ġtracking": 3726,
      "Ġconnection": 3727,
      "ĠMeta": 3728,
      "Ġincorporating": 3729,
      "ĠLat": 3730,
      "rum": 3731,
      "abell": 3732,
      "Ġdistillation": 3733,
      "Ġtransformations": 3734,
      "Ġmarket": 3735,
      "ads": 3736,
      "rable": 3737,
      "roph": 3738,
      "Ġquantitative": 3739,
      "Ġcompact": 3740,
      "Ġconstruction": 3741,
      "Ġextremely": 3742,
      "aps": 3743,
      "Ġquick": 3744,
      "Ġcategories": 3745,
      "Ġdesigning": 3746,
      "Ġways": 3747,
      "Ġproduces": 3748,
      "Ġmaintaining": 3749,
      "ĠProb": 3750,
      "ĠAutoenc": 3751,
      "ĠUnlike": 3752,
      "Ġuniversal": 3753,
      "making": 3754,
      "Ġbig": 3755,
      "ĠDat": 3756,
      "Ġsubspace": 3757,
      "Ġtrust": 3758,
      "Ġoffers": 3759,
      "Ġstatic": 3760,
      "ĠEng": 3761,
      "Ġscientific": 3762,
      "Ġhence": 3763,
      "Ġscalability": 3764,
      "Ġexploiting": 3765,
      "ibri": 3766,
      "Ġvariation": 3767,
      "Ġmainly": 3768,
      "Ġdifficulty": 3769,
      "Ġperturbation": 3770,
      "mit": 3771,
      "Ġanalyzing": 3772,
      "Ns": 3773,
      "Ġsharing": 3774,
      "ĠPolicy": 3775,
      "Ġtypical": 3776,
      "Ġdatabase": 3777,
      "Ġbasic": 3778,
      "Ġlibr": 3779,
      "Ġrig": 3780,
      "Ġelements": 3781,
      "aged": 3782,
      "Ġintrinsic": 3783,
      "acks": 3784,
      "ger": 3785,
      "max": 3786,
      "Ġanswer": 3787,
      "ention": 3788,
      "Ġmultivariate": 3789,
      "Ġfactorization": 3790,
      "ĠTr": 3791,
      "arding": 3792,
      "ĠLocal": 3793,
      "ĠContin": 3794,
      "factual": 3795,
      "Ġbiases": 3796,
      "Ġinteresting": 3797,
      "Ġutilizing": 3798,
      "ĠApproxim": 3799,
      "CNN": 3800,
      "Ġtransformer": 3801,
      "ĠNumer": 3802,
      "atorial": 3803,
      "ĠST": 3804,
      "Ps": 3805,
      "Ġ`": 3806,
      "Ġmixed": 3807,
      "Ġwr": 3808,
      "Ġsentence": 3809,
      "Ġhyperparameters": 3810,
      "ĠModeling": 3811,
      "ĠMethods": 3812,
      "Ġskill": 3813,
      "ird": 3814,
      "rob": 3815,
      "Ġinsight": 3816,
      "\\%": 3817,
      "assing": 3818,
      "Ġgene": 3819,
      "seudo": 3820,
      "reser": 3821,
      "ĠRel": 3822,
      "Ġserver": 3823,
      "Ġtail": 3824,
      "Ġremo": 3825,
      "Ġlabeling": 3826,
      "Ġmaximize": 3827,
      "ĠBand": 3828,
      "Ġusage": 3829,
      "Ġweb": 3830,
      "ĠHe": 3831,
      "ĠMRI": 3832,
      "network": 3833,
      "Ġrepresented": 3834,
      "Ġcover": 3835,
      "Ġfewer": 3836,
      "Ġevol": 3837,
      "iness": 3838,
      "gram": 3839,
      "son": 3840,
      "ĠSer": 3841,
      "Ġinterven": 3842,
      "Ġauxiliary": 3843,
      "osen": 3844,
      "ĠEC": 3845,
      "ĠEns": 3846,
      "Ġfiltering": 3847,
      "play": 3848,
      "Ġtruth": 3849,
      "Ġmanagement": 3850,
      "Ġedges": 3851,
      "Ġqual": 3852,
      "Ġmoment": 3853,
      "ĠEM": 3854,
      "Ġdistinct": 3855,
      "Ġtopology": 3856,
      "Ġequation": 3857,
      "Ġdiction": 3858,
      "ĠOr": 3859,
      "ternal": 3860,
      "Ġfav": 3861,
      "structured": 3862,
      "ĠArchitect": 3863,
      "Ġsubstantially": 3864,
      "irable": 3865,
      "ination": 3866,
      "unding": 3867,
      "Ġfash": 3868,
      "embles": 3869,
      "Ġheuristic": 3870,
      "Ġoverfitting": 3871,
      "roup": 3872,
      "Ġmer": 3873,
      "Ġfashion": 3874,
      "Ġfocuses": 3875,
      "Ġcriteria": 3876,
      "Ġcalibration": 3877,
      "abular": 3878,
      "LE": 3879,
      "Ġshowed": 3880,
      "portun": 3881,
      "Ġinvolves": 3882,
      "Ġauth": 3883,
      "Ġassessment": 3884,
      "vance": 3885,
      "Ġlocation": 3886,
      "Ġthereby": 3887,
      "Ġpass": 3888,
      "Ġestablished": 3889,
      "Ġmitigate": 3890,
      "Ġreference": 3891,
      "Ġunit": 3892,
      "Ġoperators": 3893,
      "Ġwind": 3894,
      "ĠCode": 3895,
      "ounter": 3896,
      "ĠCompared": 3897,
      "Ġequivalent": 3898,
      "Ġcorpus": 3899,
      "Ġcorrup": 3900,
      "Ġbottleneck": 3901,
      "Ġdefin": 3902,
      "ĠOptimal": 3903,
      "GB": 3904,
      "Ġget": 3905,
      "ancial": 3906,
      "Ġgives": 3907,
      "Ġsum": 3908,
      "ĠFrom": 3909,
      "ĠNAS": 3910,
      "umul": 3911,
      "series": 3912,
      "Ġdevice": 3913,
      "ĠMean": 3914,
      "Ġregime": 3915,
      "ĠRegular": 3916,
      "prising": 3917,
      "Ġthough": 3918,
      "denti": 3919,
      "Ġbudget": 3920,
      "ĠSeg": 3921,
      "Ġclosed": 3922,
      "ĠMix": 3923,
      "Ġdiffusion": 3924,
      "oded": 3925,
      "Ġapplicability": 3926,
      "temporal": 3927,
      "ĠWasserstein": 3928,
      "Ġadvance": 3929,
      "Ġmeasurement": 3930,
      "Ġfram": 3931,
      "ĠAlgorithms": 3932,
      "edical": 3933,
      "Ġjust": 3934,
      "Ġchem": 3935,
      "Ġcovariance": 3936,
      "Ġcodes": 3937,
      "Ġmedia": 3938,
      "pts": 3939,
      "Ġenough": 3940,
      "eless": 3941,
      "Ġsolved": 3942,
      "Ġsetup": 3943,
      "ĠAll": 3944,
      "Ġprinciple": 3945,
      "Ġfalse": 3946,
      "idth": 3947,
      "gressive": 3948,
      "Ġidentified": 3949,
      "Ġmolecular": 3950,
      "Ġprojection": 3951,
      "atter": 3952,
      "ilibri": 3953,
      "ĠPers": 3954,
      "asc": 3955,
      "ĠTask": 3956,
      "Ġcompletion": 3957,
      "Ġsal": 3958,
      "Ġrunning": 3959,
      "distribution": 3960,
      "urb": 3961,
      "Ġvariations": 3962,
      "Ġdivergence": 3963,
      "Ġconstructed": 3964,
      "Ġdegrad": 3965,
      "Ġapproximations": 3966,
      "Ġfree": 3967,
      "flow": 3968,
      "Ġdone": 3969,
      "Ġintegrated": 3970,
      "erti": 3971,
      "Ġsw": 3972,
      "Ġdecoder": 3973,
      "Ġtechnology": 3974,
      "reedy": 3975,
      "Ġverification": 3976,
      "Ġplatforms": 3977,
      "IC": 3978,
      "ices": 3979,
      "SA": 3980,
      "ĠMemory": 3981,
      "Ġthreshold": 3982,
      "Ġpairwise": 3983,
      "Ġkeep": 3984,
      "ours": 3985,
      "fect": 3986,
      "LM": 3987,
      "raf": 3988,
      "Ġhelps": 3989,
      "Ġreproduc": 3990,
      "Ġcyc": 3991,
      "Ġlatency": 3992,
      "Ġtren": 3993,
      "Ġlatter": 3994,
      "Ġdefense": 3995,
      "Ġconverges": 3996,
      "Ġappear": 3997,
      "Ġcat": 3998,
      "ĠQuanti": 3999,
      "quisition": 4000,
      "source": 4001,
      "esides": 4002,
      "Ġoverhead": 4003,
      "ues": 4004,
      "Ġconverge": 4005,
      "Ġexecution": 4006,
      "ĠEmpirical": 4007,
      "Ġcontributions": 4008,
      "Ġinvariant": 4009,
      "Ġconfirm": 4010,
      "means": 4011,
      "Ġexperimentally": 4012,
      "reserving": 4013,
      "Ġvo": 4014,
      "Ġdependence": 4015,
      "Ġprobabilities": 4016,
      "thers": 4017,
      "Ġrepresentative": 4018,
      "Ġexplored": 4019,
      "ĠIdenti": 4020,
      "Ġquantify": 4021,
      "ĠSpeech": 4022,
      "izers": 4023,
      "Ġhyperparameter": 4024,
      "Ġinstr": 4025,
      "Ġtok": 4026,
      "stage": 4027,
      "Ġstra": 4028,
      "ĠDue": 4029,
      "Ġwireless": 4030,
      "Ġmeasured": 4031,
      "Ġqualit": 4032,
      "use": 4033,
      "Ġsegment": 4034,
      "Ġrecommender": 4035,
      "ipal": 4036,
      "Ġiterations": 4037,
      "set": 4038,
      "Ġeigen": 4039,
      "Ġremark": 4040,
      "Ġanalyses": 4041,
      "Ġitself": 4042,
      "Ġhistor": 4043,
      "ĠAutomatic": 4044,
      "Ġfilters": 4045,
      "Ġcamer": 4046,
      "cing": 4047,
      "DEs": 4048,
      "Ġeffort": 4049,
      "uclide": 4050,
      "plete": 4051,
      "serv": 4052,
      "Ġemerging": 4053,
      "Ġvehicles": 4054,
      "Ġside": 4055,
      "Ġbring": 4056,
      "thog": 4057,
      "Ġforget": 4058,
      "Ġannotations": 4059,
      "onic": 4060,
      "uclidean": 4061,
      "propagation": 4062,
      "Ġdecentralized": 4063,
      "ĠOpen": 4064,
      "Ġinherent": 4065,
      "Ġinvolving": 4066,
      "omin": 4067,
      "grained": 4068,
      "Ġpric": 4069,
      "Ġmanual": 4070,
      "width": 4071,
      "Ġrandomly": 4072,
      "Ġseparate": 4073,
      "atural": 4074,
      "Ġcriterion": 4075,
      "Ġvers": 4076,
      "ict": 4077,
      "Ġseparation": 4078,
      "Ġclean": 4079,
      "adi": 4080,
      "ulations": 4081,
      "Ġothers": 4082,
      "ometric": 4083,
      "Ġpartially": 4084,
      "Ġchosen": 4085,
      "ĠArtificial": 4086,
      "Ġefforts": 4087,
      "attention": 4088,
      "etch": 4089,
      "Ġgains": 4090,
      "Ġadding": 4091,
      "Ġstyle": 4092,
      "Ġtaking": 4093,
      "SS": 4094,
      "Ġentity": 4095,
      "ĠGCN": 4096,
      "lingual": 4097,
      "Ġhealthcare": 4098,
      "Ġphenomenon": 4099,
      "Ġmusic": 4100,
      "Ġcaptures": 4101,
      "ounds": 4102,
      "Ġcandidate": 4103,
      "ĠSign": 4104,
      "ĠDistributed": 4105,
      "ĠFed": 4106,
      "Ġlargely": 4107,
      "uge": 4108,
      "Ġsampled": 4109,
      "PC": 4110,
      "actor": 4111,
      "ognitive": 4112,
      "sim": 4113,
      "ĠDataset": 4114,
      "Ġamounts": 4115,
      "Ġmutual": 4116,
      "Ġquadratic": 4117,
      "Ġregard": 4118,
      "ited": 4119,
      "Ġframe": 4120,
      "verti": 4121,
      "Ġexternal": 4122,
      "Ġdeli": 4123,
      "ĠCurrent": 4124,
      "Ġopportun": 4125,
      "constrained": 4126,
      "Ġreconstruct": 4127,
      "ĠPCA": 4128,
      "Ġlocalization": 4129,
      "ĠTwo": 4130,
      "Ġadvers": 4131,
      "Ġinformative": 4132,
      "ĠMinim": 4133,
      "ĠLa": 4134,
      "ĠReal": 4135,
      "ĠRecomm": 4136,
      "ET": 4137,
      "ĠLabel": 4138,
      "Ġsuperiority": 4139,
      "Ġsubstantial": 4140,
      "Ġins": 4141,
      "acing": 4142,
      "Ġdetailed": 4143,
      "go": 4144,
      "Ġfo": 4145,
      "Ġvan": 4146,
      "ĠDRL": 4147,
      "Ġsurface": 4148,
      "Ġutilizes": 4149,
      "Ġdespite": 4150,
      "MA": 4151,
      "usti": 4152,
      "Ġsituations": 4153,
      "ĠGeneration": 4154,
      "Ġlimits": 4155,
      "Ġregularized": 4156,
      "ographic": 4157,
      "Ġindex": 4158,
      "ĠActive": 4159,
      "Ġvehicle": 4160,
      "ĠSampling": 4161,
      "Ġworst": 4162,
      "PS": 4163,
      "Ġsense": 4164,
      "regular": 4165,
      "Ġbox": 4166,
      "equ": 4167,
      "ĠDescent": 4168,
      "ĠNumerical": 4169,
      "MF": 4170,
      "ditive": 4171,
      "Ġshare": 4172,
      "ĠHyper": 4173,
      "Ġinternal": 4174,
      "apes": 4175,
      "Sh": 4176,
      "ĠSup": 4177,
      "Ġcorrespond": 4178,
      "Ġannotated": 4179,
      "chronous": 4180,
      "tivated": 4181,
      "ĠPrevious": 4182,
      "ifying": 4183,
      "Ġacqui": 4184,
      "Ġcurrently": 4185,
      "ĠState": 4186,
      "Ġinvestigated": 4187,
      "Ġanalog": 4188,
      "Ġproxim": 4189,
      "Ġexamine": 4190,
      "Ġprograms": 4191,
      "Ġpatch": 4192,
      "Ġindividuals": 4193,
      "Ġoutcome": 4194,
      "Ġinteract": 4195,
      "ĠIntellig": 4196,
      "Ġcompet": 4197,
      "Ġrout": 4198,
      "Ġpriors": 4199,
      "Ġcollaborative": 4200,
      "neg": 4201,
      "sitions": 4202,
      "Ġred": 4203,
      "Ġacquisition": 4204,
      "Ġprevent": 4205,
      "Ġmassive": 4206,
      "Ġnow": 4207,
      "rivial": 4208,
      "ĠInstead": 4209,
      "Ġren": 4210,
      "Ġdocuments": 4211,
      "uz": 4212,
      "ectral": 4213,
      "Ġflexibility": 4214,
      "ĠSemi": 4215,
      "Ġminimax": 4216,
      "Ġquickly": 4217,
      "Ġpseudo": 4218,
      "Ġnormalization": 4219,
      "Ġlikely": 4220,
      "ecting": 4221,
      "ĠBe": 4222,
      "ĠUnderstanding": 4223,
      "Ġtun": 4224,
      "ĠLong": 4225,
      "cast": 4226,
      "Ġrigor": 4227,
      "Ġsentiment": 4228,
      "policy": 4229,
      "Ġparametric": 4230,
      "Ġspeedup": 4231,
      "Ġneighborhood": 4232,
      "Ġcoding": 4233,
      "Ġbiological": 4234,
      "norm": 4235,
      "ĠPri": 4236,
      "Ġ'": 4237,
      "orage": 4238,
      "Ġnumerous": 4239,
      "Ġadopted": 4240,
      "Ġmajority": 4241,
      "ĠMaxim": 4242,
      "ĠSelection": 4243,
      "MD": 4244,
      "opic": 4245,
      "Ġnews": 4246,
      "ars": 4247,
      "ĠDA": 4248,
      "ĠContr": 4249,
      "Ġmarginal": 4250,
      "eed": 4251,
      "Ġframes": 4252,
      "Ġcircu": 4253,
      "dec": 4254,
      "tices": 4255,
      "ĠLow": 4256,
      "icious": 4257,
      "Ġencode": 4258,
      "Ġspectrum": 4259,
      "Ġannotation": 4260,
      "ĠLatent": 4261,
      "gent": 4262,
      "RE": 4263,
      "Ġcrow": 4264,
      "Ġimpos": 4265,
      "Ġdialog": 4266,
      "Ġarti": 4267,
      "ĠMA": 4268,
      "Ġfinancial": 4269,
      "Ġasymptotic": 4270,
      "uzz": 4271,
      "Ġintermediate": 4272,
      "Ġconsisting": 4273,
      "Ġproduced": 4274,
      "Ġbrid": 4275,
      "Ġguide": 4276,
      "Ġdigital": 4277,
      "urate": 4278,
      "Ġperm": 4279,
      "Ġpreserving": 4280,
      "ĠMatrix": 4281,
      "Ġincom": 4282,
      "Ġsound": 4283,
      "ĠSegmentation": 4284,
      "Ġtend": 4285,
      "Ġresol": 4286,
      "Ġcombinatorial": 4287,
      "Ġvulnerable": 4288,
      "PI": 4289,
      "Ġrest": 4290,
      "aren": 4291,
      "Ġbiom": 4292,
      "Ġattribute": 4293,
      "Ġmanually": 4294,
      "Ġline": 4295,
      "ĠFair": 4296,
      "ĠEff": 4297,
      "tual": 4298,
      "Ġprotein": 4299,
      "Ġdemonstrating": 4300,
      "Ġderiv": 4301,
      "vities": 4302,
      "ĠAUC": 4303,
      "tunately": 4304,
      "Ġassist": 4305,
      "Ġattract": 4306,
      "nostic": 4307,
      "MT": 4308,
      "SV": 4309,
      "tivities": 4310,
      "Ġmicro": 4311,
      "Ġprovably": 4312,
      "Ġtight": 4313,
      "ective": 4314,
      "ĠCross": 4315,
      "ĠRepresentations": 4316,
      "sist": 4317,
      "ĠInspired": 4318,
      "Ġintegration": 4319,
      "Ġmotivated": 4320,
      "Ġdependency": 4321,
      "Con": 4322,
      "Ġadvanced": 4323,
      "Ġideas": 4324,
      "ĠThey": 4325,
      "Ġintelligent": 4326,
      "Ġmodules": 4327,
      "Ġauto": 4328,
      "Ġviews": 4329,
      "PG": 4330,
      "ĠNatural": 4331,
      "Ġacoustic": 4332,
      "Ġcorrelated": 4333,
      "Ġgreatly": 4334,
      "Ġreceived": 4335,
      "suming": 4336,
      "Ġdelay": 4337,
      "opy": 4338,
      "Ġhistorical": 4339,
      "Ġrandomized": 4340,
      "Ġperception": 4341,
      "Ġcollec": 4342,
      "Ġsuggests": 4343,
      "Ġadversary": 4344,
      "lap": 4345,
      "uided": 4346,
      "Ġaddresses": 4347,
      "Ġinfinite": 4348,
      "CT": 4349,
      "RF": 4350,
      "Ġproduction": 4351,
      "Ġrepresenting": 4352,
      "Ġprototyp": 4353,
      "ĠBesides": 4354,
      "Ġflows": 4355,
      "chitz": 4356,
      "vo": 4357,
      "oregressive": 4358,
      "ĠHierarchical": 4359,
      "Ġvolume": 4360,
      "ĠProblem": 4361,
      "Ġutilized": 4362,
      "ĠContext": 4363,
      "Ġforgetting": 4364,
      "ĠLog": 4365,
      "ipschitz": 4366,
      "cape": 4367,
      "ater": 4368,
      "Ġtransl": 4369,
      "Ġgraphical": 4370,
      "Ġselecting": 4371,
      "fi": 4372,
      "Ġlife": 4373,
      "Ġwhy": 4374,
      "ĠRed": 4375,
      "Ġapproximately": 4376,
      "Ġcontroller": 4377,
      "valued": 4378,
      "arithm": 4379,
      "Ġpersonalized": 4380,
      "text": 4381,
      "Ġdictionary": 4382,
      "100": 4383,
      "Ġpi": 4384,
      "omic": 4385,
      "Ġboundary": 4386,
      "Ġorders": 4387,
      "Ġsuff": 4388,
      "Ġnearly": 4389,
      "ĠRNNs": 4390,
      "Ġautoencoders": 4391,
      "Ġproven": 4392,
      "Ġhierarch": 4393,
      "Ġmodified": 4394,
      "Ġinductive": 4395,
      "ready": 4396,
      "Ġdynamically": 4397,
      "Ġrare": 4398,
      "Ġcapturing": 4399,
      "Ġdenoising": 4400,
      "Ġdesirable": 4401,
      "ĠProcesses": 4402,
      "used": 4403,
      "Ġdiscriminator": 4404,
      "Ġstorage": 4405,
      "Ġmanipulation": 4406,
      "abelled": 4407,
      "ĠFour": 4408,
      "Ġpack": 4409,
      "allow": 4410,
      "Ġchoices": 4411,
      "Ġconcerns": 4412,
      "ĠVector": 4413,
      "ĠPerform": 4414,
      "Su": 4415,
      "Ġrelevance": 4416,
      "OM": 4417,
      "Ġblocks": 4418,
      "Ġcontaining": 4419,
      "Ġobtaining": 4420,
      "Ġturn": 4421,
      "ĠGo": 4422,
      "thogonal": 4423,
      "Ġconclud": 4424,
      "Ġbackground": 4425,
      "fortunately": 4426,
      "Ġexploits": 4427,
      "iqu": 4428,
      "def": 4429,
      "ĠInterpret": 4430,
      "ĠStud": 4431,
      "Ġimplementations": 4432,
      "ĠHow": 4433,
      "50": 4434,
      "door": 4435,
      "ĠIC": 4436,
      "ĠDR": 4437,
      "Ġplays": 4438,
      "Ġfeasible": 4439,
      "izable": 4440,
      "Ġbiased": 4441,
      "Ġalleviate": 4442,
      "Ġbehaviour": 4443,
      "sequence": 4444,
      "Ġindependently": 4445,
      "Ġcarefully": 4446,
      "Ġpure": 4447,
      "ĠLearn": 4448,
      "atically": 4449,
      "ensitive": 4450,
      "Ġphot": 4451,
      "gener": 4452,
      "ortion": 4453,
      "Ġallocation": 4454,
      "Ġ100": 4455,
      "ĠMultiple": 4456,
      "Ġtopics": 4457,
      "BM": 4458,
      "ranch": 4459,
      "Ġdependent": 4460,
      "Ġchanging": 4461,
      "rafted": 4462,
      "AV": 4463,
      "Ġexists": 4464,
      "ĠOut": 4465,
      "Ġtoo": 4466,
      "Ġadversari": 4467,
      "ĠUnc": 4468,
      "ronic": 4469,
      "Ġchannels": 4470,
      "Ġthreat": 4471,
      "ĠDesign": 4472,
      "Ġelimin": 4473,
      "oph": 4474,
      "ĠSemantic": 4475,
      "aim": 4476,
      "utter": 4477,
      "Ġgeneralizes": 4478,
      "ĠMotivated": 4479,
      "Ġattempt": 4480,
      "ĠComb": 4481,
      "Ġroad": 4482,
      "agnostic": 4483,
      "Ġprocedures": 4484,
      "Ġpreferences": 4485,
      "Ġclassic": 4486,
      "effici": 4487,
      "Ġcomputations": 4488,
      "Ġredund": 4489,
      "osing": 4490,
      "plac": 4491,
      "Ġservices": 4492,
      "Ġboosting": 4493,
      "classi": 4494,
      "Ġstages": 4495,
      "Ġservice": 4496,
      "Ġreliability": 4497,
      "Ġoutliers": 4498,
      "Ġconsiders": 4499,
      "ĠASR": 4500,
      "iti": 4501,
      "Ġalready": 4502,
      "Ġequilibri": 4503,
      "Ġindustry": 4504,
      "EM": 4505,
      "FL": 4506,
      "ulate": 4507,
      "modular": 4508,
      "IM": 4509,
      "expl": 4510,
      "Ġpractition": 4511,
      "Ġscre": 4512,
      "Ġaugmented": 4513,
      "Ġrecommendations": 4514,
      "actions": 4515,
      "Ġcomplic": 4516,
      "Ġconfigurations": 4517,
      "ĠArchitecture": 4518,
      "ĠSpati": 4519,
      "Ġfailure": 4520,
      "Ġindustrial": 4521,
      "Ġnavigation": 4522,
      "ĠCaus": 4523,
      "21": 4524,
      "Ġdecoding": 4525,
      "Ġecon": 4526,
      "Ġhorizon": 4527,
      "inform": 4528,
      "Ġattain": 4529,
      "Ġlocations": 4530,
      "RM": 4531,
      "Ġregarding": 4532,
      "Ġserve": 4533,
      "inter": 4534,
      "Ġstationary": 4535,
      "oretic": 4536,
      "Ġmostly": 4537,
      "abilistic": 4538,
      "operative": 4539,
      "Ġfraction": 4540,
      "Ġrobots": 4541,
      "big": 4542,
      "ymmet": 4543,
      "ĠTemporal": 4544,
      "Ġbalance": 4545,
      "Ġprincipled": 4546,
      "ĠAug": 4547,
      "Ġreported": 4548,
      "ĠCommun": 4549,
      "Ġdistances": 4550,
      "efficients": 4551,
      "Ġlimitation": 4552,
      "ype": 4553,
      "rectional": 4554,
      "ishing": 4555,
      "biased": 4556,
      "Ġstart": 4557,
      "ĠHence": 4558,
      "Ġoracle": 4559,
      "Ġcount": 4560,
      "Ġretain": 4561,
      "Ġlocally": 4562,
      "Ġstar": 4563,
      "Ġrelational": 4564,
      "Ġcontinual": 4565,
      "Ġlist": 4566,
      "CI": 4567,
      "ĠEuclidean": 4568,
      "Ġconsiderable": 4569,
      "VAE": 4570,
      "ele": 4571,
      "pass": 4572,
      "Ġfavor": 4573,
      "negative": 4574,
      "ĠMT": 4575,
      "Ġtheorem": 4576,
      "ĠChallen": 4577,
      "Ġbandits": 4578,
      "Ġlogistic": 4579,
      "ĠVide": 4580,
      "ĠClassif": 4581,
      "Ġprimary": 4582,
      "Ġlands": 4583,
      "Ġcounterfactual": 4584,
      "times": 4585,
      "Ġjusti": 4586,
      "Ġpredictor": 4587,
      "ered": 4588,
      "Ġadaptively": 4589,
      "Ġavailability": 4590,
      "Ġactivations": 4591,
      "Ġaccelerate": 4592,
      "Ġtechnologies": 4593,
      "Ġsafe": 4594,
      "ĠSever": 4595,
      "ung": 4596,
      "iles": 4597,
      "ĠAfter": 4598,
      "Ġ12": 4599,
      "Ġresponses": 4600,
      "ole": 4601,
      "Ġrobotic": 4602,
      "Ġrepresents": 4603,
      "Ġcerti": 4604,
      "Ġinvolve": 4605,
      "ĠTransformers": 4606,
      "Ġpretrained": 4607,
      "Ġactual": 4608,
      "Ġsemantics": 4609,
      "cl": 4610,
      "Ġcontroll": 4611,
      "Ġintegrate": 4612,
      "Ġtechnical": 4613,
      "Ġdesigns": 4614,
      "Ġheuristics": 4615,
      "Ġbody": 4616,
      "Ġmode": 4617,
      "Ġdetector": 4618,
      "ĠAdaptation": 4619,
      "smooth": 4620,
      "Ġcomes": 4621,
      "Ġhuge": 4622,
      "Ġextensively": 4623,
      "Ġexpressive": 4624,
      "Ġadapted": 4625,
      "Ġextracting": 4626,
      "ĠProbabilistic": 4627,
      "Ġlibrary": 4628,
      "Ġargu": 4629,
      "ĠEnglish": 4630,
      "itten": 4631,
      "Ġdropout": 4632,
      "ĠRF": 4633,
      "Ġvalidated": 4634,
      "Ġcreated": 4635,
      "Ġcaused": 4636,
      "Ġclaim": 4637,
      "Ġschedul": 4638,
      "Supervised": 4639,
      "armed": 4640,
      "Ġlook": 4641,
      "Ġrecord": 4642,
      "Ġanalyzed": 4643,
      "Ġclear": 4644,
      "Ġactivities": 4645,
      "ĠBoth": 4646,
      "Ġmalware": 4647,
      "ikelihood": 4648,
      "Ġtemper": 4649,
      "Ġhold": 4650,
      "atching": 4651,
      "Ġteam": 4652,
      "Ġrestricted": 4653,
      "Ġgover": 4654,
      "ĠRet": 4655,
      "ĠOOD": 4656,
      "Ġtaken": 4657,
      "Ġincorporates": 4658,
      "hing": 4659,
      "ones": 4660,
      "ĠLipschitz": 4661,
      "Ġchain": 4662,
      "Ġkin": 4663,
      "Ġdegradation": 4664,
      "Ġfra": 4665,
      "thon": 4666,
      "Ġclient": 4667,
      "ĠPAC": 4668,
      "GP": 4669,
      "aster": 4670,
      "stationary": 4671,
      "Ġdemonstrations": 4672,
      "Ġcoefficients": 4673,
      "Ġrepe": 4674,
      "Ġbus": 4675,
      "ĠClass": 4676,
      "ĠUnfortunately": 4677,
      "ĠUncertain": 4678,
      "Ġconcent": 4679,
      "Ġheterogeneity": 4680,
      "ĠNormal": 4681,
      "Ġemotion": 4682,
      "requency": 4683,
      "Ġstreaming": 4684,
      "Ġoptimality": 4685,
      "Ġrapidly": 4686,
      "prisingly": 4687,
      "Ġcy": 4688,
      "Ġtopological": 4689,
      "Ġmessage": 4690,
      "Ġsix": 4691,
      "Ġcognitive": 4692,
      "ĠTree": 4693,
      "ĠCL": 4694,
      "SD": 4695,
      "ĠIntern": 4696,
      "Ġcombinations": 4697,
      "learn": 4698,
      "Ġinduced": 4699,
      "Ġcompressed": 4700,
      "Ġmembers": 4701,
      "ĠFactor": 4702,
      "Ġcontexts": 4703,
      "avy": 4704,
      "joy": 4705,
      "Ġoutperforming": 4706,
      "Ġmaximizing": 4707,
      "Ġconfiguration": 4708,
      "PO": 4709,
      "Ġcoverage": 4710,
      "Ġsentences": 4711,
      "Ġcoher": 4712,
      "Ġequip": 4713,
      "li": 4714,
      "ĠFlow": 4715,
      "ilarity": 4716,
      "acies": 4717,
      "Ġdevis": 4718,
      "ĠGe": 4719,
      "Ġsubjects": 4720,
      "Ġvisualization": 4721,
      "Ġemploys": 4722,
      "dering": 4723,
      "Ġenjoy": 4724,
      "CO": 4725,
      "astroph": 4726,
      "Ġanomalies": 4727,
      "NA": 4728,
      "Ġdomin": 4729,
      "Ġpooling": 4730,
      "Ġcomplet": 4731,
      "consuming": 4732,
      "Ġdescription": 4733,
      "wr": 4734,
      "Ġtrack": 4735,
      "offs": 4736,
      "ĠSupport": 4737,
      "ĠFunction": 4738,
      "ĠEr": 4739,
      "Ġrequirement": 4740,
      "ĠEnsemble": 4741,
      "Ġconnectivity": 4742,
      "ĠCompar": 4743,
      "BERT": 4744,
      "sample": 4745,
      "Ġproducts": 4746,
      "Ġepis": 4747,
      "erc": 4748,
      "ĠEvaluation": 4749,
      "az": 4750,
      "Ġnonconvex": 4751,
      "Ġ2019": 4752,
      "ots": 4753,
      "ĠInf": 4754,
      "Ġcostly": 4755,
      "ĠPhys": 4756,
      "net": 4757,
      "Ġtum": 4758,
      "Ġperson": 4759,
      "Ġemerged": 4760,
      "ĠImproving": 4761,
      "Ġiii": 4762,
      "ĠPerformance": 4763,
      "day": 4764,
      "Ġextra": 4765,
      "lear": 4766,
      "ĠAnom": 4767,
      "ĠGeneralization": 4768,
      "Ġmodeled": 4769,
      "Ġimper": 4770,
      "ĠInc": 4771,
      "Ġ19": 4772,
      "Ġiteratively": 4773,
      "Ġequal": 4774,
      "Ġmatches": 4775,
      "preserving": 4776,
      "Ġgen": 4777,
      "Ġadopt": 4778,
      "Ġtargets": 4779,
      "Ġpublish": 4780,
      "ĠPrior": 4781,
      "Ġinteractive": 4782,
      "Ġpractitioners": 4783,
      "Ġruntime": 4784,
      "oms": 4785,
      "cepti": 4786,
      "nov": 4787,
      "Ġprecise": 4788,
      "Ġbit": 4789,
      "Ġoperating": 4790,
      "Ġforecast": 4791,
      "Ġcomparisons": 4792,
      "Ġcomplicated": 4793,
      "ĠPredicting": 4794,
      "Ġdiscussed": 4795,
      "idi": 4796,
      "Ġunf": 4797,
      "ĠTheore": 4798,
      "Ġconstit": 4799,
      "Ġfollowed": 4800,
      "ĠExplain": 4801,
      "Ġextreme": 4802,
      "ession": 4803,
      "Ġgrowth": 4804,
      "ĠFourier": 4805,
      "Ġdiseases": 4806,
      "Ġchoose": 4807,
      "Ġlaw": 4808,
      "olding": 4809,
      "Ġpredicts": 4810,
      "Ġhypothes": 4811,
      "ĠLoss": 4812,
      "Ġadditive": 4813,
      "Ġdrift": 4814,
      "ĠPrivacy": 4815,
      "Ġrecur": 4816,
      "Ġ200": 4817,
      "ĠSeveral": 4818,
      "ĠConditional": 4819,
      "Ġimbalanced": 4820,
      "Ġhistory": 4821,
      "Ġnumbers": 4822,
      "Ġforms": 4823,
      "Ġextends": 4824,
      "Ġremarkable": 4825,
      "Ġgreedy": 4826,
      "Ġguaranteed": 4827,
      "pancy": 4828,
      "ĠAg": 4829,
      "ĠCausal": 4830,
      "Ġsat": 4831,
      "Ġpred": 4832,
      "Ġdevi": 4833,
      "putation": 4834,
      "Ġpreserve": 4835,
      "Ġprice": 4836,
      "amples": 4837,
      "ynchronous": 4838,
      "ĠProgram": 4839,
      "plexity": 4840,
      "ĠOff": 4841,
      "ogram": 4842,
      "ameter": 4843,
      "ĠShort": 4844,
      "Ġsatisfy": 4845,
      "DS": 4846,
      "part": 4847,
      "Ġhandling": 4848,
      "ĠGraphs": 4849,
      "ES": 4850,
      "Ġbelief": 4851,
      "Ġparticipants": 4852,
      "gra": 4853,
      "Ġflu": 4854,
      "Ġvariability": 4855,
      "ĠKG": 4856,
      "Ġsimply": 4857,
      "Ġclassifying": 4858,
      "Ġensembles": 4859,
      "Ġcaptured": 4860,
      "Ġpropor": 4861,
      "Ġ2020": 4862,
      "Ġreveals": 4863,
      "osp": 4864,
      "Ġcompr": 4865,
      "Ġfeasibility": 4866,
      "ĠSoft": 4867,
      "Ġrecords": 4868,
      "Ġapplies": 4869,
      "Ġgoals": 4870,
      "Ġcompletely": 4871,
      "Ġproved": 4872,
      "Ġexistence": 4873,
      "ĠDistribution": 4874,
      "bra": 4875,
      "Ġbin": 4876,
      "Ġlogarithm": 4877,
      "Sc": 4878,
      "Ġdescribed": 4879,
      "gle": 4880,
      "ulated": 4881,
      "phas": 4882,
      "Ġvaluable": 4883,
      "Ġcategory": 4884,
      "astrophic": 4885,
      "mann": 4886,
      "Ġconstructing": 4887,
      "IS": 4888,
      "Ġconclude": 4889,
      "ergy": 4890,
      "oost": 4891,
      "levant": 4892,
      "ĠMR": 4893,
      "Ġrating": 4894,
      "Ġarms": 4895,
      "ĠSeries": 4896,
      "ĠUncertainty": 4897,
      "alibr": 4898,
      "Ġcontrolled": 4899,
      "ĠAccel": 4900,
      "Ġthous": 4901,
      "Ġlot": 4902,
      "Nets": 4903,
      "CL": 4904,
      "Ġimitation": 4905,
      "Ġsoci": 4906,
      "poses": 4907,
      "Ġsufficiently": 4908,
      "ĠSol": 4909,
      "Ġguid": 4910,
      "Ġbehind": 4911,
      "Ġbreak": 4912,
      "QA": 4913,
      "Ġstock": 4914,
      "Ġdepending": 4915,
      "Ġmolecules": 4916,
      "Ġmalicious": 4917,
      "Ġear": 4918,
      "conn": 4919,
      "Ġskills": 4920,
      "olute": 4921,
      "ilarities": 4922,
      "Ġanalytical": 4923,
      "ensus": 4924,
      "Ġneighbors": 4925,
      "Ġdeliver": 4926,
      "porting": 4927,
      "Ġcamera": 4928,
      "Ġenhanced": 4929,
      "model": 4930,
      "Ġpenalty": 4931,
      "ĠBack": 4932,
      "Ġshallow": 4933,
      "Ġadded": 4934,
      "Ġvirtual": 4935,
      "Ġtextual": 4936,
      "Ġpiec": 4937,
      "ĠSpace": 4938,
      "Ġcreating": 4939,
      "paren": 4940,
      "Ġtractable": 4941,
      "Ġmaximization": 4942,
      "Ġmonot": 4943,
      "Ġbelong": 4944,
      "ĠObject": 4945,
      "Ġfitting": 4946,
      "ĠAss": 4947,
      "Ġdrawn": 4948,
      "unctions": 4949,
      "ire": 4950,
      "Ġaspect": 4951,
      "ĠEd": 4952,
      "Ġcauses": 4953,
      "iency": 4954,
      "Ġemploying": 4955,
      "lement": 4956,
      "Ġspatio": 4957,
      "IT": 4958,
      "Ġcorrectly": 4959,
      "Ġchemical": 4960,
      "ED": 4961,
      "ĠSch": 4962,
      "Ġoverlap": 4963,
      "Ġencounter": 4964,
      "ĠApplications": 4965,
      "Ġplan": 4966,
      "Ġmodular": 4967,
      "Ġvast": 4968,
      "parts": 4969,
      "Ġmaterials": 4970,
      "Ġload": 4971,
      "Ġcomplementary": 4972,
      "uctions": 4973,
      "Ġwhereas": 4974,
      "Ġaddressed": 4975,
      "Ġimbalance": 4976,
      "ĠECG": 4977,
      "ĠContrastive": 4978,
      "SN": 4979,
      "ĠColl": 4980,
      "Ġcontribute": 4981,
      "lier": 4982,
      "ĠRobustness": 4983,
      "Ġreturn": 4984,
      "Ġdefinition": 4985,
      "Ġled": 4986,
      "oli": 4987,
      "theoretic": 4988,
      "spaces": 4989,
      "ĠInternet": 4990,
      "dis": 4991,
      "Ġattempts": 4992,
      "Ġprincipal": 4993,
      "Ġpromise": 4994,
      "ĠSing": 4995,
      "epth": 4996,
      "ceptr": 4997,
      "ĠAutomated": 4998,
      "Ġpossibly": 4999
    },
    "merges": [
      [
        "Ġ",
        "t"
      ],
      [
        "Ġ",
        "a"
      ],
      [
        "i",
        "n"
      ],
      [
        "o",
        "n"
      ],
      [
        "t",
        "i"
      ],
      [
        "e",
        "r"
      ],
      [
        "Ġt",
        "h"
      ],
      [
        "r",
        "e"
      ],
      [
        "e",
        "n"
      ],
      [
        "o",
        "r"
      ],
      [
        "Ġ",
        "s"
      ],
      [
        "a",
        "l"
      ],
      [
        "Ġth",
        "e"
      ],
      [
        "in",
        "g"
      ],
      [
        "a",
        "t"
      ],
      [
        "Ġ",
        "o"
      ],
      [
        "Ġ",
        "c"
      ],
      [
        "Ġ",
        "p"
      ],
      [
        "ti",
        "on"
      ],
      [
        "e",
        "s"
      ],
      [
        "a",
        "r"
      ],
      [
        "e",
        "d"
      ],
      [
        "i",
        "t"
      ],
      [
        "i",
        "s"
      ],
      [
        "l",
        "e"
      ],
      [
        "Ġ",
        "d"
      ],
      [
        "r",
        "o"
      ],
      [
        "Ġ",
        "m"
      ],
      [
        "Ġ",
        "f"
      ],
      [
        "a",
        "n"
      ],
      [
        "Ġa",
        "n"
      ],
      [
        "Ġ",
        "w"
      ],
      [
        "Ġo",
        "f"
      ],
      [
        "Ġ",
        "in"
      ],
      [
        "i",
        "c"
      ],
      [
        "e",
        "t"
      ],
      [
        "Ġ",
        "b"
      ],
      [
        "a",
        "s"
      ],
      [
        "a",
        "tion"
      ],
      [
        "Ġan",
        "d"
      ],
      [
        "en",
        "t"
      ],
      [
        "a",
        "c"
      ],
      [
        "e",
        "l"
      ],
      [
        "Ġt",
        "o"
      ],
      [
        "Ġ",
        "re"
      ],
      [
        "s",
        "t"
      ],
      [
        "Ġ",
        "e"
      ],
      [
        "Ġ",
        "n"
      ],
      [
        "o",
        "d"
      ],
      [
        "i",
        "m"
      ],
      [
        "u",
        "r"
      ],
      [
        "e",
        "c"
      ],
      [
        "o",
        "m"
      ],
      [
        "Ġp",
        "ro"
      ],
      [
        "l",
        "y"
      ],
      [
        "r",
        "a"
      ],
      [
        "u",
        "s"
      ],
      [
        "v",
        "e"
      ],
      [
        "u",
        "l"
      ],
      [
        "it",
        "h"
      ],
      [
        "Ġf",
        "or"
      ],
      [
        "c",
        "e"
      ],
      [
        "Ġ",
        "l"
      ],
      [
        "Ġ",
        "h"
      ],
      [
        "u",
        "n"
      ],
      [
        "Ġ",
        "on"
      ],
      [
        "u",
        "t"
      ],
      [
        "Ġ",
        "g"
      ],
      [
        "Ġ",
        "T"
      ],
      [
        "o",
        "w"
      ],
      [
        "v",
        "er"
      ],
      [
        "Ġ",
        "is"
      ],
      [
        "s",
        "i"
      ],
      [
        "Ġc",
        "on"
      ],
      [
        "c",
        "h"
      ],
      [
        "ar",
        "n"
      ],
      [
        "Ġth",
        "at"
      ],
      [
        "re",
        "s"
      ],
      [
        "Ġ",
        "le"
      ],
      [
        "Ġs",
        "t"
      ],
      [
        "at",
        "e"
      ],
      [
        "p",
        "er"
      ],
      [
        "a",
        "b"
      ],
      [
        "Ġm",
        "od"
      ],
      [
        "or",
        "k"
      ],
      [
        "Ġe",
        "x"
      ],
      [
        "i",
        "g"
      ],
      [
        "o",
        "s"
      ],
      [
        "Ġw",
        "ith"
      ],
      [
        "o",
        "l"
      ],
      [
        "Ġc",
        "om"
      ],
      [
        "Ġw",
        "e"
      ],
      [
        "f",
        "or"
      ],
      [
        "st",
        "r"
      ],
      [
        "e",
        "m"
      ],
      [
        "Ġmod",
        "el"
      ],
      [
        "ti",
        "c"
      ],
      [
        "Ġa",
        "l"
      ],
      [
        "arn",
        "ing"
      ],
      [
        "a",
        "m"
      ],
      [
        "p",
        "l"
      ],
      [
        "ac",
        "t"
      ],
      [
        "Ġd",
        "at"
      ],
      [
        "i",
        "z"
      ],
      [
        "i",
        "l"
      ],
      [
        "Ġ",
        "W"
      ],
      [
        "Ġw",
        "h"
      ],
      [
        "i",
        "d"
      ],
      [
        "t",
        "h"
      ],
      [
        "f",
        "f"
      ],
      [
        "Ġ",
        "A"
      ],
      [
        "Ġ",
        "I"
      ],
      [
        "q",
        "u"
      ],
      [
        "for",
        "m"
      ],
      [
        "ĠT",
        "h"
      ],
      [
        "it",
        "y"
      ],
      [
        "w",
        "ork"
      ],
      [
        "g",
        "e"
      ],
      [
        "Ġ",
        "S"
      ],
      [
        "Ġ",
        "us"
      ],
      [
        "Ġa",
        "s"
      ],
      [
        "Ġ",
        "v"
      ],
      [
        "r",
        "i"
      ],
      [
        "Ġ",
        "M"
      ],
      [
        "p",
        "ro"
      ],
      [
        "Ġa",
        "b"
      ],
      [
        "ac",
        "h"
      ],
      [
        "Ġa",
        "p"
      ],
      [
        "Ġcom",
        "p"
      ],
      [
        "t",
        "s"
      ],
      [
        "Ġs",
        "u"
      ],
      [
        "Ġ",
        "C"
      ],
      [
        "ĠW",
        "e"
      ],
      [
        "Ġ",
        "im"
      ],
      [
        "Ġle",
        "arning"
      ],
      [
        "Ġm",
        "et"
      ],
      [
        "m",
        "ent"
      ],
      [
        "Ġ",
        "D"
      ],
      [
        "ti",
        "ve"
      ],
      [
        "t",
        "er"
      ],
      [
        "Ġb",
        "e"
      ],
      [
        "Ġd",
        "e"
      ],
      [
        "es",
        "s"
      ],
      [
        "i",
        "r"
      ],
      [
        "Ġn",
        "e"
      ],
      [
        "et",
        "work"
      ],
      [
        "Ġth",
        "is"
      ],
      [
        "ra",
        "in"
      ],
      [
        "Ġdat",
        "a"
      ],
      [
        "Ġa",
        "re"
      ],
      [
        "in",
        "e"
      ],
      [
        "ĠI",
        "n"
      ],
      [
        "u",
        "re"
      ],
      [
        "h",
        "od"
      ],
      [
        "ation",
        "s"
      ],
      [
        "Ġab",
        "str"
      ],
      [
        "a",
        "in"
      ],
      [
        "Ġabstr",
        "act"
      ],
      [
        "Ġc",
        "l"
      ],
      [
        "Ġmet",
        "hod"
      ],
      [
        "Ġt",
        "it"
      ],
      [
        "Ġtit",
        "le"
      ],
      [
        "u",
        "c"
      ],
      [
        "ti",
        "m"
      ],
      [
        "I",
        "N"
      ],
      [
        "ar",
        "i"
      ],
      [
        "p",
        "os"
      ],
      [
        "Ġb",
        "y"
      ],
      [
        "o",
        "re"
      ],
      [
        "is",
        "t"
      ],
      [
        "e",
        "p"
      ],
      [
        "al",
        "ly"
      ],
      [
        "ec",
        "t"
      ],
      [
        "Ġ",
        "R"
      ],
      [
        "Ġre",
        "s"
      ],
      [
        "Ġa",
        "c"
      ],
      [
        "Ġp",
        "er"
      ],
      [
        "d",
        "i"
      ],
      [
        "u",
        "m"
      ],
      [
        "f",
        "ic"
      ],
      [
        "Ġ",
        "un"
      ],
      [
        "Ġs",
        "h"
      ],
      [
        "an",
        "ce"
      ],
      [
        "re",
        "d"
      ],
      [
        "b",
        "le"
      ],
      [
        "Ġpro",
        "pos"
      ],
      [
        "Ġc",
        "an"
      ],
      [
        "Ġ",
        "L"
      ],
      [
        "v",
        "el"
      ],
      [
        "Ġ",
        "F"
      ],
      [
        "en",
        "er"
      ],
      [
        "ro",
        "m"
      ],
      [
        "o",
        "t"
      ],
      [
        "Ġn",
        "etwork"
      ],
      [
        "Ġa",
        "d"
      ],
      [
        "er",
        "s"
      ],
      [
        "as",
        "ed"
      ],
      [
        "Ġ",
        "N"
      ],
      [
        "Ġs",
        "p"
      ],
      [
        "g",
        "or"
      ],
      [
        "Ġf",
        "rom"
      ],
      [
        "ĠTh",
        "e"
      ],
      [
        "Ġd",
        "i"
      ],
      [
        "Ġ",
        "P"
      ],
      [
        "ig",
        "h"
      ],
      [
        "s",
        "e"
      ],
      [
        "ith",
        "m"
      ],
      [
        "Ġap",
        "pro"
      ],
      [
        "ic",
        "h"
      ],
      [
        "ur",
        "al"
      ],
      [
        "tion",
        "s"
      ],
      [
        "gor",
        "ithm"
      ],
      [
        "ab",
        "le"
      ],
      [
        "d",
        "er"
      ],
      [
        "r",
        "an"
      ],
      [
        "en",
        "ce"
      ],
      [
        "Ġ",
        "E"
      ],
      [
        "Ġ",
        "it"
      ],
      [
        "Ġ",
        "en"
      ],
      [
        "an",
        "t"
      ],
      [
        "at",
        "ed"
      ],
      [
        "Ġ",
        "G"
      ],
      [
        "Ġwh",
        "ich"
      ],
      [
        "Ġal",
        "gorithm"
      ],
      [
        "Ġt",
        "rain"
      ],
      [
        "a",
        "p"
      ],
      [
        "Ġ",
        "O"
      ],
      [
        "a",
        "y"
      ],
      [
        "Ġs",
        "e"
      ],
      [
        "d",
        "ing"
      ],
      [
        "Ġg",
        "ener"
      ],
      [
        "Ġa",
        "t"
      ],
      [
        "Ġper",
        "form"
      ],
      [
        "a",
        "ge"
      ],
      [
        "Ġcl",
        "as"
      ],
      [
        "o",
        "us"
      ],
      [
        "res",
        "ent"
      ],
      [
        "o",
        "c"
      ],
      [
        "a",
        "g"
      ],
      [
        "p",
        "le"
      ],
      [
        "Ġsh",
        "ow"
      ],
      [
        "iz",
        "ation"
      ],
      [
        "Ġ",
        "or"
      ],
      [
        "ig",
        "n"
      ],
      [
        "Ġ",
        "B"
      ],
      [
        "Ġmodel",
        "s"
      ],
      [
        "Ġin",
        "t"
      ],
      [
        "ic",
        "al"
      ],
      [
        "o",
        "g"
      ],
      [
        "Ġo",
        "ur"
      ],
      [
        "t",
        "ing"
      ],
      [
        "ble",
        "m"
      ],
      [
        "Ġp",
        "ar"
      ],
      [
        "Ġc",
        "h"
      ],
      [
        "as",
        "k"
      ],
      [
        "Ġpro",
        "blem"
      ],
      [
        "Ġ",
        "H"
      ],
      [
        "Ġappro",
        "ach"
      ],
      [
        "Ġo",
        "p"
      ],
      [
        "Ġcon",
        "t"
      ],
      [
        "u",
        "tion"
      ],
      [
        "Ġe",
        "ff"
      ],
      [
        "Ġs",
        "y"
      ],
      [
        "Ġp",
        "a"
      ],
      [
        "p",
        "h"
      ],
      [
        "er",
        "e"
      ],
      [
        "al",
        "l"
      ],
      [
        "Ġf",
        "e"
      ],
      [
        "Ġre",
        "c"
      ],
      [
        "si",
        "on"
      ],
      [
        "en",
        "ti"
      ],
      [
        "Ġres",
        "ul"
      ],
      [
        "o",
        "p"
      ],
      [
        "ri",
        "b"
      ],
      [
        "red",
        "ic"
      ],
      [
        "Ġac",
        "c"
      ],
      [
        "u",
        "st"
      ],
      [
        "p",
        "or"
      ],
      [
        "Ġo",
        "b"
      ],
      [
        "d",
        "s"
      ],
      [
        "ul",
        "ti"
      ],
      [
        "A",
        "T"
      ],
      [
        "Ġdi",
        "ff"
      ],
      [
        "Ġb",
        "o"
      ],
      [
        "Ġt",
        "ask"
      ],
      [
        "es",
        "t"
      ],
      [
        "ent",
        "s"
      ],
      [
        "i",
        "on"
      ],
      [
        "ac",
        "k"
      ],
      [
        "IN",
        "E"
      ],
      [
        "Ġmethod",
        "s"
      ],
      [
        "M",
        "AT"
      ],
      [
        "L",
        "INE"
      ],
      [
        "MAT",
        "H"
      ],
      [
        "IN",
        "LINE"
      ],
      [
        "t",
        "en"
      ],
      [
        "v",
        "en"
      ],
      [
        "Ġn",
        "o"
      ],
      [
        "i",
        "es"
      ],
      [
        "Ġ",
        "k"
      ],
      [
        "Ġ",
        "["
      ],
      [
        "Ġperform",
        "ance"
      ],
      [
        "Ġg",
        "ra"
      ],
      [
        "Ġus",
        "ing"
      ],
      [
        "Ġtrain",
        "ing"
      ],
      [
        "u",
        "res"
      ],
      [
        "as",
        "et"
      ],
      [
        "o",
        "st"
      ],
      [
        "i",
        "e"
      ],
      [
        "Ġp",
        "redic"
      ],
      [
        "ra",
        "m"
      ],
      [
        "ec",
        "h"
      ],
      [
        "Ġdat",
        "aset"
      ],
      [
        "Ġa",
        "r"
      ],
      [
        "Ġv",
        "ari"
      ],
      [
        "Ġop",
        "tim"
      ],
      [
        "il",
        "ity"
      ],
      [
        "v",
        "id"
      ],
      [
        "Ġst",
        "r"
      ],
      [
        "Ġne",
        "ural"
      ],
      [
        "uc",
        "t"
      ],
      [
        "Ġs",
        "et"
      ],
      [
        "al",
        "u"
      ],
      [
        "c",
        "ess"
      ],
      [
        "Ġs",
        "im"
      ],
      [
        "a",
        "ve"
      ],
      [
        "Ġ",
        "qu"
      ],
      [
        "Ġpa",
        "per"
      ],
      [
        "pl",
        "ic"
      ],
      [
        "Ġclas",
        "si"
      ],
      [
        "i",
        "fic"
      ],
      [
        "st",
        "em"
      ],
      [
        "a",
        "d"
      ],
      [
        "Ġd",
        "ist"
      ],
      [
        "c",
        "tion"
      ],
      [
        "a",
        "k"
      ],
      [
        "Ġs",
        "c"
      ],
      [
        "ul",
        "ar"
      ],
      [
        "a",
        "tive"
      ],
      [
        "Ġpropos",
        "e"
      ],
      [
        "Ġb",
        "et"
      ],
      [
        "en",
        "c"
      ],
      [
        "an",
        "d"
      ],
      [
        "al",
        "y"
      ],
      [
        "u",
        "d"
      ],
      [
        "Ġ",
        "r"
      ],
      [
        "Ġin",
        "ter"
      ],
      [
        "th",
        "er"
      ],
      [
        "Ġdiff",
        "er"
      ],
      [
        "Ġin",
        "c"
      ],
      [
        "Ġs",
        "am"
      ],
      [
        "ic",
        "i"
      ],
      [
        "u",
        "al"
      ],
      [
        "f",
        "er"
      ],
      [
        "u",
        "g"
      ],
      [
        "Ġpropos",
        "ed"
      ],
      [
        "Ġe",
        "m"
      ],
      [
        "Ġresul",
        "ts"
      ],
      [
        "Ġsu",
        "ch"
      ],
      [
        "Ġm",
        "ulti"
      ],
      [
        "Ġh",
        "igh"
      ],
      [
        "on",
        "str"
      ],
      [
        "Ġd",
        "is"
      ],
      [
        "v",
        "es"
      ],
      [
        "Ġf",
        "un"
      ],
      [
        "Ġd",
        "es"
      ],
      [
        "u",
        "p"
      ],
      [
        "Ġfe",
        "at"
      ],
      [
        "ran",
        "s"
      ],
      [
        "Ġsy",
        "stem"
      ],
      [
        "Ġnetwork",
        "s"
      ],
      [
        "n",
        "i"
      ],
      [
        "ĠL",
        "e"
      ],
      [
        "Ġw",
        "ork"
      ],
      [
        "Ġh",
        "ave"
      ],
      [
        "Ġo",
        "ut"
      ],
      [
        "fic",
        "ation"
      ],
      [
        "Ġo",
        "ver"
      ],
      [
        "per",
        "im"
      ],
      [
        "Ġb",
        "ased"
      ],
      [
        "Ġde",
        "ep"
      ],
      [
        "Ġh",
        "as"
      ],
      [
        "el",
        "l"
      ],
      [
        "im",
        "e"
      ],
      [
        "Ġre",
        "p"
      ],
      [
        "N",
        "N"
      ],
      [
        "Ġre",
        "g"
      ],
      [
        "Ġ",
        "ro"
      ],
      [
        "ĠTh",
        "is"
      ],
      [
        "ver",
        "s"
      ],
      [
        "Ġd",
        "em"
      ],
      [
        "ac",
        "y"
      ],
      [
        "Ġcomp",
        "ut"
      ],
      [
        "Ġim",
        "pro"
      ],
      [
        "d",
        "uc"
      ],
      [
        "Ġe",
        "v"
      ],
      [
        "Ġp",
        "re"
      ],
      [
        "Ġd",
        "et"
      ],
      [
        "s",
        "o"
      ],
      [
        "ar",
        "d"
      ],
      [
        "ĠLe",
        "arning"
      ],
      [
        "tic",
        "al"
      ],
      [
        "p",
        "ut"
      ],
      [
        "Ġrep",
        "resent"
      ],
      [
        "a",
        "ti"
      ],
      [
        "Ġacc",
        "ur"
      ],
      [
        "o",
        "f"
      ],
      [
        "ar",
        "ch"
      ],
      [
        "ar",
        "y"
      ],
      [
        "am",
        "et"
      ],
      [
        "ach",
        "ine"
      ],
      [
        "Ġle",
        "arn"
      ],
      [
        "b",
        "ased"
      ],
      [
        "i",
        "al"
      ],
      [
        "Ġn",
        "ot"
      ],
      [
        "e",
        "x"
      ],
      [
        "Ġan",
        "aly"
      ],
      [
        "or",
        "s"
      ],
      [
        "en",
        "d"
      ],
      [
        "at",
        "es"
      ],
      [
        "t",
        "ain"
      ],
      [
        "form",
        "ation"
      ],
      [
        "ram",
        "e"
      ],
      [
        "n",
        "ow"
      ],
      [
        "Ġpro",
        "vid"
      ],
      [
        "at",
        "ing"
      ],
      [
        "Ġne",
        "w"
      ],
      [
        "Ġm",
        "an"
      ],
      [
        "Ġdem",
        "onstr"
      ],
      [
        "Ġ",
        "es"
      ],
      [
        "un",
        "d"
      ],
      [
        "ol",
        "ution"
      ],
      [
        "Ġt",
        "ime"
      ],
      [
        "ab",
        "ility"
      ],
      [
        "Ġt",
        "w"
      ],
      [
        "th",
        "e"
      ],
      [
        "Ġthe",
        "se"
      ],
      [
        "Ġst",
        "ate"
      ],
      [
        "Ġal",
        "l"
      ],
      [
        "v",
        "i"
      ],
      [
        "Ġs",
        "ign"
      ],
      [
        "rame",
        "work"
      ],
      [
        "ac",
        "e"
      ],
      [
        "i",
        "f"
      ],
      [
        "Ġ",
        "U"
      ],
      [
        "o",
        "ur"
      ],
      [
        "r",
        "ic"
      ],
      [
        "c",
        "t"
      ],
      [
        "Ġun",
        "der"
      ],
      [
        "w",
        "e"
      ],
      [
        "ĠO",
        "ur"
      ],
      [
        "Ġalgorithm",
        "s"
      ],
      [
        "x",
        "im"
      ],
      [
        "por",
        "t"
      ],
      [
        "di",
        "tion"
      ],
      [
        "Ġal",
        "so"
      ],
      [
        "Ġtw",
        "o"
      ],
      [
        "Ġdist",
        "rib"
      ],
      [
        "Ġdiffer",
        "ent"
      ],
      [
        "e",
        "ver"
      ],
      [
        "on",
        "g"
      ],
      [
        "ti",
        "es"
      ],
      [
        "a",
        "re"
      ],
      [
        "v",
        "is"
      ],
      [
        "i",
        "le"
      ],
      [
        "Ġc",
        "o"
      ],
      [
        "Ġre",
        "al"
      ],
      [
        "as",
        "e"
      ],
      [
        "Ġf",
        "ramework"
      ],
      [
        "Ġex",
        "pl"
      ],
      [
        "Ġre",
        "l"
      ],
      [
        "Ġex",
        "perim"
      ],
      [
        "v",
        "ing"
      ],
      [
        "Ġp",
        "o"
      ],
      [
        "Ġt",
        "rans"
      ],
      [
        "ici",
        "ent"
      ],
      [
        "ch",
        "ie"
      ],
      [
        "Ġgener",
        "al"
      ],
      [
        "iz",
        "ed"
      ],
      [
        "ar",
        "t"
      ],
      [
        "Ġa",
        "chie"
      ],
      [
        "Ġus",
        "e"
      ],
      [
        "Ġcomp",
        "le"
      ],
      [
        "iz",
        "e"
      ],
      [
        "Ġn",
        "um"
      ],
      [
        "Ġgra",
        "ph"
      ],
      [
        "Ġus",
        "ed"
      ],
      [
        "el",
        "y"
      ],
      [
        "Ġl",
        "ar"
      ],
      [
        "we",
        "en"
      ],
      [
        "v",
        "ed"
      ],
      [
        "Ġd",
        "ec"
      ],
      [
        "Ġin",
        "formation"
      ],
      [
        "Ġtask",
        "s"
      ],
      [
        "o",
        "ut"
      ],
      [
        "ow",
        "ever"
      ],
      [
        "ug",
        "h"
      ],
      [
        "Ġbet",
        "ween"
      ],
      [
        "Ġsu",
        "b"
      ],
      [
        "Ġm",
        "ore"
      ],
      [
        "ec",
        "tion"
      ],
      [
        "s",
        "is"
      ],
      [
        "Ġes",
        "tim"
      ],
      [
        "ab",
        "el"
      ],
      [
        "Ġap",
        "plic"
      ],
      [
        "Ġa",
        "g"
      ],
      [
        "Ġt",
        "ech"
      ],
      [
        "Ġn",
        "on"
      ],
      [
        "Ġthe",
        "ir"
      ],
      [
        "s",
        "u"
      ],
      [
        "Ġp",
        "resent"
      ],
      [
        "d",
        "u"
      ],
      [
        "p",
        "ec"
      ],
      [
        "Ġclassi",
        "fication"
      ],
      [
        "a",
        "il"
      ],
      [
        "Ġbo",
        "th"
      ],
      [
        "ag",
        "es"
      ],
      [
        "Ġm",
        "achine"
      ],
      [
        "Ġpro",
        "cess"
      ],
      [
        "per",
        "vis"
      ],
      [
        "qu",
        "i"
      ],
      [
        "Ġm",
        "e"
      ],
      [
        "Ġdataset",
        "s"
      ],
      [
        "as",
        "t"
      ],
      [
        "en",
        "s"
      ],
      [
        "a",
        "us"
      ],
      [
        "Ġit",
        "s"
      ],
      [
        "an",
        "g"
      ],
      [
        "Ġev",
        "alu"
      ],
      [
        "Ġ",
        "ran"
      ],
      [
        "is",
        "e"
      ],
      [
        "Ġdis",
        "c"
      ],
      [
        "Ġp",
        "r"
      ],
      [
        "ation",
        "al"
      ],
      [
        "ar",
        "k"
      ],
      [
        "Ġ",
        "V"
      ],
      [
        "y",
        "p"
      ],
      [
        "Ġf",
        "in"
      ],
      [
        "Ġwh",
        "ere"
      ],
      [
        "b",
        "er"
      ],
      [
        "or",
        "y"
      ],
      [
        "ine",
        "ar"
      ],
      [
        "ment",
        "s"
      ],
      [
        "id",
        "e"
      ],
      [
        "Ġbe",
        "en"
      ],
      [
        "Ġeff",
        "ec"
      ],
      [
        "Ġro",
        "b"
      ],
      [
        "an",
        "c"
      ],
      [
        "ex",
        "t"
      ],
      [
        "Ġat",
        "t"
      ],
      [
        "om",
        "ain"
      ],
      [
        "Ġaccur",
        "acy"
      ],
      [
        "s",
        "er"
      ],
      [
        "si",
        "ve"
      ],
      [
        "Ġno",
        "vel"
      ],
      [
        "ĠH",
        "owever"
      ],
      [
        "ĠN",
        "e"
      ],
      [
        "Ġpar",
        "amet"
      ],
      [
        "ĠT",
        "o"
      ],
      [
        "ĠN",
        "etwork"
      ],
      [
        "er",
        "m"
      ],
      [
        "re",
        "e"
      ],
      [
        "ĠC",
        "on"
      ],
      [
        "ni",
        "qu"
      ],
      [
        "Ġstr",
        "uct"
      ],
      [
        "Ġk",
        "now"
      ],
      [
        "ĠE",
        "x"
      ],
      [
        "is",
        "tic"
      ],
      [
        "y",
        "n"
      ],
      [
        "Ġdemonstr",
        "ate"
      ],
      [
        "re",
        "t"
      ],
      [
        "is",
        "ion"
      ],
      [
        "pl",
        "es"
      ],
      [
        "i",
        "p"
      ],
      [
        "Ġlar",
        "ge"
      ],
      [
        "Ġas",
        "s"
      ],
      [
        "Ġfun",
        "ction"
      ],
      [
        "all",
        "en"
      ],
      [
        "Ġm",
        "at"
      ],
      [
        "pervis",
        "ed"
      ],
      [
        "Ġclas",
        "s"
      ],
      [
        "ch",
        "it"
      ],
      [
        "Ġ",
        "2"
      ],
      [
        "Ġtech",
        "niqu"
      ],
      [
        "ist",
        "ing"
      ],
      [
        "du",
        "ce"
      ],
      [
        "Ġcom",
        "m"
      ],
      [
        "ĠD",
        "e"
      ],
      [
        "Ġc",
        "or"
      ],
      [
        "Ġfeat",
        "ures"
      ],
      [
        "l",
        "ed"
      ],
      [
        "om",
        "e"
      ],
      [
        "re",
        "n"
      ],
      [
        "n",
        "ess"
      ],
      [
        "vers",
        "ari"
      ],
      [
        "Ġwh",
        "en"
      ],
      [
        "ir",
        "st"
      ],
      [
        "en",
        "sion"
      ],
      [
        "igh",
        "t"
      ],
      [
        "Ġth",
        "an"
      ],
      [
        "ol",
        "ic"
      ],
      [
        "i",
        "ed"
      ],
      [
        "enti",
        "al"
      ],
      [
        "Ġch",
        "allen"
      ],
      [
        "Ġw",
        "ell"
      ],
      [
        "Ġa",
        "ut"
      ],
      [
        "chit",
        "ect"
      ],
      [
        "im",
        "ension"
      ],
      [
        "o",
        "b"
      ],
      [
        "Ġcomple",
        "x"
      ],
      [
        "Ġst",
        "ud"
      ],
      [
        "vel",
        "op"
      ],
      [
        "al",
        "ity"
      ],
      [
        "res",
        "s"
      ],
      [
        "t",
        "r"
      ],
      [
        "Ġe",
        "ach"
      ],
      [
        "Ġs",
        "ol"
      ],
      [
        "Ġimpro",
        "ve"
      ],
      [
        "vel",
        "y"
      ],
      [
        "Ġ",
        "1"
      ],
      [
        "Ġ",
        "up"
      ],
      [
        "Ġdes",
        "ign"
      ],
      [
        "ti",
        "l"
      ],
      [
        "versari",
        "al"
      ],
      [
        "Ġde",
        "velop"
      ],
      [
        "Ġnum",
        "ber"
      ],
      [
        "Ġl",
        "ow"
      ],
      [
        "Ġint",
        "ro"
      ],
      [
        "Ġp",
        "ri"
      ],
      [
        "o",
        "ver"
      ],
      [
        "Ġon",
        "e"
      ],
      [
        "il",
        "l"
      ],
      [
        "Ġt",
        "ra"
      ],
      [
        "Ġon",
        "ly"
      ],
      [
        "l",
        "es"
      ],
      [
        "f",
        "ul"
      ],
      [
        "Ġint",
        "o"
      ],
      [
        "Ġd",
        "omain"
      ],
      [
        "u",
        "e"
      ],
      [
        "Ġim",
        "age"
      ],
      [
        "in",
        "t"
      ],
      [
        "Ġar",
        "chitect"
      ],
      [
        "enc",
        "y"
      ],
      [
        "ol",
        "og"
      ],
      [
        "g",
        "et"
      ],
      [
        "Ġanaly",
        "sis"
      ],
      [
        "Ġob",
        "j"
      ],
      [
        "t",
        "y"
      ],
      [
        "ĠR",
        "e"
      ],
      [
        "i",
        "a"
      ],
      [
        "ĠDe",
        "ep"
      ],
      [
        "Ġproblem",
        "s"
      ],
      [
        "Ġsign",
        "ific"
      ],
      [
        "Ġl",
        "abel"
      ],
      [
        "yn",
        "am"
      ],
      [
        "Ġre",
        "qui"
      ],
      [
        "Ġm",
        "in"
      ],
      [
        "Ġoptim",
        "ization"
      ],
      [
        "ur",
        "ther"
      ],
      [
        "ro",
        "s"
      ],
      [
        "Ġo",
        "ther"
      ],
      [
        "Ġc",
        "ap"
      ],
      [
        "Ġpredic",
        "tion"
      ],
      [
        "Ġfor",
        "m"
      ],
      [
        "Ġstud",
        "y"
      ],
      [
        "Ġsignific",
        "ant"
      ],
      [
        "i",
        "er"
      ],
      [
        "t",
        "o"
      ],
      [
        "Ġin",
        "put"
      ],
      [
        "Ġp",
        "l"
      ],
      [
        "os",
        "s"
      ],
      [
        "Ġex",
        "p"
      ],
      [
        "Ġex",
        "isting"
      ],
      [
        "Ġb",
        "en"
      ],
      [
        "b",
        "ed"
      ],
      [
        "fer",
        "ence"
      ],
      [
        "Ġexperim",
        "ents"
      ],
      [
        "Ġrob",
        "ust"
      ],
      [
        "ĠNe",
        "ural"
      ],
      [
        "res",
        "sion"
      ],
      [
        "di",
        "ent"
      ],
      [
        "'",
        "s"
      ],
      [
        "Ġf",
        "irst"
      ],
      [
        "i",
        "k"
      ],
      [
        "Ġb",
        "ut"
      ],
      [
        "i",
        "x"
      ],
      [
        "Ġeff",
        "icient"
      ],
      [
        "a",
        "red"
      ],
      [
        "Ġsystem",
        "s"
      ],
      [
        "Ġl",
        "oc"
      ],
      [
        "ro",
        "ugh"
      ],
      [
        "Ġapproach",
        "es"
      ],
      [
        "ro",
        "l"
      ],
      [
        "er",
        "n"
      ],
      [
        "Ġs",
        "m"
      ],
      [
        "Ġcon",
        "si"
      ],
      [
        "e",
        "arch"
      ],
      [
        "ur",
        "ren"
      ],
      [
        "Ġprovid",
        "e"
      ],
      [
        "i",
        "b"
      ],
      [
        "f",
        "y"
      ],
      [
        "Ġp",
        "h"
      ],
      [
        "Ġwh",
        "ile"
      ],
      [
        "u",
        "tions"
      ],
      [
        "Ġ",
        "ver"
      ],
      [
        "ynam",
        "ic"
      ],
      [
        "Ġsp",
        "ace"
      ],
      [
        "it",
        "e"
      ],
      [
        "Ġa",
        "v"
      ],
      [
        "led",
        "ge"
      ],
      [
        "Ġdistrib",
        "ution"
      ],
      [
        "er",
        "ing"
      ],
      [
        "ter",
        "n"
      ],
      [
        "a",
        "tic"
      ],
      [
        "v",
        "olution"
      ],
      [
        "l",
        "d"
      ],
      [
        "Ġconsi",
        "der"
      ],
      [
        "Ġappro",
        "xim"
      ],
      [
        "Ġapplic",
        "ations"
      ],
      [
        "Ġman",
        "y"
      ],
      [
        "od",
        "e"
      ],
      [
        "for",
        "ce"
      ],
      [
        "ros",
        "s"
      ],
      [
        "l",
        "ow"
      ],
      [
        "Ġl",
        "oss"
      ],
      [
        "Ġ",
        "id"
      ],
      [
        "urren",
        "t"
      ],
      [
        "Ġm",
        "ak"
      ],
      [
        "Ġg",
        "i"
      ],
      [
        "Ġfeat",
        "ure"
      ],
      [
        "Ġset",
        "ting"
      ],
      [
        "Ġsim",
        "ul"
      ],
      [
        "ti",
        "v"
      ],
      [
        "Ġob",
        "ser"
      ],
      [
        "Ġrec",
        "ent"
      ],
      [
        "c",
        "tions"
      ],
      [
        "per",
        "form"
      ],
      [
        "Ġex",
        "am"
      ],
      [
        "or",
        "ld"
      ],
      [
        "an",
        "ti"
      ],
      [
        "im",
        "it"
      ],
      [
        "h",
        "er"
      ],
      [
        "Ġ",
        "i"
      ],
      [
        "Ġstruct",
        "ure"
      ],
      [
        "Ġm",
        "ost"
      ],
      [
        "ra",
        "ph"
      ],
      [
        "in",
        "force"
      ],
      [
        "Ġp",
        "olic"
      ],
      [
        "dition",
        "al"
      ],
      [
        "Ġdet",
        "ection"
      ],
      [
        "inforce",
        "ment"
      ],
      [
        "ment",
        "ation"
      ],
      [
        "l",
        "u"
      ],
      [
        "l",
        "ine"
      ],
      [
        "Ġcom",
        "b"
      ],
      [
        "ver",
        "g"
      ],
      [
        "Ġim",
        "port"
      ],
      [
        "Ġchallen",
        "g"
      ],
      [
        "ĠA",
        "d"
      ],
      [
        "um",
        "an"
      ],
      [
        "Ġsp",
        "ec"
      ],
      [
        "Ġid",
        "enti"
      ],
      [
        "i",
        "el"
      ],
      [
        "Ġh",
        "ow"
      ],
      [
        "p",
        "ar"
      ],
      [
        "os",
        "e"
      ],
      [
        "Ġ",
        "K"
      ],
      [
        "Ġt",
        "yp"
      ],
      [
        "Ġ",
        "er"
      ],
      [
        "Ġl",
        "imit"
      ],
      [
        "Ġse",
        "ver"
      ],
      [
        "Ġinc",
        "re"
      ],
      [
        "m",
        "ark"
      ],
      [
        "Ġtechniqu",
        "es"
      ],
      [
        "Ġad",
        "ap"
      ],
      [
        "o",
        "un"
      ],
      [
        "Ġme",
        "as"
      ],
      [
        "ati",
        "s"
      ],
      [
        "Ġim",
        "ages"
      ],
      [
        "Ġad",
        "versarial"
      ],
      [
        "Ġd",
        "o"
      ],
      [
        "Ġsp",
        "e"
      ],
      [
        "Ġres",
        "earch"
      ],
      [
        "Ġtrain",
        "ed"
      ],
      [
        "Ġex",
        "ten"
      ],
      [
        "Ġout",
        "perform"
      ],
      [
        "Ġcl",
        "ust"
      ],
      [
        "u",
        "di"
      ],
      [
        "N",
        "et"
      ],
      [
        "Ġt",
        "r"
      ],
      [
        "as",
        "tic"
      ],
      [
        "Ġa",
        "m"
      ],
      [
        "ent",
        "al"
      ],
      [
        "Ġpar",
        "tic"
      ],
      [
        "ĠA",
        "n"
      ],
      [
        "Ġbet",
        "ter"
      ],
      [
        "Ġknow",
        "ledge"
      ],
      [
        "it",
        "s"
      ],
      [
        "ĠR",
        "ec"
      ],
      [
        "ce",
        "p"
      ],
      [
        "ang",
        "u"
      ],
      [
        "at",
        "or"
      ],
      [
        "Ġc",
        "ol"
      ],
      [
        "Ġs",
        "er"
      ],
      [
        "s",
        "ing"
      ],
      [
        "ĠNetwork",
        "s"
      ],
      [
        "Ġth",
        "rough"
      ],
      [
        "o",
        "od"
      ],
      [
        "Ġmulti",
        "ple"
      ],
      [
        "Ġer",
        "r"
      ],
      [
        "re",
        "ct"
      ],
      [
        "Ġem",
        "bed"
      ],
      [
        "Ġ",
        "y"
      ],
      [
        "su",
        "pervised"
      ],
      [
        "Ġcont",
        "rol"
      ],
      [
        "al",
        "e"
      ],
      [
        "Ġl",
        "at"
      ],
      [
        "Ġcon",
        "s"
      ],
      [
        "Ġse",
        "le"
      ],
      [
        "Ġcon",
        "st"
      ],
      [
        "c",
        "on"
      ],
      [
        "as",
        "es"
      ],
      [
        "Ġall",
        "ow"
      ],
      [
        "Ġgra",
        "dient"
      ],
      [
        "ar",
        "get"
      ],
      [
        "Ġg",
        "ro"
      ],
      [
        "Ġse",
        "qu"
      ],
      [
        "Ġ",
        "3"
      ],
      [
        "Ġin",
        "d"
      ],
      [
        "Ġatt",
        "ack"
      ],
      [
        "Ġd",
        "ynamic"
      ],
      [
        "Ġad",
        "d"
      ],
      [
        "Ġwith",
        "out"
      ],
      [
        "Ġobj",
        "ec"
      ],
      [
        ".",
        ","
      ],
      [
        "NN",
        "s"
      ],
      [
        "ĠC",
        "om"
      ],
      [
        "Ġl",
        "ay"
      ],
      [
        "ĠM",
        "od"
      ],
      [
        "i",
        "an"
      ],
      [
        "Ġb",
        "i"
      ],
      [
        "Ġrepresent",
        "ation"
      ],
      [
        "Ġde",
        "p"
      ],
      [
        "Ġpro",
        "per"
      ],
      [
        "ĠP",
        "ro"
      ],
      [
        "Ġm",
        "a"
      ],
      [
        "Ġl",
        "inear"
      ],
      [
        "Ġob",
        "tain"
      ],
      [
        "Ġmin",
        "im"
      ],
      [
        "Ġparamet",
        "ers"
      ],
      [
        "er",
        "tain"
      ],
      [
        "v",
        "ir"
      ],
      [
        "g",
        "y"
      ],
      [
        "p",
        "ir"
      ],
      [
        "in",
        "es"
      ],
      [
        "Ġv",
        "ia"
      ],
      [
        "u",
        "b"
      ],
      [
        "Ġclassi",
        "f"
      ],
      [
        "il",
        "ar"
      ],
      [
        "ie",
        "w"
      ],
      [
        "iz",
        "ing"
      ],
      [
        "Ġsever",
        "al"
      ],
      [
        "Ġh",
        "uman"
      ],
      [
        "Ġp",
        "at"
      ],
      [
        "ic",
        "ally"
      ],
      [
        "is",
        "h"
      ],
      [
        "d",
        "om"
      ],
      [
        "Ġav",
        "ail"
      ],
      [
        "Ġsy",
        "n"
      ],
      [
        "Ġdes",
        "c"
      ],
      [
        "o",
        "y"
      ],
      [
        "at",
        "ure"
      ],
      [
        "vir",
        "on"
      ],
      [
        "t",
        "ed"
      ],
      [
        "er",
        "i"
      ],
      [
        "or",
        "m"
      ],
      [
        "ten",
        "tion"
      ],
      [
        "Ġpro",
        "b"
      ],
      [
        "Ġt",
        "est"
      ],
      [
        "p",
        "on"
      ],
      [
        "Ġre",
        "duc"
      ],
      [
        "Ġm",
        "o"
      ],
      [
        "vi",
        "ous"
      ],
      [
        "e",
        "g"
      ],
      [
        "ch",
        "mark"
      ],
      [
        "w",
        "are"
      ],
      [
        "Ġt",
        "arget"
      ],
      [
        "Ġv",
        "alu"
      ],
      [
        "ĠO",
        "n"
      ],
      [
        "Ġthe",
        "y"
      ],
      [
        "Ġt",
        "erm"
      ],
      [
        "volution",
        "al"
      ],
      [
        "ur",
        "ing"
      ],
      [
        "Ġb",
        "as"
      ],
      [
        "verg",
        "ence"
      ],
      [
        "ch",
        "astic"
      ],
      [
        "ĠI",
        "m"
      ],
      [
        "Ġthe",
        "ore"
      ],
      [
        "Ġen",
        "c"
      ],
      [
        "angu",
        "age"
      ],
      [
        "Ġloc",
        "al"
      ],
      [
        "Ġran",
        "dom"
      ],
      [
        "Ġin",
        "ference"
      ],
      [
        "Ġpr",
        "ac"
      ],
      [
        "Ġoptim",
        "al"
      ],
      [
        "Ġg",
        "u"
      ],
      [
        "Ġ",
        "ra"
      ],
      [
        "Ġth",
        "ere"
      ],
      [
        "Ġintro",
        "duce"
      ],
      [
        "Ġc",
        "ost"
      ],
      [
        "i",
        "ties"
      ],
      [
        "Ġcomp",
        "ared"
      ],
      [
        "Ġvari",
        "ous"
      ],
      [
        "Ġs",
        "ome"
      ],
      [
        "Ġen",
        "viron"
      ],
      [
        "Ġsam",
        "ples"
      ],
      [
        "a",
        "vi"
      ],
      [
        "ti",
        "vely"
      ],
      [
        "ti",
        "g"
      ],
      [
        "Ġf",
        "act"
      ],
      [
        "ab",
        "les"
      ],
      [
        "l",
        "as"
      ],
      [
        "Ġfun",
        "ctions"
      ],
      [
        "imension",
        "al"
      ],
      [
        "Ġad",
        "v"
      ],
      [
        "Ġavail",
        "able"
      ],
      [
        "Ġben",
        "chmark"
      ],
      [
        "Ġadd",
        "ress"
      ],
      [
        "Ġbe",
        "h"
      ],
      [
        "Ġh",
        "e"
      ],
      [
        "ĠMod",
        "el"
      ],
      [
        "Ġrepresent",
        "ations"
      ],
      [
        "anc",
        "es"
      ],
      [
        "w",
        "ard"
      ],
      [
        "A",
        "N"
      ],
      [
        "v",
        "ari"
      ],
      [
        "an",
        "n"
      ],
      [
        "Ġde",
        "f"
      ],
      [
        "Ġdec",
        "ision"
      ],
      [
        "Ġs",
        "ing"
      ],
      [
        "j",
        "ect"
      ],
      [
        "ĠU",
        "n"
      ],
      [
        "Ġan",
        "y"
      ],
      [
        "Ġembed",
        "ding"
      ],
      [
        "Ġarchitect",
        "ure"
      ],
      [
        "Ġin",
        "st"
      ],
      [
        "Ġth",
        "en"
      ],
      [
        "rain",
        "ed"
      ],
      [
        "ow",
        "er"
      ],
      [
        "Ġap",
        "p"
      ],
      [
        "re",
        "l"
      ],
      [
        "ĠA",
        "l"
      ],
      [
        "Ġs",
        "em"
      ],
      [
        "Ġinter",
        "p"
      ],
      [
        "pl",
        "oy"
      ],
      [
        "ul",
        "d"
      ],
      [
        "pl",
        "ing"
      ],
      [
        "Ġstr",
        "ate"
      ],
      [
        "is",
        "m"
      ],
      [
        "Ġ",
        "j"
      ],
      [
        "Ġpartic",
        "ular"
      ],
      [
        "og",
        "ni"
      ],
      [
        "al",
        "s"
      ],
      [
        "Ġsim",
        "ilar"
      ],
      [
        "Ġsm",
        "all"
      ],
      [
        "Ġsp",
        "ar"
      ],
      [
        "el",
        "f"
      ],
      [
        "enc",
        "es"
      ],
      [
        "Ġof",
        "ten"
      ],
      [
        "Ġaut",
        "om"
      ],
      [
        "our",
        "ce"
      ],
      [
        "ay",
        "es"
      ],
      [
        "Ġm",
        "ay"
      ],
      [
        "Ġachie",
        "ve"
      ],
      [
        "ac",
        "tion"
      ],
      [
        "Ġsu",
        "c"
      ],
      [
        "Ġcomm",
        "un"
      ],
      [
        "w",
        "orld"
      ],
      [
        "Ġerr",
        "or"
      ],
      [
        "s",
        "p"
      ],
      [
        "Ġimport",
        "ant"
      ],
      [
        "o",
        "th"
      ],
      [
        "ĠW",
        "h"
      ],
      [
        "Ġb",
        "ec"
      ],
      [
        "ĠF",
        "or"
      ],
      [
        "Ġpre",
        "vious"
      ],
      [
        "Ġpolic",
        "y"
      ],
      [
        "Ġsing",
        "le"
      ],
      [
        "Ġ",
        "u"
      ],
      [
        "Ġs",
        "ur"
      ],
      [
        "Ġgi",
        "ven"
      ],
      [
        "r",
        "al"
      ],
      [
        "ern",
        "el"
      ],
      [
        "ff",
        "icient"
      ],
      [
        "Ġne",
        "ed"
      ],
      [
        "Ġbo",
        "und"
      ],
      [
        "Ġex",
        "tr"
      ],
      [
        "y",
        "s"
      ],
      [
        "on",
        "d"
      ],
      [
        "Ġo",
        "per"
      ],
      [
        "oc",
        "us"
      ],
      [
        "Ġm",
        "ain"
      ],
      [
        "Ġ",
        "Q"
      ],
      [
        "Ġcomb",
        "in"
      ],
      [
        "Ġf",
        "urther"
      ],
      [
        "Ġqu",
        "anti"
      ],
      [
        "ĠB",
        "ayes"
      ],
      [
        "Ġor",
        "der"
      ],
      [
        "Ġcomput",
        "ational"
      ],
      [
        "ar",
        "act"
      ],
      [
        "o",
        "int"
      ],
      [
        "ri",
        "x"
      ],
      [
        "Ġcomplex",
        "ity"
      ],
      [
        "Ġcomp",
        "ar"
      ],
      [
        "re",
        "at"
      ],
      [
        "Ġim",
        "ple"
      ],
      [
        "ab",
        "il"
      ],
      [
        "ent",
        "ly"
      ],
      [
        "Ġem",
        "pir"
      ],
      [
        "en",
        "e"
      ],
      [
        "Ġst",
        "and"
      ],
      [
        "Ġass",
        "um"
      ],
      [
        "Ġbeh",
        "avi"
      ],
      [
        "is",
        "ing"
      ],
      [
        "em",
        "por"
      ],
      [
        "v",
        "ic"
      ],
      [
        "Ġmeas",
        "ure"
      ],
      [
        "Ġu",
        "til"
      ],
      [
        "d",
        "e"
      ],
      [
        "Ġthe",
        "m"
      ],
      [
        "Ġd",
        "ue"
      ],
      [
        "Ġp",
        "os"
      ],
      [
        "ly",
        "ing"
      ],
      [
        "Ġsim",
        "ple"
      ],
      [
        "or",
        "d"
      ],
      [
        "Ġf",
        "ocus"
      ],
      [
        "Ġh",
        "y"
      ],
      [
        "ĠM",
        "ulti"
      ],
      [
        "lu",
        "ding"
      ],
      [
        "ik",
        "e"
      ],
      [
        "Ġsuc",
        "cess"
      ],
      [
        "u",
        "il"
      ],
      [
        "Ġreg",
        "ular"
      ],
      [
        "ep",
        "end"
      ],
      [
        "Ġsignificant",
        "ly"
      ],
      [
        "aract",
        "er"
      ],
      [
        "Ġs",
        "ch"
      ],
      [
        "is",
        "ual"
      ],
      [
        "ogni",
        "tion"
      ],
      [
        "Ġto",
        "p"
      ],
      [
        "Ġm",
        "em"
      ],
      [
        "Ġs",
        "o"
      ],
      [
        "v",
        "al"
      ],
      [
        "Ġst",
        "atis"
      ],
      [
        "s",
        "c"
      ],
      [
        "Ġinc",
        "luding"
      ],
      [
        "Ġsam",
        "ple"
      ],
      [
        "t",
        "e"
      ],
      [
        "Ġap",
        "pl"
      ],
      [
        "Ġth",
        "ree"
      ],
      [
        "e",
        "y"
      ],
      [
        "Ġcon",
        "f"
      ],
      [
        "Ġstand",
        "ard"
      ],
      [
        "ag",
        "n"
      ],
      [
        "od",
        "er"
      ],
      [
        "Ġp",
        "ower"
      ],
      [
        "Ġp",
        "op"
      ],
      [
        "Ġl",
        "anguage"
      ],
      [
        "t",
        "ure"
      ],
      [
        "Ġun",
        "c"
      ],
      [
        "Ġst",
        "o"
      ],
      [
        "Ġc",
        "all"
      ],
      [
        "Ġpri",
        "v"
      ],
      [
        "Ġst",
        "udi"
      ],
      [
        "Ġmet",
        "ric"
      ],
      [
        "ver",
        "age"
      ],
      [
        "Ġac",
        "ross"
      ],
      [
        "ul",
        "ation"
      ],
      [
        "Ġcon",
        "vergence"
      ],
      [
        "ĠA",
        "s"
      ],
      [
        "Ġme",
        "an"
      ],
      [
        "l",
        "ing"
      ],
      [
        "ve",
        "x"
      ],
      [
        "ĠI",
        "t"
      ],
      [
        "om",
        "m"
      ],
      [
        "Ġb",
        "est"
      ],
      [
        "Ġcomm",
        "on"
      ],
      [
        "Ġsto",
        "chastic"
      ],
      [
        "olog",
        "y"
      ],
      [
        "Ġspec",
        "ific"
      ],
      [
        "Ġinterp",
        "ret"
      ],
      [
        "si",
        "tion"
      ],
      [
        "Ġlat",
        "ent"
      ],
      [
        "si",
        "an"
      ],
      [
        "Ġsam",
        "e"
      ],
      [
        "pec",
        "ific"
      ],
      [
        "Ġch",
        "aracter"
      ],
      [
        "S",
        "T"
      ],
      [
        "Ġf",
        "ul"
      ],
      [
        "Ġ",
        "\""
      ],
      [
        "Ġre",
        "inforcement"
      ],
      [
        "Ġpro",
        "g"
      ],
      [
        "le",
        "ct"
      ],
      [
        "Ġcont",
        "ext"
      ],
      [
        "Ġoutperform",
        "s"
      ],
      [
        "empor",
        "al"
      ],
      [
        "ĠE",
        "n"
      ],
      [
        "si",
        "ble"
      ],
      [
        "Ġcont",
        "in"
      ],
      [
        "Ġfin",
        "d"
      ],
      [
        "Ġse",
        "arch"
      ],
      [
        "Ġe",
        "ven"
      ],
      [
        "Ġrequi",
        "re"
      ],
      [
        "Ġestim",
        "ation"
      ],
      [
        "a",
        "ir"
      ],
      [
        "Ġn",
        "at"
      ],
      [
        "ro",
        "p"
      ],
      [
        "0",
        "0"
      ],
      [
        "in",
        "al"
      ],
      [
        "ect",
        "ed"
      ],
      [
        "Ġp",
        "ot"
      ],
      [
        "d",
        "imensional"
      ],
      [
        "at",
        "a"
      ],
      [
        "Ġlearn",
        "ed"
      ],
      [
        "Ġt",
        "ext"
      ],
      [
        "Ġclust",
        "ering"
      ],
      [
        "Ġgeneral",
        "ization"
      ],
      [
        "Ġm",
        "ap"
      ],
      [
        "Ġh",
        "and"
      ],
      [
        "Ġst",
        "ep"
      ],
      [
        "ĠBayes",
        "ian"
      ],
      [
        "Ġb",
        "uil"
      ],
      [
        "Ġpri",
        "or"
      ],
      [
        "ti",
        "al"
      ],
      [
        "ven",
        "ess"
      ],
      [
        "Ġat",
        "tention"
      ],
      [
        "Ġno",
        "ise"
      ],
      [
        "ech",
        "an"
      ],
      [
        "Ġconst",
        "rain"
      ],
      [
        "iel",
        "d"
      ],
      [
        "ar",
        "ds"
      ],
      [
        "it",
        "er"
      ],
      [
        "Ġr",
        "ate"
      ],
      [
        "at",
        "ch"
      ],
      [
        "Ġcomput",
        "ation"
      ],
      [
        "Ġunder",
        "st"
      ],
      [
        "ag",
        "ing"
      ],
      [
        "Ġtrans",
        "fer"
      ],
      [
        "Ġmat",
        "rix"
      ],
      [
        "Ġen",
        "d"
      ],
      [
        "Ġeffec",
        "tive"
      ],
      [
        "Ġus",
        "er"
      ],
      [
        "Ġterm",
        "s"
      ],
      [
        "Ġb",
        "l"
      ],
      [
        "ĠO",
        "p"
      ],
      [
        "ĠG",
        "raph"
      ],
      [
        "Ġreg",
        "ression"
      ],
      [
        "n",
        "ot"
      ],
      [
        "ves",
        "tig"
      ],
      [
        "Ġre",
        "m"
      ],
      [
        "or",
        "t"
      ],
      [
        "Ġc",
        "aus"
      ],
      [
        "ĠT",
        "rans"
      ],
      [
        "ĠM",
        "L"
      ],
      [
        "ut",
        "ed"
      ],
      [
        "u",
        "ch"
      ],
      [
        "im",
        "in"
      ],
      [
        "ĠG",
        "ener"
      ],
      [
        "Ġsc",
        "al"
      ],
      [
        "ĠS",
        "t"
      ],
      [
        "Ġqu",
        "ality"
      ],
      [
        "Ġs",
        "ec"
      ],
      [
        "Ġsu",
        "p"
      ],
      [
        "ar",
        "ant"
      ],
      [
        "Ġin",
        "f"
      ],
      [
        "Ġc",
        "ase"
      ],
      [
        "Ġen",
        "s"
      ],
      [
        "A",
        "R"
      ],
      [
        "arant",
        "e"
      ],
      [
        "Ġchalleng",
        "ing"
      ],
      [
        "Ġk",
        "ernel"
      ],
      [
        "ĠF",
        "in"
      ],
      [
        "plic",
        "it"
      ],
      [
        "Ġappl",
        "ied"
      ],
      [
        "Ġtheore",
        "tical"
      ],
      [
        "Ġout",
        "put"
      ],
      [
        "Ġbas",
        "el"
      ],
      [
        "Ġevalu",
        "ate"
      ],
      [
        "Ġse",
        "g"
      ],
      [
        "Ġpredic",
        "t"
      ],
      [
        "ect",
        "or"
      ],
      [
        "et",
        "y"
      ],
      [
        "Ġc",
        "urrent"
      ],
      [
        "Ġevalu",
        "ation"
      ],
      [
        "Ġproper",
        "ties"
      ],
      [
        "Ġw",
        "ay"
      ],
      [
        "Ġon",
        "line"
      ],
      [
        "Ġin",
        "vestig"
      ],
      [
        "d",
        "uct"
      ],
      [
        "ici",
        "ency"
      ],
      [
        "od",
        "es"
      ],
      [
        "Ġs",
        "olution"
      ],
      [
        "par",
        "amet"
      ],
      [
        "al",
        "id"
      ],
      [
        "l",
        "ic"
      ],
      [
        "an",
        "tic"
      ],
      [
        "Ġsc",
        "en"
      ],
      [
        "Ġm",
        "echan"
      ],
      [
        "Ġd",
        "imension"
      ],
      [
        "Ġachie",
        "ves"
      ],
      [
        "Ġobser",
        "v"
      ],
      [
        "Ġd",
        "eri"
      ],
      [
        "u",
        "ous"
      ],
      [
        "ver",
        "se"
      ],
      [
        "ĠF",
        "urther"
      ],
      [
        "o",
        "ugh"
      ],
      [
        "ĠM",
        "ore"
      ],
      [
        "aus",
        "sian"
      ],
      [
        "u",
        "ally"
      ],
      [
        "at",
        "ely"
      ],
      [
        "Ġdi",
        "rect"
      ],
      [
        "o",
        "und"
      ],
      [
        "si",
        "g"
      ],
      [
        "l",
        "ob"
      ],
      [
        "Ġgu",
        "arante"
      ],
      [
        "Ġexam",
        "ples"
      ],
      [
        "ĠEx",
        "perim"
      ],
      [
        "iz",
        "es"
      ],
      [
        "l",
        "inear"
      ],
      [
        "Ġfe",
        "w"
      ],
      [
        "til",
        "l"
      ],
      [
        "Ġidenti",
        "fy"
      ],
      [
        "Ġma",
        "xim"
      ],
      [
        "Ġpro",
        "m"
      ],
      [
        "re",
        "g"
      ],
      [
        "Ġv",
        "isual"
      ],
      [
        "ti",
        "veness"
      ],
      [
        "ol",
        "d"
      ],
      [
        "Ġv",
        "alid"
      ],
      [
        "f",
        "ore"
      ],
      [
        "rain",
        "ing"
      ],
      [
        "Ġle",
        "vel"
      ],
      [
        "on",
        "e"
      ],
      [
        "Ġc",
        "r"
      ],
      [
        "Ġmodel",
        "ing"
      ],
      [
        "Ġanaly",
        "z"
      ],
      [
        "Ġprovid",
        "es"
      ],
      [
        "Ġallow",
        "s"
      ],
      [
        "Ġparamet",
        "er"
      ],
      [
        "un",
        "ing"
      ],
      [
        "an",
        "ding"
      ],
      [
        "Ġsch",
        "em"
      ],
      [
        "Ġunc",
        "ertain"
      ],
      [
        "i",
        "ers"
      ],
      [
        "Ġintro",
        "duc"
      ],
      [
        "Ġim",
        "p"
      ],
      [
        "Ġex",
        "per"
      ],
      [
        "Ġexpl",
        "o"
      ],
      [
        "a",
        "x"
      ],
      [
        "Ġis",
        "su"
      ],
      [
        "e",
        "ar"
      ],
      [
        "Ġcon",
        "volutional"
      ],
      [
        "es",
        "e"
      ],
      [
        "Ġrobust",
        "ness"
      ],
      [
        "Ġcon",
        "str"
      ],
      [
        "l",
        "ish"
      ],
      [
        "Ġt",
        "ak"
      ],
      [
        "Ġle",
        "a"
      ],
      [
        "Ġtechniqu",
        "e"
      ],
      [
        "Ġk",
        "ey"
      ],
      [
        "Ġgener",
        "ative"
      ],
      [
        "in",
        "ts"
      ],
      [
        "Ġs",
        "ize"
      ],
      [
        "t",
        "ur"
      ],
      [
        "Ġcon",
        "c"
      ],
      [
        "Ġknow",
        "n"
      ],
      [
        "ĠA",
        "ut"
      ],
      [
        "us",
        "ion"
      ],
      [
        "Ġeffec",
        "tiveness"
      ],
      [
        "Ġ2",
        "0"
      ],
      [
        "un",
        "ds"
      ],
      [
        "Ġl",
        "ong"
      ],
      [
        "Ġm",
        "ed"
      ],
      [
        "ĠR",
        "L"
      ],
      [
        "as",
        "ing"
      ],
      [
        "Ġper",
        "s"
      ],
      [
        "Ġver",
        "y"
      ],
      [
        "c",
        "ed"
      ],
      [
        "the",
        "tic"
      ],
      [
        "ĠG",
        "aussian"
      ],
      [
        "ul",
        "t"
      ],
      [
        "Ġresul",
        "t"
      ],
      [
        "Ġa",
        "im"
      ],
      [
        "Ġeff",
        "iciency"
      ],
      [
        "Ġmem",
        "ory"
      ],
      [
        "ens",
        "or"
      ],
      [
        "Ġd",
        "uring"
      ],
      [
        "le",
        "vel"
      ],
      [
        "uc",
        "tion"
      ],
      [
        "ic",
        "s"
      ],
      [
        "Ġrec",
        "ognition"
      ],
      [
        "Ġmechan",
        "ism"
      ],
      [
        "Ġscen",
        "ari"
      ],
      [
        "n",
        "er"
      ],
      [
        "Ġextr",
        "act"
      ],
      [
        "er",
        "ated"
      ],
      [
        "Ġlabel",
        "s"
      ],
      [
        "at",
        "ors"
      ],
      [
        "Ġshow",
        "n"
      ],
      [
        "Ġarchitect",
        "ures"
      ],
      [
        "p",
        "ing"
      ],
      [
        "Ġto",
        "ol"
      ],
      [
        "Ġsam",
        "pling"
      ],
      [
        "e",
        "ad"
      ],
      [
        "Ġattack",
        "s"
      ],
      [
        "Ġpo",
        "int"
      ],
      [
        "Ġab",
        "le"
      ],
      [
        "c",
        "es"
      ],
      [
        "tim",
        "e"
      ],
      [
        "ĠD",
        "ata"
      ],
      [
        "Ġnat",
        "ural"
      ],
      [
        "ĠFin",
        "ally"
      ],
      [
        "r",
        "id"
      ],
      [
        "lob",
        "al"
      ],
      [
        "ĠS",
        "p"
      ],
      [
        "oun",
        "t"
      ],
      [
        "re",
        "am"
      ],
      [
        "ĠM",
        "achine"
      ],
      [
        "v",
        "iew"
      ],
      [
        "ĠA",
        "p"
      ],
      [
        "Ġspar",
        "se"
      ],
      [
        "en",
        "sive"
      ],
      [
        "Ġn",
        "orm"
      ],
      [
        "Ġw",
        "as"
      ],
      [
        "Ġit",
        "er"
      ],
      [
        "Ġf",
        "ore"
      ],
      [
        "o",
        "v"
      ],
      [
        "Ġsele",
        "ction"
      ],
      [
        "Ġcon",
        "n"
      ],
      [
        "ĠR",
        "es"
      ],
      [
        "Ġw",
        "id"
      ],
      [
        "Ġab",
        "out"
      ],
      [
        "k",
        "ing"
      ],
      [
        "ain",
        "st"
      ],
      [
        "Ġin",
        "di"
      ],
      [
        "ĠU",
        "sing"
      ],
      [
        "Ġdistrib",
        "utions"
      ],
      [
        "Ġpat",
        "tern"
      ],
      [
        "Ġlimit",
        "ed"
      ],
      [
        "ac",
        "es"
      ],
      [
        "Ġobjec",
        "tive"
      ],
      [
        "is",
        "k"
      ],
      [
        "Ġpop",
        "ular"
      ],
      [
        "Ġdep",
        "end"
      ],
      [
        "epend",
        "ent"
      ],
      [
        "Ġg",
        "o"
      ],
      [
        "Ġpriv",
        "acy"
      ],
      [
        "Ġenviron",
        "ment"
      ],
      [
        "m",
        "m"
      ],
      [
        "es",
        "ting"
      ],
      [
        "ĠA",
        "t"
      ],
      [
        "Ġe",
        "qu"
      ],
      [
        "Ġhy",
        "per"
      ],
      [
        "ĠTh",
        "ese"
      ],
      [
        "Ġint",
        "eg"
      ],
      [
        "Ġstr",
        "ong"
      ],
      [
        "k",
        "now"
      ],
      [
        "Ġcomp",
        "on"
      ],
      [
        "Ġun",
        "i"
      ],
      [
        "sc",
        "ale"
      ],
      [
        "Ġcommun",
        "ic"
      ],
      [
        "Ġcall",
        "ed"
      ],
      [
        "Ġpot",
        "ential"
      ],
      [
        "Ġclassif",
        "ier"
      ],
      [
        "Ġcons",
        "ist"
      ],
      [
        "l",
        "o"
      ],
      [
        "Ġrel",
        "ations"
      ],
      [
        "Ġph",
        "ys"
      ],
      [
        "Ġtrans",
        "form"
      ],
      [
        "Ġdiff",
        "ic"
      ],
      [
        "Ġapplic",
        "ation"
      ],
      [
        "om",
        "et"
      ],
      [
        "i",
        "ly"
      ],
      [
        "]",
        "-"
      ],
      [
        "Ġsem",
        "antic"
      ],
      [
        "c",
        "c"
      ],
      [
        "Ġset",
        "s"
      ],
      [
        "en",
        "si"
      ],
      [
        "Ġdynamic",
        "s"
      ],
      [
        "Ġl",
        "og"
      ],
      [
        "i",
        "ble"
      ],
      [
        "in",
        "ed"
      ],
      [
        "Ġag",
        "ainst"
      ],
      [
        "Ġbehavi",
        "or"
      ],
      [
        "Ġautom",
        "atic"
      ],
      [
        "Ġp",
        "res"
      ],
      [
        "en",
        "se"
      ],
      [
        "Ġpredic",
        "tions"
      ],
      [
        "Ġser",
        "ies"
      ],
      [
        "Ġbo",
        "unds"
      ],
      [
        "Ġmak",
        "e"
      ],
      [
        "oc",
        "k"
      ],
      [
        "Ġw",
        "ill"
      ],
      [
        "Ġsyn",
        "thetic"
      ],
      [
        "know",
        "n"
      ],
      [
        "ain",
        "s"
      ],
      [
        "Ġindi",
        "vid"
      ],
      [
        "Ġnum",
        "er"
      ],
      [
        "Ġof",
        "f"
      ],
      [
        "Ġs",
        "ource"
      ],
      [
        "Ġstudi",
        "es"
      ],
      [
        "in",
        "c"
      ],
      [
        "Ġre",
        "le"
      ],
      [
        "tiv",
        "ity"
      ],
      [
        "v",
        "ol"
      ],
      [
        "Ġsu",
        "per"
      ],
      [
        "p",
        "tion"
      ],
      [
        "Ġh",
        "ard"
      ],
      [
        "or",
        "ing"
      ],
      [
        "Ġh",
        "el"
      ],
      [
        "in",
        "d"
      ],
      [
        "las",
        "si"
      ],
      [
        "Ġus",
        "ers"
      ],
      [
        "g",
        "g"
      ],
      [
        "Ġlow",
        "er"
      ],
      [
        "p",
        "o"
      ],
      [
        "ĠD",
        "i"
      ],
      [
        "i",
        "red"
      ],
      [
        "Ġs",
        "elf"
      ],
      [
        "Ġlay",
        "er"
      ],
      [
        "ab",
        "ly"
      ],
      [
        "Ġb",
        "ack"
      ],
      [
        "cep",
        "t"
      ],
      [
        "Ġwith",
        "in"
      ],
      [
        "Ġempir",
        "ical"
      ],
      [
        "Ġrec",
        "omm"
      ],
      [
        "oc",
        "i"
      ],
      [
        "Ġp",
        "ub"
      ],
      [
        "Ġdomain",
        "s"
      ],
      [
        "m",
        "ore"
      ],
      [
        "tic",
        "ally"
      ],
      [
        "Ġgraph",
        "s"
      ],
      [
        "Ġpos",
        "sible"
      ],
      [
        "Ġg",
        "lobal"
      ],
      [
        "Ġsp",
        "ati"
      ],
      [
        "Ġcontin",
        "uous"
      ],
      [
        "h",
        "ip"
      ],
      [
        "Ġgener",
        "ate"
      ],
      [
        "E",
        "R"
      ],
      [
        "ĠOp",
        "tim"
      ],
      [
        "Ġexperim",
        "ental"
      ],
      [
        "Ġchalleng",
        "es"
      ],
      [
        "w",
        "ise"
      ],
      [
        "Ġimple",
        "ment"
      ],
      [
        "Ġdet",
        "ect"
      ],
      [
        "igh",
        "ts"
      ],
      [
        "ff",
        "er"
      ],
      [
        "Ġuncertain",
        "ty"
      ],
      [
        "Ġdet",
        "erm"
      ],
      [
        "Ġapproxim",
        "ation"
      ],
      [
        "Ġsetting",
        "s"
      ],
      [
        "Ġgener",
        "ated"
      ],
      [
        "Ġaccur",
        "ate"
      ],
      [
        "Ġqu",
        "es"
      ],
      [
        "Ġsu",
        "pervised"
      ],
      [
        "Ġpro",
        "duc"
      ],
      [
        "if",
        "ied"
      ],
      [
        "ĠMore",
        "over"
      ],
      [
        "o",
        "uld"
      ],
      [
        "Ġvari",
        "ables"
      ],
      [
        "s",
        "h"
      ],
      [
        "Ġ",
        "ed"
      ],
      [
        "od",
        "ing"
      ],
      [
        "Ġad",
        "dition"
      ],
      [
        "a",
        "v"
      ],
      [
        "as",
        "on"
      ],
      [
        "Ġm",
        "is"
      ],
      [
        "Ġindivid",
        "ual"
      ],
      [
        "Ġag",
        "ent"
      ],
      [
        "Ġcont",
        "r"
      ],
      [
        "vic",
        "es"
      ],
      [
        "Ġstatis",
        "tical"
      ],
      [
        "Ġstrate",
        "gy"
      ],
      [
        "Ġgro",
        "up"
      ],
      [
        "l",
        "ud"
      ],
      [
        "u",
        "le"
      ],
      [
        "res",
        "pon"
      ],
      [
        "Ġinc",
        "or"
      ],
      [
        "Ġc",
        "ode"
      ],
      [
        "di",
        "tions"
      ],
      [
        "ier",
        "arch"
      ],
      [
        "Ġprob",
        "ability"
      ],
      [
        "w",
        "ards"
      ],
      [
        "ĠFurther",
        "more"
      ],
      [
        "Ġor",
        "ig"
      ],
      [
        "Ġadap",
        "t"
      ],
      [
        "le",
        "c"
      ],
      [
        "rib",
        "ut"
      ],
      [
        "e",
        "ti"
      ],
      [
        "e",
        "f"
      ],
      [
        "is",
        "on"
      ],
      [
        "Ġseg",
        "mentation"
      ],
      [
        "Ġem",
        "ploy"
      ],
      [
        "Ġchallen",
        "ge"
      ],
      [
        "ĠC",
        "h"
      ],
      [
        "Ġprocess",
        "ing"
      ],
      [
        "r",
        "imin"
      ],
      [
        "Ġvalu",
        "e"
      ],
      [
        "ix",
        "ed"
      ],
      [
        "ut",
        "ure"
      ],
      [
        "el",
        "i"
      ],
      [
        "Ġpo",
        "ints"
      ],
      [
        "Ġlay",
        "ers"
      ],
      [
        "Ġup",
        "d"
      ],
      [
        "Ġspe",
        "ech"
      ],
      [
        "Ġrec",
        "onstr"
      ],
      [
        "Ġun",
        "supervised"
      ],
      [
        "Ġp",
        "ost"
      ],
      [
        "Ġsequ",
        "ence"
      ],
      [
        "Ġgener",
        "ation"
      ],
      [
        "ep",
        "ar"
      ],
      [
        "I",
        "D"
      ],
      [
        "Ġab",
        "ility"
      ],
      [
        "ĠM",
        "et"
      ],
      [
        "et",
        "s"
      ],
      [
        "Ġag",
        "ents"
      ],
      [
        "ed",
        "erated"
      ],
      [
        "Ġin",
        "i"
      ],
      [
        "Ġr",
        "isk"
      ],
      [
        "Ġcor",
        "rel"
      ],
      [
        "Ġam",
        "ong"
      ],
      [
        "r",
        "on"
      ],
      [
        "Ġj",
        "oint"
      ],
      [
        "]",
        ","
      ],
      [
        "ĠWh",
        "ile"
      ],
      [
        "Ġth",
        "us"
      ],
      [
        "Ġg",
        "e"
      ],
      [
        "h",
        "ood"
      ],
      [
        "i",
        "ally"
      ],
      [
        "Ġcon",
        "ditions"
      ],
      [
        "an",
        "e"
      ],
      [
        "ĠC",
        "NN"
      ],
      [
        "o",
        "oth"
      ],
      [
        "Ġcor",
        "respon"
      ],
      [
        "Ġincre",
        "asing"
      ],
      [
        "in",
        "ary"
      ],
      [
        "ĠRe",
        "inforcement"
      ],
      [
        "Ġus",
        "es"
      ],
      [
        "Ġexpl",
        "ore"
      ],
      [
        "ĠG",
        "AN"
      ],
      [
        "Ġobj",
        "ect"
      ],
      [
        "Ġhel",
        "p"
      ],
      [
        "r",
        "y"
      ],
      [
        "Ġv",
        "ide"
      ],
      [
        "il",
        "ter"
      ],
      [
        "Ġsol",
        "ve"
      ],
      [
        "Ġc",
        "ases"
      ],
      [
        "Ġa",
        "ug"
      ],
      [
        "Ġsol",
        "utions"
      ],
      [
        "fic",
        "ial"
      ],
      [
        "Ġf",
        "uture"
      ],
      [
        "Ġdisc",
        "us"
      ],
      [
        "c",
        "om"
      ],
      [
        "Ġw",
        "ere"
      ],
      [
        "Ġn",
        "am"
      ],
      [
        "Ġco",
        "un"
      ],
      [
        "ĠE",
        "m"
      ],
      [
        "Ġd",
        "ri"
      ],
      [
        "l",
        "abel"
      ],
      [
        "Ġhigh",
        "er"
      ],
      [
        "Ġinteg",
        "r"
      ],
      [
        "Ġc",
        "re"
      ],
      [
        "Ġch",
        "o"
      ],
      [
        "tic",
        "s"
      ],
      [
        "Ġdo",
        "es"
      ],
      [
        "Ġclass",
        "es"
      ],
      [
        "ĠD",
        "et"
      ],
      [
        "Ġe",
        "as"
      ],
      [
        "Ġ",
        "if"
      ],
      [
        "or",
        "ation"
      ],
      [
        "Ġdistrib",
        "uted"
      ],
      [
        "Ġrequi",
        "res"
      ],
      [
        "Ġ",
        "0"
      ],
      [
        "olog",
        "ical"
      ],
      [
        "Ġprac",
        "tical"
      ],
      [
        "em",
        "ble"
      ],
      [
        "Ġspe",
        "ed"
      ],
      [
        "Ġre",
        "duce"
      ],
      [
        "Ġpro",
        "ve"
      ],
      [
        "Ġconstrain",
        "ts"
      ],
      [
        "anc",
        "ed"
      ],
      [
        "Ġadv",
        "ant"
      ],
      [
        "i",
        "ve"
      ],
      [
        "og",
        "ene"
      ],
      [
        "Ġcap",
        "ture"
      ],
      [
        "Ġachie",
        "ved"
      ],
      [
        "]",
        "."
      ],
      [
        "rib",
        "ution"
      ],
      [
        "Ġwork",
        "s"
      ],
      [
        "agn",
        "os"
      ],
      [
        "Ġf",
        "as"
      ],
      [
        "enti",
        "ally"
      ],
      [
        "Ġprob",
        "abil"
      ],
      [
        "ib",
        "r"
      ],
      [
        "Ġ",
        "ener"
      ],
      [
        "Ġmat",
        "ch"
      ],
      [
        "Ġobtain",
        "ed"
      ],
      [
        "Ġex",
        "t"
      ],
      [
        "Ġincor",
        "por"
      ],
      [
        "ĠP",
        "redic"
      ],
      [
        "of",
        "t"
      ],
      [
        "Ġthe",
        "ory"
      ],
      [
        "Ġ",
        "et"
      ],
      [
        "ol",
        "low"
      ],
      [
        "ul",
        "es"
      ],
      [
        "Ġcommunic",
        "ation"
      ],
      [
        "Ġ",
        "-"
      ],
      [
        "Ġf",
        "air"
      ],
      [
        "Ġexplo",
        "it"
      ],
      [
        "ĠD",
        "es"
      ],
      [
        "Ġwe",
        "ight"
      ],
      [
        "Ġdesc",
        "rib"
      ],
      [
        "Ġran",
        "ge"
      ],
      [
        "Ġg",
        "am"
      ],
      [
        "Ġsup",
        "port"
      ],
      [
        "et",
        "er"
      ],
      [
        "al",
        "th"
      ],
      [
        "Ġm",
        "uch"
      ],
      [
        "Ġunder",
        "lying"
      ],
      [
        "our",
        "ces"
      ],
      [
        "Ġsign",
        "al"
      ],
      [
        "Ġen",
        "ti"
      ],
      [
        "b",
        "o"
      ],
      [
        "Ġwe",
        "ights"
      ],
      [
        "Ġt",
        "emporal"
      ],
      [
        "c",
        "as"
      ],
      [
        "ĠCon",
        "t"
      ],
      [
        "a",
        "f"
      ],
      [
        "Ġpub",
        "lic"
      ],
      [
        "ĠAd",
        "versarial"
      ],
      [
        "Ġ",
        "9"
      ],
      [
        "Ġcomp",
        "eti"
      ],
      [
        "Ġtyp",
        "es"
      ],
      [
        "ic",
        "e"
      ],
      [
        "Ġf",
        "ield"
      ],
      [
        "Ġener",
        "gy"
      ],
      [
        "b",
        "ack"
      ],
      [
        "Ġop",
        "en"
      ],
      [
        "Ġpa",
        "ir"
      ],
      [
        "le",
        "arning"
      ],
      [
        "ous",
        "ly"
      ],
      [
        "ĠA",
        "I"
      ],
      [
        "ati",
        "vely"
      ],
      [
        "Ġdirect",
        "ly"
      ],
      [
        "tion",
        "al"
      ],
      [
        "Ġsp",
        "ect"
      ],
      [
        "ay",
        "s"
      ],
      [
        "Ġsu",
        "gg"
      ],
      [
        "t",
        "rained"
      ],
      [
        "Ġimpro",
        "ves"
      ],
      [
        "iel",
        "ds"
      ],
      [
        "v",
        "ant"
      ],
      [
        "Ġpro",
        "ced"
      ],
      [
        "Ġprog",
        "ram"
      ],
      [
        "in",
        "k"
      ],
      [
        "Ġn",
        "ode"
      ],
      [
        "ĠC",
        "lassi"
      ],
      [
        "Ġimpro",
        "ved"
      ],
      [
        "Ġth",
        "ose"
      ],
      [
        "ab",
        "lish"
      ],
      [
        "ĠW",
        "ith"
      ],
      [
        "ĠB",
        "y"
      ],
      [
        "Ġprac",
        "ti"
      ],
      [
        "Ġrecent",
        "ly"
      ],
      [
        "Ġal",
        "tern"
      ],
      [
        "ad",
        "e"
      ],
      [
        "Ġhigh",
        "ly"
      ],
      [
        "Ġpredic",
        "tive"
      ],
      [
        "Ġefficient",
        "ly"
      ],
      [
        "Ġclassif",
        "iers"
      ],
      [
        "Ġdisc",
        "over"
      ],
      [
        "Ġinter",
        "est"
      ],
      [
        "i",
        "ence"
      ],
      [
        "est",
        "ablish"
      ],
      [
        "Ġcon",
        "vex"
      ],
      [
        "Ġg",
        "ood"
      ],
      [
        "ell",
        "ig"
      ],
      [
        "Ġini",
        "tial"
      ],
      [
        "ant",
        "um"
      ],
      [
        "Ġbe",
        "ing"
      ],
      [
        "p",
        "ect"
      ],
      [
        "Ġs",
        "till"
      ],
      [
        "Ġpa",
        "ti"
      ],
      [
        "Ġcon",
        "duct"
      ],
      [
        "j",
        "ec"
      ],
      [
        "Ġtra",
        "ditional"
      ],
      [
        "Ġs",
        "epar"
      ],
      [
        "Ġdevelop",
        "ed"
      ],
      [
        "1",
        "9"
      ],
      [
        "Ġfin",
        "ding"
      ],
      [
        "re",
        "qu"
      ],
      [
        "Ġper",
        "tur"
      ],
      [
        "ow",
        "n"
      ],
      [
        "Ġc",
        "ri"
      ],
      [
        "on",
        "al"
      ],
      [
        "Ġv",
        "iew"
      ],
      [
        "Ġdisc",
        "rimin"
      ],
      [
        "Ġorig",
        "inal"
      ],
      [
        "in",
        "ce"
      ],
      [
        "Ġqu",
        "er"
      ],
      [
        "ent",
        "ral"
      ],
      [
        "if",
        "y"
      ],
      [
        "Ġn",
        "odes"
      ],
      [
        "Ġreg",
        "ret"
      ],
      [
        "ĠS",
        "pecific"
      ],
      [
        "G",
        "D"
      ],
      [
        "Ġscenari",
        "os"
      ],
      [
        "Ġapp",
        "ly"
      ],
      [
        "ion",
        "s"
      ],
      [
        "g",
        "ies"
      ],
      [
        "em",
        "ent"
      ],
      [
        "d",
        "en"
      ],
      [
        "Ġre",
        "ason"
      ],
      [
        "Ġschem",
        "e"
      ],
      [
        "Ġno",
        "is"
      ],
      [
        "ĠG",
        "P"
      ],
      [
        "Ġr",
        "un"
      ],
      [
        "Ġass",
        "oci"
      ],
      [
        "ann",
        "el"
      ],
      [
        "Ġl",
        "ike"
      ],
      [
        "Ġco",
        "uld"
      ],
      [
        "Ġuse",
        "ful"
      ],
      [
        "Ġc",
        "al"
      ],
      [
        "i",
        "or"
      ],
      [
        "Ġbi",
        "as"
      ],
      [
        "Ġvalu",
        "es"
      ],
      [
        "Ġpattern",
        "s"
      ],
      [
        "Ġvari",
        "ety"
      ],
      [
        "Ġm",
        "on"
      ],
      [
        "Ġv",
        "ector"
      ],
      [
        "Ġmak",
        "ing"
      ],
      [
        "Ġsuccess",
        "ful"
      ],
      [
        "Ġg",
        "reat"
      ],
      [
        "Ġimprove",
        "ment"
      ],
      [
        "Ġwid",
        "ely"
      ],
      [
        "Ġ",
        "ide"
      ],
      [
        "Ġl",
        "ess"
      ],
      [
        "Ġre",
        "ward"
      ],
      [
        "Ġdist",
        "ance"
      ],
      [
        "Ġful",
        "ly"
      ],
      [
        "Ġenviron",
        "ments"
      ],
      [
        "ear",
        "s"
      ],
      [
        "A",
        "E"
      ],
      [
        "Ġembedding",
        "s"
      ],
      [
        "Ġch",
        "ang"
      ],
      [
        "Ġgo",
        "al"
      ],
      [
        "Ġ",
        "establish"
      ],
      [
        "Ġregular",
        "ization"
      ],
      [
        "ĠSpecific",
        "ally"
      ],
      [
        "ĠC",
        "O"
      ],
      [
        "as",
        "s"
      ],
      [
        "igh",
        "b"
      ],
      [
        "o",
        "enc"
      ],
      [
        "Ġcomp",
        "are"
      ],
      [
        "Ġfe",
        "ed"
      ],
      [
        "d",
        "ed"
      ],
      [
        "Ġin",
        "vol"
      ],
      [
        "Ġl",
        "iter"
      ],
      [
        "Ġunderst",
        "anding"
      ],
      [
        "Ġexam",
        "ple"
      ],
      [
        "Ġfact",
        "or"
      ],
      [
        "an",
        "ts"
      ],
      [
        "an",
        "ge"
      ],
      [
        "ĠIm",
        "age"
      ],
      [
        "g",
        "ing"
      ],
      [
        "y",
        "m"
      ],
      [
        "ĠF",
        "e"
      ],
      [
        "Ġestim",
        "ate"
      ],
      [
        "b",
        "it"
      ],
      [
        "Ġresul",
        "ting"
      ],
      [
        "Ġpre",
        "c"
      ],
      [
        "Ġimp",
        "act"
      ],
      [
        "Ġan",
        "not"
      ],
      [
        "Ġbasel",
        "ine"
      ],
      [
        "Ġf",
        "low"
      ],
      [
        "Ġshow",
        "s"
      ],
      [
        "Ġrel",
        "ated"
      ],
      [
        "Ġde",
        "ploy"
      ],
      [
        "Ġinvestig",
        "ate"
      ],
      [
        "las",
        "s"
      ],
      [
        "Ġ",
        "5"
      ],
      [
        "aus",
        "e"
      ],
      [
        "ate",
        "gor"
      ],
      [
        "Ġf",
        "ollow"
      ],
      [
        "Ġrecomm",
        "end"
      ],
      [
        "Ġde",
        "g"
      ],
      [
        "Ġmetric",
        "s"
      ],
      [
        "Ġanalyz",
        "e"
      ],
      [
        "sig",
        "h"
      ],
      [
        "Ġw",
        "or"
      ],
      [
        "Ġc",
        "ross"
      ],
      [
        "ith",
        "er"
      ],
      [
        "Ġex",
        "plicit"
      ],
      [
        "Ġinter",
        "ac"
      ],
      [
        "Ġ",
        "ill"
      ],
      [
        "o",
        "id"
      ],
      [
        "Ġliter",
        "ature"
      ],
      [
        "ierarch",
        "ical"
      ],
      [
        "Ġf",
        "ail"
      ],
      [
        "Ġind",
        "ic"
      ],
      [
        "o",
        "ff"
      ],
      [
        "Ġacc",
        "el"
      ],
      [
        "Ġdiscus",
        "s"
      ],
      [
        "al",
        "le"
      ],
      [
        "Ġen",
        "h"
      ],
      [
        "Ġpro",
        "t"
      ],
      [
        "Ġag",
        "g"
      ],
      [
        "on",
        "om"
      ],
      [
        "es",
        "is"
      ],
      [
        "Ġlar",
        "g"
      ],
      [
        "oc",
        "ial"
      ],
      [
        "Ġsc",
        "ale"
      ],
      [
        "Ġf",
        "ilter"
      ],
      [
        "Ġf",
        "ac"
      ],
      [
        "Ġsub",
        "s"
      ],
      [
        "ens",
        "ity"
      ],
      [
        "Ġdesc",
        "ent"
      ],
      [
        "Ġ",
        "ent"
      ],
      [
        "ri",
        "ven"
      ],
      [
        "Ġ",
        "4"
      ],
      [
        "ĠTh",
        "ere"
      ],
      [
        "ĠModel",
        "s"
      ],
      [
        "C",
        "A"
      ],
      [
        "Ġdesign",
        "ed"
      ],
      [
        "pec",
        "ially"
      ],
      [
        "ti",
        "ficial"
      ],
      [
        "Ġb",
        "and"
      ],
      [
        "ret",
        "e"
      ],
      [
        "p",
        "ag"
      ],
      [
        "v",
        "alu"
      ],
      [
        "ff",
        "ic"
      ],
      [
        "Ġsec",
        "ond"
      ],
      [
        "le",
        "x"
      ],
      [
        "Ġben",
        "ef"
      ],
      [
        "Ġle",
        "ver"
      ],
      [
        "Ġa",
        "verage"
      ],
      [
        "ay",
        "er"
      ],
      [
        "eter",
        "ogene"
      ],
      [
        "ar",
        "ly"
      ],
      [
        "Ġlearn",
        "s"
      ],
      [
        "Ġde",
        "vices"
      ],
      [
        "res",
        "sive"
      ],
      [
        "Ġguarante",
        "es"
      ],
      [
        "j",
        "or"
      ],
      [
        "Ġre",
        "t"
      ],
      [
        "od",
        "al"
      ],
      [
        "Ġen",
        "ables"
      ],
      [
        "an",
        "s"
      ],
      [
        "Ġpertur",
        "b"
      ],
      [
        "alle",
        "l"
      ],
      [
        "Ġapproxim",
        "ate"
      ],
      [
        "Ġf",
        "ast"
      ],
      [
        "ĠRe",
        "g"
      ],
      [
        "ĠD",
        "is"
      ],
      [
        "Ġstrate",
        "gies"
      ],
      [
        "Ġpolic",
        "ies"
      ],
      [
        "Ġf",
        "ound"
      ],
      [
        "pl",
        "ed"
      ],
      [
        "Ġrelations",
        "hip"
      ],
      [
        "Ġsuper",
        "ior"
      ],
      [
        "re",
        "ction"
      ],
      [
        "se",
        "qu"
      ],
      [
        "Ġexpl",
        "an"
      ],
      [
        "Ġw",
        "ide"
      ],
      [
        "Ġexpl",
        "ain"
      ],
      [
        "Ġobser",
        "ved"
      ],
      [
        "ar",
        "g"
      ],
      [
        "ĠM",
        "ark"
      ],
      [
        "Ġinc",
        "lud"
      ],
      [
        "Ġpr",
        "inc"
      ],
      [
        "Ġsh",
        "ort"
      ],
      [
        "ĠCon",
        "volutional"
      ],
      [
        "Ġadap",
        "tive"
      ],
      [
        "Ġprom",
        "ising"
      ],
      [
        "Ġreduc",
        "tion"
      ],
      [
        "Ġnumer",
        "ical"
      ],
      [
        "istic",
        "s"
      ],
      [
        "Ġf",
        "ine"
      ],
      [
        "ĠTrans",
        "form"
      ],
      [
        "Ġdiffic",
        "ult"
      ],
      [
        "Ġa",
        "ff"
      ],
      [
        "Ġsign",
        "als"
      ],
      [
        "f",
        "act"
      ],
      [
        "Ġl",
        "ik"
      ],
      [
        "Ġnorm",
        "al"
      ],
      [
        "D",
        "P"
      ],
      [
        "A",
        "S"
      ],
      [
        "Ġma",
        "jor"
      ],
      [
        "Ġform",
        "ul"
      ],
      [
        "Ġt",
        "im"
      ],
      [
        "ĠD",
        "NN"
      ],
      [
        "Ġsimilar",
        "ity"
      ],
      [
        "g",
        "th"
      ],
      [
        "Ġun",
        "known"
      ],
      [
        "Ġad",
        "ditional"
      ],
      [
        "Ġs",
        "oft"
      ],
      [
        "Ġes",
        "pecially"
      ],
      [
        "Ġnois",
        "y"
      ],
      [
        "p",
        "tions"
      ],
      [
        "m",
        "ed"
      ],
      [
        "Ġspati",
        "al"
      ],
      [
        "ĠA",
        "r"
      ],
      [
        "Ġpat",
        "h"
      ],
      [
        "Ġc",
        "ategor"
      ],
      [
        "R",
        "L"
      ],
      [
        "or",
        "der"
      ],
      [
        "Ġmet",
        "a"
      ],
      [
        "Ġass",
        "ess"
      ],
      [
        "cas",
        "ting"
      ],
      [
        "Ġcomput",
        "ing"
      ],
      [
        "Ġagg",
        "reg"
      ],
      [
        "Ġlabel",
        "ed"
      ],
      [
        "Ġcompar",
        "ison"
      ],
      [
        "Ġge",
        "omet"
      ],
      [
        "i",
        "ent"
      ],
      [
        "Ġstruct",
        "ures"
      ],
      [
        "Ġs",
        "k"
      ],
      [
        "Ġres",
        "pon"
      ],
      [
        "ĠS",
        "h"
      ],
      [
        "Ġl",
        "o"
      ],
      [
        "ĠAn",
        "aly"
      ],
      [
        "f",
        "ied"
      ],
      [
[...]
